/**
  ******************************************************************************
  * @file    network_data_params.c
  * @author  AST Embedded Analytics Research Platform
  * @date    2026-03-03T19:46:26+0800
  * @brief   AI Tool Automatic Code Generator for Embedded NN computing
  ******************************************************************************
  * Copyright (c) 2026 STMicroelectronics.
  * All rights reserved.
  *
  * This software is licensed under terms that can be found in the LICENSE file
  * in the root directory of this software component.
  * If no LICENSE file comes with this software, it is provided AS-IS.
  ******************************************************************************
  */

#include "network_data_params.h"


/**  Activations Section  ****************************************************/
ai_handle g_network_activations_table[1 + 2] = {
  AI_HANDLE_PTR(AI_MAGIC_MARKER),
  AI_HANDLE_PTR(NULL),
  AI_HANDLE_PTR(AI_MAGIC_MARKER),
};




/**  Weights Section  ********************************************************/
AI_ALIGNED(32)
const ai_u64 s_network_weights_array_u64[769] = {
  0xbe5fae43be72b9d8U, 0xbf91668dbf8ff157U, 0xbf86d15bbf2da9cfU, 0xbe8e51183cf6227cU,
  0x3da075f03f60f575U, 0xbe7a43f4c04d84ffU, 0xbfb0b8c1bfa0a4dcU, 0xbf523c3b3e63a384U,
  0x3d67fbaabdcc62adU, 0x3d8bf1d6bef9eaa1U, 0xbdd77947be78abc1U, 0x3ecc204abddff0aaU,
  0x3e482b363f0f7011U, 0xbf0395263c084a04U, 0xbdc9535fbde53d3fU, 0xbcb5e8253ee6483fU,
  0x3f185b33bee97577U, 0x3e0d11253de5becaU, 0xbe3d65113edc92e2U, 0x3e485899be886cd3U,
  0xbecdaacf3f0218e5U, 0x3cf6e559be26b0fcU, 0xbea8c200be58cf63U, 0x3d2bb2b3beba71efU,
  0x3ce91bfa3ef332faU, 0xbe85ec7d3ec24131U, 0xbd414266bdb2c511U, 0x3d93f7bf3b942b60U,
  0xbf1a0a6c3efe6d5cU, 0x3e3665c6befd9aacU, 0xbd46feee3e5b3797U, 0xbfcd9627bda24d70U,
  0x3f10e42dbf2d225aU, 0xbef1a9cdbd937f39U, 0x3f0b5c87bf2a4bc1U, 0x3f13764abe37f435U,
  0x3d87e4fd3d46165bU, 0xbd1369a9bd75e527U, 0xbc8f5142bc96519fU, 0xbc55a315bd86902cU,
  0x3eb260383e51215cU, 0xbf44d41abf1cd905U, 0xbe99c5b400000000U, 0xbf4afabbbe1fec55U,
  0x3e8d78733f19c5b4U, 0xbf8beecabeb26038U, 0x3f22ffa6bfc34a72U, 0xbf2612f6befc2fc1U,
  0xbf16b264bea612f6U, 0xbe812b31be2c3997U, 0x3e2c3997beefe280U, 0xbe99c5b43f8f021bU,
  0x3ddd6e9d3eefe280U, 0xbe1fec55bd44d41aU, 0x3e3886d8bf19c5b4U, 0xbdf609203ec4d41aU,
  0xbec4d41abcc4d41aU, 0x3e7609203e1fec55U, 0x3eb260383e99c5b4U, 0x3e8d78733eac3997U,
  0xbf41c0cabebead79U, 0x3c44d41abd139f14U, 0xbe5d6e9d3d139f14U, 0xbe99c5b4bf0a6522U,
  0x3e44d41abed1215cU, 0xbd139f143cc4d41aU, 0x3d939f143c44d41aU, 0xbe1fec553e8751d2U,
  0xbe9fec553d44d41aU, 0x3d139f143d760920U, 0x3ddd6e9dU, 0xbc44d41a3d44d41aU,
  0x3ea612f6bf043e81U, 0x3d939f143e139f14U, 0x3d939f143cc4d41aU, 0x3d939f143efc2fc1U,
  0x3e3c469abe9472beU, 0x3d8258433be7b95bU, 0x3be7b95b3d9f4f6fU, 0xbc67b95b3e10d3d9U,
  0x3dbc469abd10d3d9U, 0xbbe7b95bU, 0xbcadcb043e1811a4U, 0x3e7d72bc3dd93dc5U,
  0x3dbc469a00000000U, 0x3df634f1bbe7b95bU, 0x3d9f4f6f3e1811a4U, 0x3ec38465bd90d3d9U,
  0x3de7b95bbde7b95bU, 0xbcadcb04beaa2c1fU, 0xbd9f4f6f3d4ac230U, 0xbe4ac2303ed59ee0U,
  0xbd825843U, 0xbe3508cf3dadcb04U, 0xbe9811a43df634f1U, 0xbe90d3d93e09960eU,
  0x3d67b95b3d67b95bU, 0xbe4ac230bed59ee0U, 0x3d8258433ce7b95bU, 0xbbe7b95bbd825843U,
  0x3d10d3d9bd2dcb04U, 0x3c67b95b3e593dc5U, 0x3ebfe57f3e9472beU, 0xbe593dc53d825843U,
  0x3e0258433e268d39U, 0x3d9f4f6fbd2dcb04U, 0x3e2dcb043dd93dc5U, 0xbe1f4f6fbe1f4f6fU,
  0x3c67b95b3eb8a7b5U, 0xbd10d3d9bce7b95bU, 0xbd4ac230U, 0x3e7634f1bf65e9e8U,
  0x3eadd0f4bccb7dfeU, 0xbf430369bef1a59eU, 0xbd6d6853bf430369U, 0xbf60b073be9cdbc9U,
  0xbdcb7dfe3e3a88d4U, 0xbf342ce4be946134U, 0x3ee4edbebf7c3ed8U, 0xbee0b073bc07a954U,
  0xbf4b7dfebeadd0f4U, 0xbd87a954be7e5d7eU, 0x3edc73283e75e2e8U, 0xbe9cdbc93d4b7dfeU,
  0xbe3a88d43e836c09U, 0x3d4b7dfe3dcb7dfeU, 0xbe3a88d4be9023e9U, 0x3eb20e3e3ee92b08U,
  0xbe4303693dba88d4U, 0xbd2993a9bd989e7eU, 0x3ddc7328bee0b073U, 0x3e3a88d4be53f893U,
  0xbe3a88d4bded6853U, 0x3c87a9543d07a954U, 0xbee92b083d6d6853U, 0xbd2993a9bec740b3U,
  0xbeadd0f4be320e3eU, 0xbd6d6853bd6d6853U, 0xbe4303693e9023e9U, 0xbf167fd93e989e7eU,
  0x3ccb7dfe3c87a954U, 0xbda993a9U, 0x3e4303693d6d6853U, 0x3e211914be64edbeU,
  0xbe64edbebebec61eU, 0x3ccb7dfebc07a954U, 0x3e189e7ebd87a954U, 0xbd6d68533f869a01U,
  0x3e3c6386be80e5c8U, 0xbf0d4aa5be77e145U, 0xbe0ad012bf2d8417U, 0xbf61921dbe00e5c8U,
  0x3e14ba5dbe5a2266U, 0xbf9d675ebec158acU, 0x3f085580bf288ef1U, 0xbf14ba5dbe1ea4a7U,
  0xbdda2266bef7e145U, 0xbf2b0984bf0fc537U, 0x3e5a2266bd464dd1U, 0xbedf178b3f95f7a6U,
  0xbdda22663ec64dd1U, 0x3ea399cc3eb2793cU, 0xbe3c6386be0ad012U, 0x3f00e5c83f0fc537U,
  0x3dda22663e8ad012U, 0xbd8ad012bd1ea4a7U, 0xbcedf6fabe5a2266U, 0x3e94ba5d3d6df6faU,
  0xbc1ea4a7bc9ea4a7U, 0x3d6df6fabcedf6faU, 0xbe77e145be0ad012U, 0xbe0ad0123d9ea4a7U,
  0x3cedf6fabdda2266U, 0x3d6df6fabcedf6faU, 0xbc1ea4a73ea399ccU, 0xbf14ba5d3eda2266U,
  0xbe0ad012bf05daedU, 0xbd1ea4a7be00e5c8U, 0x3c1ea4a73d464dd1U, 0x3dda22663ec158acU,
  0xbf0d4aa5befcd66aU, 0xbd8ad012be464dd1U, 0xbdda226600000000U, 0xbea88ef13f7566b2U,
  0xbdbfd980bddca087U, 0xbcbfd9803d3fd980U, 0x3e27de503e3b0daaU, 0x3eb175fdbeefcfe0U,
  0x3defcfe03c197acdU, 0xbdbfd9803defcfe0U, 0x3e3b0daa3e017f9dU, 0x3e2caa273e9714e2U,
  0x3e4e3d033e92490bU, 0x3e3641d33d8fe320U, 0x3e49712dbd2caa27U, 0x3f077e69bdb641d3U,
  0xbb997acdbdc9712dU, 0xbe27de503e27de50U, 0x3d79678dbe8b174aU, 0x3d197acdbf1847d7U,
  0xbd79678d3d064b73U, 0x3c197acd3d663834U, 0xbe7e3364be5ca087U, 0x3c197acdbed56ec5U,
  0x3e749bb73e49712dU, 0x3e44a5573e017f9dU, 0x3c197acdbd064b73U, 0x3d79678dbece3d03U,
  0xbe3b0daa3ec4a557U, 0x3cbfd9803e27de50U, 0x3e1e46a3bde63834U, 0x3e017f9dbeaf1012U,
  0xbd197acd3d064b73U, 0x3ddca0873e0fe320U, 0x3d663834be017f9dU, 0xbe0b174abe864b73U,
  0x3d197acd3e3175fdU, 0xbddca087bec9712dU, 0xbddca0873d2caa27U, 0x3e3175fdbe197acdU,
  0xbe9a1c31bdf69382U, 0x3e8173d73e079deeU, 0xbe2c9a743e5196fbU, 0x3ed196fbbe13f21aU,
  0xbd4542cebe2c9a74U, 0x3d93f21abdac9a74U, 0x3cc542cebe6a3f55U, 0x3e769382be5196fbU,
  0xbe13f21abe4542ceU, 0xbd4542cebdac9a74U, 0xbd769382beddeb28U, 0xbd769382bd769382U,
  0xbd769382be13f21aU, 0x3e13f21abdf69382U, 0xbe8dc8043e38eea1U, 0xbe93f21abd769382U,
  0xbe079deebe879deeU, 0x3e4542cebdddeb28U, 0x3ec542ce3e204647U, 0x3eac9a74be6a3f55U,
  0xbe079deebe4542ceU, 0xbef69382be8dc804U, 0xbef0696bU, 0xbf8f528abeb2c48bU,
  0x3d93f21a3e93f21aU, 0xbf0488e2bf2faf7fU, 0xbfc3b8483df69382U, 0xbea6705ebe6a3f55U,
  0x3c4542cebdc542ceU, 0x3e2046473d769382U, 0xbf079dee3dddeb28U, 0x3eddeb28be204647U,
  0x3d76938200000000U, 0xbe13f21abd13f21aU, 0xbe769382bf57c111U, 0xbe204647bf82fe5dU,
  0xbeff2f3abebcd626U, 0x3db7bb9b3e04b229U, 0x3ec70b3dbd23516dU, 0x3df4fa24be2d8684U,
  0xbf41f0b1bf073f6eU, 0x3db7bb9bbd4c25c8U, 0xbd4c25c83d8ee73fU, 0xbd23516dbe9401cbU,
  0xbe0ee73fbf37bb9bU, 0x3cf4fa243d4c25c8U, 0xbdcc25c8bcf4fa24U, 0xbe04b229be37bb9bU,
  0xbe0ee73f3e2d8684U, 0x3d23516dbdf4fa24U, 0x3ec70b3dbcf4fa24U, 0xbde08ff6be37bb9bU,
  0x3c23516d3ed14054U, 0xbd23516dbdb7bb9bU, 0x3d4c25c8be84b229U, 0xbcf4fa243efa14afU,
  0x3e565adfbe04b229U, 0x3df4fa243d74fa24U, 0xbe6ac50d3df4fa24U, 0x3eb7bb9b3ec1f0b1U,
  0xbe2d86843fa20acaU, 0xbf352e55bf5e02b0U, 0x3cf4fa24bead8684U, 0x3e608ff63e608ff6U,
  0xbf1401cbbeefdf98U, 0xbec1f0b1beefdf98U, 0x3e23516dbde08ff6U, 0x3f565adf3e4c25c8U,
  0xbf8224e3bf608ff6U, 0xbe991c56bf565adfU, 0xbf2af93e3cf4fa24U, 0xbebcd6263df4fa24U,
  0xbd6b16f4be4db416U, 0xbd2490113eee073eU, 0xbdb05137be1eaf7eU, 0x3e5394a9bdc7d383U,
  0x3bbc125dbef0f787U, 0xbbbc125dbdbc125dU, 0x3ceb16f43d3c125dU, 0xbe3c125dbf0e85eaU,
  0xbd0d0dc6bdd394a9U, 0xbd3c125dbe3631caU, 0xbdc7d3833deb16f4U, 0x3d814ca0bd814ca0U,
  0xbea7805bbf02c4c5U, 0x3d814ca03bbc125dU, 0xbc3c125dbc3c125dU, 0xbec1f2f03f1d375aU,
  0xbe1eaf7e3e014ca0U, 0xbdeb16f4be872d33U, 0xbeffa8f6bd3c125dU, 0xbe7cb8ad3ee53661U,
  0xbe9bbf353e843ce9U, 0x3da490113e3631caU, 0xbe3c125dbd249011U, 0x3e072d333dbc125dU,
  0x3e872d33be305137U, 0x3e4db416be12ee59U, 0x3ea490113d5394a9U, 0xbd249011bdc7d383U,
  0xbe0d0dc63ebc125dU, 0xbdc7d383be0d0dc6U, 0x3e6b16f4bceb16f4U, 0x3e8ffe0fbf3a9a38U,
  0x3e12ee59bc8d0dc6U, 0x3e18ceec3cbc125dU, 0x3e014ca03d0d0dc6U, 0x3eb631cabea19fc8U,
  0x3e040771beb40a26U, 0xbf840771bf13084aU, 0xbf640cdbU, 0xbfa9898e3e640cdbU,
  0x3e280979be1c08cbU, 0xbfbe8abdbf160875U, 0x3f6a0d31befc0e35U, 0xbf840771bda80979U,
  0xbeba0a7cbf13084aU, 0xbf670d06bf10081eU, 0x3e040771be400ad3U, 0xbf430afe3f550c02U,
  0x3e2809793eea0d31U, 0x3e700d883e400ad3U, 0xbdf00d88be1c08cbU, 0x3e700d883ed80c2dU,
  0xbe1c08cb3e10081eU, 0xbdc00ad3bcc00ad3U, 0x3c400ad3bed80c2dU, 0x3e400ad33e840771U,
  0xbe340a263d700d88U, 0xbe040771bd400ad3U, 0x3e10081ebcc00ad3U, 0xbdd80c2dbcc00ad3U,
  0x3cc00ad3be9c08cbU, 0x3d10081ebc400ad3U, 0xbda809793ec60b2aU, 0xbe340a263eb40a26U,
  0xbe9c08cbbdc00ad3U, 0xbc400ad3bc400ad3U, 0x3e580c2d3d90081eU, 0x3d90081e3e400ad3U,
  0xbede0c84bf340a26U, 0x3e2809793c400ad3U, 0xbdd80c2dbd400ad3U, 0xbda809793f280979U,
  0xbf1ac871bf602b20U, 0xbf482681bed0280bU, 0x3f582996be4024f7U, 0xbfa975ef3d2acb86U,
  0xbd557e68befadaedU, 0xbf896fc6bee5817cU, 0x3ebace9bbd0018a4U, 0xbf86c4983c2acb86U,
  0xbe157215be8ac55dU, 0xbf72d963be602b20U, 0xbdd57e68bdc024f7U, 0xbef584913e2acb86U,
  0x3d557e683eb5783eU, 0x3e901bb93e758491U, 0xbf0ac55dbe9ac871U, 0x3e75849100000000U,
  0x3dc024f73e557e68U, 0x3c2acb863d2acb86U, 0x3d8018a4bef58491U, 0x3e0ac55d3c2acb86U,
  0x3e8018a43d957215U, 0xbe0ac55dbdaacb86U, 0x3ec57b53bed0280bU, 0xbd8018a43eead7d8U,
  0x3e8018a4bdd57e68U, 0x3d0018a43d957215U, 0x3e2acb863ed57e68U, 0x3efadaedU,
  0xbe0018a4bf2d76b4U, 0x3d557e683caacb86U, 0x3d9572153e157215U, 0xbe0018a43d957215U,
  0xbe8018a4bf557e68U, 0xbd0018a4bd957215U, 0xbe157215be8018a4U, 0xbe901bb93ea01eceU,
  0x3dffe4f4bf3dc9cfU, 0x3dbba7e63ebfebb7U, 0xbdaa98a33e198960U, 0x3d087a1c3e442f88U,
  0x3e8cbdedbe332045U, 0x3dddc66ebdddc66eU, 0x3d087a1c3d4cb72aU, 0xbdeed5b1bdaa98a3U,
  0x3e8cbded3e332045U, 0xbc087a1cU, 0x3c887a1c3d4cb72aU, 0x3e4cb72a3ea654d2U,
  0xbe332045bf2cba8bU, 0xbd087a1cbe442f88U, 0x3cccb72abdbba7e6U, 0xbf1101be3ee64e0fU,
  0xbe553eccbdaa98a3U, 0xbe664e0fbd887a1cU, 0xbf442f88bd6ed5b1U, 0xbef319823eaa98a3U,
  0xbc887a1c3dddc66eU, 0x3c087a1c3d4cb72aU, 0xbe775d533d2a98a3U, 0x3ec873593ec42f88U,
  0x3eb32045bc087a1cU, 0x3deed5b13e221101U, 0x3ec42f883e221101U, 0xbe8cbdedU,
  0xbd6ed5b13e8cbdedU, 0x3cccb72a3d6ed5b1U, 0x3e442f883d087a1cU, 0xbdeed5b1be9101beU,
  0x3e442f8800000000U, 0xbd2a98a3bdaa98a3U, 0xbcccb72abd087a1cU, 0x3e5dc66ebf876928U,
  0xbde4d8f8bd4427b0U, 0x3e2ba2babe131dc4U, 0xbebbfb5e3ea37668U, 0xbee8ef213ea78c91U,
  0x3da37668be931dc4U, 0x3cc427b0bf278c91U, 0xbed8967d3d64d8f8U, 0xbe0af1723e7d5deeU,
  0xbd02c520bde4d8f8U, 0x3d931dc4bef11b73U, 0xbdd480543df5319cU, 0xbe82c5203f4632c4U,
  0xbe6d054abe1b4a16U, 0x3e3bfb5ebe237668U, 0x3e33cf0c3e131dc4U, 0xbe33cf0cbf62cde4U,
  0x3e02c5203e548054U, 0xbe8f079bbe931dc4U, 0x3e3bfb5ebeb7e535U, 0xbdb3cf0c3df5319cU,
  0x3e86db49bd237668U, 0x3d4427b03e8af172U, 0xbc82c5203e4c5402U, 0x3ec01187bd82c520U,
  0xbeafb8e3bdf5319cU, 0xbdb3cf0cU, 0x3d64d8f83d82c520U, 0x3cc427b03f00ba0cU,
  0xbe9b4a163f04d034U, 0xbdb3cf0c00000000U, 0xbe33cf0cbdd48054U, 0x3e3bfb5ebf81bf96U,
  0xbe4427b0bdb3cf0cU, 0x3d64d8f83d02c520U, 0x3e02c5203d64d8f8U, 0x3ee0c2cfbe9733edU,
  0xbdbffb1dbefd10d5U, 0x3df456df3e8b9f5bU, 0x3dd16f08bdd16f08U, 0x3d2e8732bf8970deU,
  0xbc8b9f5bbdae8732U, 0x3cd16f08bd0b9f5bU, 0xbe0b9f5bbd8b9f5bU, 0xbd2e8732bf60b476U,
  0xbd9d1346be874260U, 0x3dd16f083d516f08U, 0x3c8b9f5b3d9d1346U, 0x3ebffb1dbeda28feU,
  0xbd7456df3dd16f08U, 0xbd8b9f5bbdae8732U, 0x3cd16f083c8b9f5bU, 0x3dd16f08be48b513U,
  0xbe8b9f5b3e2e8732U, 0xbcd16f08bdbffb1dU, 0xbee73fefbc0b9f5bU, 0xbe874260bd0b9f5bU,
  0xbdd16f083d0b9f5bU, 0x3e0b9f5b3e48b513U, 0xbeb74127bdd16f08U, 0x3eb2e42dbed16f08U,
  0xbdbffb1d3d516f08U, 0x3d8b9f5b3e374127U, 0x3e25cd3c3d2e8732U, 0xbde2e2f4bf8a881cU,
  0x3c0b9f5b3d8b9f5bU, 0xbd9d1346bd9d1346U, 0xbd0b9f5bbdae8732U, 0x3d0b9f5bbec8b513U,
  0xbe0b9f5b3f122ad3U, 0xbd7456dfbdf456dfU, 0x3c8b9f5b00000000U, 0x3f1ae4c9bf4f408bU,
  0x3d8ff5073e60eedbU, 0xbc8ff5073d0ff507U, 0x3d8ff507bea67350U, 0x3e21f3a83d7becccU,
  0xbec5f0eabd57ef8aU, 0xbc8ff5073d33f249U, 0x3e86f5b7bea67350U, 0x3da1f3a8bec5f0eaU,
  0xbecef03abf06f5b7U, 0x3d7beccc3d57ef8aU, 0xbda1f3a83dfbecccU, 0x3dd7ef8abedc6f33U,
  0x3e2af2f83e7becccU, 0x3c8ff5073c0ff507U, 0xbe33f249be2af2f8U, 0x3ea67350bc8ff507U,
  0xbd7beccc3e69ee2bU, 0xbd57ef8abc8ff507U, 0x3de9ee2bbea67350U, 0x3d33f2493e7becccU,
  0xbe72ed7cbe0ff507U, 0x3cd7ef8a3dc5f0eaU, 0x3dd7ef8a3da1f3a8U, 0x3dc5f0ea3d57ef8aU,
  0x3d33f2493d33f249U, 0x3d7becccbe21f3a8U, 0x3ea673503e0ff507U, 0xbeaaf2f83cd7ef8aU,
  0x3da1f3a8bd57ef8aU, 0xbf09358bbf04b5e2U, 0x3c8ff507bec17141U, 0xbf2d32cc3f0b755fU,
  0x3dc5f0ea3cd7ef8aU, 0xbf0db533bf8ed51dU, 0xbf51300ebc0ff507U, 0xbef76d243ecef03aU,
  0xbed3809900000000U, 0x3dc8bf7bbc656d1fU, 0x3e24e66e3e6c9888U, 0xbd2c11d73eac11d7U,
  0xbe7aef5a3dba68a9U, 0x3dba68a93cac11d7U, 0xbe48bf7b3c656d1fU, 0x3df3c3f13ecc5530U,
  0xbde56d1fbe48bf7bU, 0x3d810d613d48bf7bU, 0xbe3a68a9bdac11d7U, 0x3f3172663ea87c23U,
  0x3de56d1fbf0d9959U, 0xbbe56d1f3dac11d7U, 0x3ec19412bd8f6433U, 0x3d656d1fbdd7164dU,
  0x3d2c11d73d8f6433U, 0x3d0f6433bc656d1fU, 0x3e1dbb05bce56d1fU, 0x3be56d1fbf02d83cU,
  0x3e4feae43e168f9cU, 0x3ce56d1f3c656d1fU, 0x3cac11d7be656d1fU, 0x3d8f6433bf63a245U,
  0xbe92f9e8bde56d1fU, 0x3ce56d1f3d0f6433U, 0x3e92f9e83be56d1fU, 0xbdf3c3f13d48bf7bU,
  0x3d656d1f3edaac02U, 0x3d48bf7bbd0f6433U, 0xbc656d1fbe010d61U, 0xbe8f64333d656d1fU,
  0xbe5e41b63ea150baU, 0x3de56d1f3c656d1fU, 0xbea150babc656d1fU, 0x3e810d613e419412U,
  0xbdbe83713d0ee295U, 0x3d0ee2953dee244dU, 0x3dd653dfbe5653dfU, 0x3e3e83713d6e244dU,
  0xbefa0c84bda6b303U, 0x3c3e83713c3e8371U, 0x3dee244dbe3e8371U, 0x3e3e8371bd8ee295U,
  0xbf26b303bfbd066aU, 0x3d8ee2953cbe8371U, 0xbd3e8371bc3e8371U, 0x3d0ee295bee83032U,
  0xbf4d65b6bd8ee295U, 0x3e26b303bd3e8371U, 0x3f0ee2953dbe8371U, 0xbf05f46bbe4a6ba8U,
  0xbefa0c843e4a6ba8U, 0xbe94d6b0be88ee79U, 0xbe02fa5ebed05fc4U, 0xbe82fa5e3f388f55U,
  0xbf8be887bf20bee7U, 0x3dd653dfbd0ee295U, 0x3eb88f553c3e8371U, 0xbeee244d3ed653dfU,
  0xbeaca71e3f85f46bU, 0xbe5653dfbe5653dfU, 0xbee23c16bd0ee295U, 0x3fa9ad1100000000U,
  0xbe7a0c84be623c16U, 0xbe88ee79beb29b3aU, 0xbe5653dfbd6e244dU, 0x3f17d0be3e4a6ba8U,
  0xbe8ee295be6e244dU, 0xbf1acaccbf505fc4U, 0xbf14d6b0be88ee79U, 0xbea0bee73ea6b303U,
  0xbdc2f460bdac919eU, 0xbc9fab023d3daf20U, 0x3d99eff0bdf2e91aU, 0xbd4f2706baad0c3aU,
  0xbd304728bcbd2ef9U, 0xbda1d483bd7dabd0U, 0x3cd9ae00bd71b1ffU, 0xbdcea033bdc87e0cU,
  0x3f12255fbf2987ceU, 0xbf518118bf2fdec2U, 0xbf3186bf3e113f3dU, 0x3e72a245bdcd1936U,
  0xbf89b79ebf46cf9eU, 0x3e1b646dbdabe28cU, 0xbec3ae393f1bf559U, 0xbf38d9e83ece6da6U,
  0x3e7f78f8bf064567U, 0xbeee33f1bea45a3eU, 0xbe8a79983dc9911cU, 0x3e9f6adbbc0937ffU,
  0xbebc9560bf1d9e18U, 0xbe2b61d5be59e314U, 0x3d895d573ec06de0U, 0xbeffc0563c413cbaU,
  0x3cde2b21bf195369U, 0xbf78a593bf6ec24fU, 0xbf580ca03ee643eeU, 0x3ed5d16fbf00d005U,
  0xbf849078bf1d2dbaU, 0x3f2920a43ef454a7U, 0xbe7d55aa3f22ce8cU, 0xbf3ca2c7bccb8a2fU,
  0xbbdebfd0bf85a37bU, 0xbf771151beb18cadU, 0xbf29cda73e342bf1U, 0x3ee8241ebe93a6f7U,
  0xbf70c278bf49ff2eU, 0x3f3514ef3ed84e64U, 0xbe0439403f348c4bU, 0xbf667b533f05b7a2U,
  0x3c897760bfa305ceU, 0xbf5f8602bf35d089U, 0xbf4fa7793dbad8ebU, 0x3ed03753bdcdd906U,
  0xbfa2e6babf313935U, 0x3f459f7f3efbb14eU, 0xbe86a5a63f02d76aU, 0xbf809f193f20c669U,
  0xbf253e743f86ede2U, 0x3fc99dbe3f92e3d3U, 0x3f3793603e09f79cU, 0xbda8b84e3f31ad19U,
  0x3f7acfa43fb2eed4U, 0xbf3cd826bf1bed79U, 0x3f2a87e5be399a6aU, 0x3f418bffbf070816U,
  0xbdab7287bf0ea98fU, 0xbf6562b1bf03fe70U, 0xbf16d8d13ebb2160U, 0x3f0d0c6fba84e661U,
  0xbf864cc1bf8c2e96U, 0x3e9375b43ec2d39bU, 0xbf3456433ed4565aU, 0xbf00c6db3e556094U,
  0x3e159dd4bf6e65a4U, 0xbf49f9e4be918157U, 0xbf1409e83dd35048U, 0x3f2a1258be390d42U,
  0xbf4845a2bf35eac4U, 0x3deee40f3e77f152U, 0xbdde16053f339502U, 0xbf5120923eacd10cU,
  0x3e02eae43f9e5259U, 0x3fa9b8883f5a092dU, 0x3db6e1943ce15312U, 0xbecd51483eed2eb7U,
  0x3fbbef0d3f9edc6cU, 0xbe416727bf22cc86U, 0x3ea81a7dbe96678dU, 0x3fb7c794be6d2a2eU,
  0x3ec919f7bedac61cU, 0xbf6344b2bf1d3f7eU, 0xbf68cd9b3e39a360U, 0x3f2c1604be799894U,
  0xbf2fc720bf011143U, 0x3e031f0c3ed0b5b3U, 0xbea431653ef29d79U, 0xbf1e8f71bdb0df0eU,
  0x3ef3b0f1bf8166e6U, 0xbf5ac87abedf43eaU, 0xbf0c572f3ea88d67U, 0x3e36e0d5be617fa6U,
  0xbfa70c71bf0176a8U, 0x3ec18f213eb75ca2U, 0xbef843ac3ed5f1c9U, 0xbf7311523ec08365U,
  0xbe849a1f3f737035U, 0x3f88e4ee3f5fcfb6U, 0x3f2d82f4be9c1107U, 0xbd9954783f49ca9aU,
  0x3fae39bb3fa0737fU, 0xbe2a32d6bf49c570U, 0x3f093281bf0f5026U, 0x3f5a596bbe861acaU,
  0x3f046cd7bf3bd1acU, 0xbf6ee5adbf41f760U, 0xbeacb60a3ecda6c6U, 0x3e734c7bbed08f69U,
  0xbf8e0c0fbf52d837U, 0x3f2a863d3ed4c0e6U, 0xbed15dc33d613636U, 0xbf2409883ec26002U,
  0xbedb9d693fc0bb36U, 0x3fb139333fa595ceU, 0x3e29d36f3ddd88e9U, 0xbf0cee7c3f80f025U,
  0x3f6a11713fa76c48U, 0xbf43138abf1aa245U, 0x3eb77476befd1591U, 0x3fa2bb0a3e4feb14U,
  0x3e9e51babf5876eeU, 0xbf47762abf1a08a0U, 0xbf46c04c3e2c1a1aU, 0x3f04939abeac1cc0U,
  0xbf5b058abf2f05c3U, 0x3ec5ede23ecc81c6U, 0xbecb099c3f1d7b29U, 0xbf4ea7f03f0b60e3U,
  0x3a098b7abf7aeedcU, 0xbf24a5e2bec03adaU, 0xbf428e6f3ec84274U, 0x3e143bd6bebe2f0bU,
  0xbf0bb21ebf4ca3aeU, 0x3f3c7ddb3e6473d7U, 0xbf118ae03d9611b5U, 0xbef525d93f055905U,
  0x3d801bed3d85c8ccU, 0x3d397fed3da1ea81U, 0xbc3f19b33db9ae94U, 0x3d357f723db17daeU,
  0x3d56846dbcc5e026U, 0x3b7e4fbe3d6e6fabU, 0xbd6104d33d356074U, 0x3d8737903d6b5992U,
  0xbeefa2e1bf9c5813U, 0xbf85fcf5bf7466aaU, 0x4005430fbf554c0fU, 0xbf9d84c8bf8a32eaU,
  0xbf9717bb4006a320U, 0x3fe59804bf7f336eU, 0x4011f11abf84526dU, 0xbfa4b560bf970010U,
  0xba742bb7U,
};


ai_handle g_network_weights_table[1 + 2] = {
  AI_HANDLE_PTR(AI_MAGIC_MARKER),
  AI_HANDLE_PTR(s_network_weights_array_u64),
  AI_HANDLE_PTR(AI_MAGIC_MARKER),
};

