/**
  ******************************************************************************
  * @file    network_data_params.c
  * @author  AST Embedded Analytics Research Platform
  * @date    2026-04-28T22:58:29+0800
  * @brief   AI Tool Automatic Code Generator for Embedded NN computing
  ******************************************************************************
  * Copyright (c) 2026 STMicroelectronics.
  * All rights reserved.
  *
  * This software is licensed under terms that can be found in the LICENSE file
  * in the root directory of this software component.
  * If no LICENSE file comes with this software, it is provided AS-IS.
  ******************************************************************************
  */

#include "network_data_params.h"


/**  Activations Section  ****************************************************/
ai_handle g_network_activations_table[1 + 2] = {
  AI_HANDLE_PTR(AI_MAGIC_MARKER),
  AI_HANDLE_PTR(NULL),
  AI_HANDLE_PTR(AI_MAGIC_MARKER),
};




/**  Weights Section  ********************************************************/
AI_ALIGNED(32)
const ai_u64 s_network_weights_array_u64[51521] = {
  0x3e5d68053f8ec72dU, 0xbf1c33cdbf0db3a2U, 0x3fc8fc09c0364122U, 0x3fe7a0a2c00ed7c6U,
  0xbec33d99405a8931U, 0x3ee945e3bebce68bU, 0x402cbc853f1fa2f7U, 0x3eba35a33e636a2fU,
  0xbf42f3763f76e1a3U, 0x408cd287bfb35e2cU, 0x3e82e0d6bfac4a8dU, 0xc0963ac5bfdf7c48U,
  0x3dc96020403e55d9U, 0xc020bd32bf374066U, 0x405eaa854035b4c4U, 0xc003e6f13f997fefU,
  0xc016b22dc04a9226U, 0x3facdb61c00b5b15U, 0xbeebcdcbbf9482ecU, 0x3e37ab7dbfc0eb3fU,
  0xbf2ca580bf8d9567U, 0xbf6bb44c3efd6775U, 0x3f465b64c0013d12U, 0x3f98e1f8bfdf7c4cU,
  0x3fdebccfbfb18eb9U, 0xc0590fc73ecd06b5U, 0x404ea47c401809bfU, 0xbef144efc02a15a3U,
  0x4088aaf53fc2ed09U, 0xbffaa0033f4b08f1U, 0xc071bc773f040597U, 0xbfff31b3be686cdeU,
  0x3f1a00c7bee559feU, 0xbefc66f9be7d9847U, 0x3f6fce393f416ae6U, 0x3f47f83e404b129dU,
  0xc079a34f3fc68bc6U, 0x4044565f3f687ed7U, 0x400646bfc04cca46U, 0x3f2087d0c061d30dU,
  0xbdd340663f7a7fdfU, 0x3ffd320fbf6616a9U, 0xc00b0b414032d87cU, 0xc0530083bff9db17U,
  0x400a4e32c08800faU, 0xbea7efd8be0b7adaU, 0xbeb107aabf941268U, 0xc04721a2c03e9dceU,
  0x402fd668bfd22364U, 0x40129e223fa0898dU, 0xbf935dfbbeaca63aU, 0xc00cf024c0730682U,
  0xbf98ce543fb77999U, 0xbeadda25bf8ab091U, 0x3f2fb4edbf531daaU, 0xc04aa7d9405adb8eU,
  0x3fbc2b263e33d259U, 0x3e175271c022798aU, 0xbfa0586abfb3b6a8U, 0xbf8b035440127e91U,
  0x4059a8e6bed330dcU, 0xbf51ba29c0a92487U, 0x3f875acac07b0d60U, 0x3fa8557cc00cba48U,
  0xbf9ed4d2bc8bcee3U, 0x3f7aa18fc0992e41U, 0x3f8642efbc980b28U, 0xbfe27190402d868aU,
  0x40049b81c087dcffU, 0x3ee556cebe6a2fcfU, 0xbfa509a840490c39U, 0xc04c39384065275cU,
  0x3fd1e645bf9a3d96U, 0xc06931de40416ce7U, 0x3fe09713bfac4c9fU, 0xbf0f252c3fdf0a68U,
  0x3fbd5547beb77e68U, 0x40885d9bbfa51095U, 0xc08cc1c2bfd58a00U, 0x4012b66cbf8b70cfU,
  0x3e58e9cb3fc770c0U, 0x401cf21fc06a2387U, 0xbdad4da93fb4d350U, 0x400a70423f3d91e8U,
  0xc09ad9d03fc4f003U, 0xbf8a8191bfdb941aU, 0xbfcea427bffa35a2U, 0xbe3f9b29be92c158U,
  0x3fed3941c00ce21bU, 0x3fa0b2293f772265U, 0xbffe25cd4065a919U, 0xbff23c0dbfa7f56fU,
  0x3e4e73413fa78b5cU, 0x3f2c038f401a65d7U, 0x3f0e396ac015e31bU, 0x3f8fb0293ed728c6U,
  0x3e8f09adbfb7c07eU, 0xc03f396a3dd8c435U, 0x3ffd63fbbfa79512U, 0x40308b663f7eafc9U,
  0xbf8075aabed61ed7U, 0xbf9bf570c023cedcU, 0x407303f1bf9dbe92U, 0x4059c118401addf8U,
  0xc07893de402727eaU, 0xc042828c3f56834eU, 0xbf192f20bdf68c69U, 0x3ebd92e33f87bd6cU,
  0x3e820819bf3d523bU, 0xbfa14ffcc0296a14U, 0xc00af5e7bfd44fddU, 0x3f97ed1c3edbf9b7U,
  0xc0c739603f5023e8U, 0xc07e25c13ea62fa6U, 0x4037cde7405b0345U, 0xc00f49f1402a61aaU,
  0x3fca6b58c013dd65U, 0x3fc83681c028c033U, 0xbd8fd919bf42be3fU, 0xbe6222193f999cbdU,
  0xc0a115a3409a8d11U, 0x3ec2d0c5c04066f2U, 0x3f295e484065e430U, 0xc0432bd7bfb0eed4U,
  0xbfa09e60c04af713U, 0x4025fe78bfd5e3cbU, 0x402e7f5e3f2a1faaU, 0xc07eb32ebf626db4U,
  0x3f72a61ec093cef5U, 0x407818f13fa0fe4aU, 0x3fce355ac06f083fU, 0xbf8a92c7c0628561U,
  0x406eb7993fe8b1ccU, 0xbee03983bfbb53baU, 0x3ebc4d2bbfd4b653U, 0xbfd071e1406eb69fU,
  0xbfd7aefa3f2f6ca7U, 0xbf898c66c056d8fcU, 0x3db61e3e3fc345ccU, 0xbf304091404e7075U,
  0xc08f47943fbea444U, 0x408e401a3fd4d7b4U, 0xbfe66531bf75c313U, 0xbfb71f023fd0889eU,
  0xbf466bd1bed28ec4U, 0x3eb2d22a3e1a2f30U, 0xbf0529f73eeb3804U, 0xbf1c216dbe026560U,
  0x3ee5c3be3e4bdad8U, 0x3f0328483eb48eacU, 0x3ebb21a43e5efb20U, 0x3d40c5003e51c3d0U,
  0xbeb44643bdcc9dd0U, 0x3e14b0123d737b80U, 0xbe8dbe24bee12455U, 0xbe5a5240bf6798fcU,
  0x3e8b8b143eaa9133U, 0x3e8e74913eb12af8U, 0xbe72f5303e76b59cU, 0xbec84804be641310U,
  0xbc3ccee03d81ac72U, 0xbcfe0f443db3f055U, 0xbb47b85fbd31229aU, 0x3d9df007bc92e928U,
  0xbd2f4bf13d51bed4U, 0xbcb0eed0bb2140baU, 0xbd8e39a7bd283755U, 0xbac743773e01a98eU,
  0x3d740affbd02cc42U, 0x3d3e879d3e015316U, 0x3cda40c3bd7ab64bU, 0x3d31605d3c7b95b8U,
  0xbd4b7b853e01b4a8U, 0xbd83e8dbbe092432U, 0x3d2b5165bdc266b8U, 0x3d4148123ce7ba8aU,
  0x3a6c60e2be00fc46U, 0xbd8e4ff23c766868U, 0x3ced80553daa96a3U, 0x3d05c848bd209e09U,
  0xbd74c24fbdfcca1cU, 0xbe537aef3e2a2663U, 0xbdb303d5bcc3868fU, 0xbdc58e51bd08aa3eU,
  0x3d4983ebbd8c77bdU, 0x3dcaea36bd3746ebU, 0xbddf156f3db9d789U, 0xbd12cb7e3dd43a76U,
  0x3d74e2903e632a65U, 0xbdfeb6ccbd4829efU, 0xbc855e013e0dcce9U, 0xbc33ce8e3e4b2299U,
  0xbd10e4e23c076b4fU, 0xbe712f59bc976e3bU, 0x3caf8c663b66cce5U, 0x3c736cb93b6505b1U,
  0x3ce69bcfbd8905ddU, 0x3dfbbc01bd9b8d5bU, 0xbe500f9fbdf6852eU, 0x3e1df9253de33a4fU,
  0xbdf3a782bc3e9a56U, 0xbc21ccfdbd822998U, 0xbb6c022438ea8dd5U, 0xbdfaa1d8be12dad2U,
  0xbdf1d25f3d5c9ef8U, 0xbe9486b13cda50b4U, 0x3afcbbb13d3ed93eU, 0xbcb34001bd77b5caU,
  0x3cef4251bcb4a6f1U, 0x3dc85ec4bd4ddcb7U, 0xbc1121a1bd1dbdd3U, 0x3b2b79fbbbff450fU,
  0x3bf4e6733cc06f55U, 0xbcc00798bde7a414U, 0x3cab4ba1bc9b681eU, 0x3bcb05dabd24e6d1U,
  0xbc60ac5d3b694b64U, 0x3d940fdabbe3155bU, 0x3dba83d1bdb5f73fU, 0xbdc275e23cbf782cU,
  0x3d3bff0a3c4ca43aU, 0x3d7f72d6bd4bd983U, 0x3d50ba31bcc2b18fU, 0x3d974ab73c03a222U,
  0xbdbb2922bb5162a8U, 0x3cb1bd5ebceb3e5aU, 0x3d59ae34bda14807U, 0xbd9bb7b6bd76d6d4U,
  0x3d7245573dfb94a1U, 0xbd9124923b9d7fa5U, 0xbe19e73ebe34db0eU, 0xbe04d7febd25b2adU,
  0x3dfdba04be19f25fU, 0x3d70ced1bd65a791U, 0x3c13c0613da8d289U, 0x3b227c3e3cb072acU,
  0x3df4585abd32e598U, 0x3e3a75b53d22e659U, 0xbd0393bc3c98b133U, 0xbd8d807cbd486ffaU,
  0x3c4497f2bde4277fU, 0xbcd1b0da3d81018dU, 0xbe178f4abdc9ff80U, 0xbd95ec70bd5fece9U,
  0x3db8ff09be1bd867U, 0xbcbed23b3c69deaaU, 0xbd00cfad3d695439U, 0xbe25e44cbdc2954aU,
  0x3da3cb5c3d94ab96U, 0xbdf3d059bd6b01b2U, 0x3cc097c0bc24872fU, 0x3d98cdec3bf75bbcU,
  0x3cc87a3cbd26955fU, 0x3e115d103d3a3c6cU, 0xbc8bcd3b3e5ce2d3U, 0xbb149d5d3be187abU,
  0x3d8f01ecbc2049b0U, 0x3c174922bd7cfc56U, 0x3de9fa55be1da56aU, 0xbc45b58cbd11a441U,
  0x3bae084abda0d8dfU, 0xbdffb10abdec7b5bU, 0xbcdf5f29bd905816U, 0xbd5064883e597522U,
  0xbe55679a3be9910cU, 0xbe022693bd50d65bU, 0x3dc20e1ebd50adadU, 0x3d7455433decb9e6U,
  0xbdbf03cdbd98aeb1U, 0xbd999d19bd90f38fU, 0x3c89daa3bbf7cb1aU, 0x3d257ba33d90b113U,
  0x3cbf3fefbd6905d6U, 0xbcaa623abdf45a5eU, 0xbb02e019be06c16fU, 0xbceba0a53d8abd0cU,
  0x3daa488cbcfb3c82U, 0xbe5827503d2f9c08U, 0xbe0164c9bd612f60U, 0xbdaa48eb3ce8b2b6U,
  0xbdf99a7f3d07671dU, 0xbe5ea4c03d989fceU, 0xbe0aef133e21f62dU, 0x3d7d91aebc342e62U,
  0xbd9b7fe5bdc7feddU, 0xbe45faa2bd6de03cU, 0xbdeeabbb3c76c083U, 0xbd81f560bdfb2698U,
  0xbc67d9103d9b512fU, 0xbdec7f4fbc8bb0f7U, 0x3bec38a43c85460cU, 0x3c989741bd94b1d1U,
  0xbda72c94bd9b412fU, 0xbd992788be684d4aU, 0x3e5537d53cf7c059U, 0xbd5eed043c2029d3U,
  0xbe016cdfbd3c19c5U, 0xbdcc51c9bd81d2f8U, 0xbd091d09bc9a8f8cU, 0xbc242b60bd5969b7U,
  0xbd8a3766be1f1b7eU, 0xbd9e2efbbe0d7bafU, 0x3e0a6b27bde6a5fdU, 0x3cfc52bb3e0fff42U,
  0x3cc6e8e03c582b5dU, 0x3d9fbf33bbdda4e2U, 0xbb09a7c3bc85a3feU, 0x3b1e3e6c3d342d8aU,
  0x3d3b0463bc04896cU, 0xbd1a28f03d08845bU, 0xbb2c3448bcb22fe3U, 0xbcbc2b0bbd6778c6U,
  0xbca0c78e3d09a082U, 0xbd34aeccbc27208aU, 0x3c2dc2de3ca6068cU, 0x3cbb7e2b3c829ad1U,
  0x3d215bbabc87bb21U, 0xbb2ad73c3d250336U, 0x3d3730eb3c836713U, 0xbb12b281bd1d9165U,
  0xbbfa55b73cea31f9U, 0xbaaf5c25bc880bd7U, 0x3c7f86143c30cb46U, 0xbc9856be3ce60870U,
  0xbca85d7f3c7f0d3eU, 0xbd440ecf3b8abba5U, 0xbd5b4ac2bc219371U, 0x3c884ece3bc7fa4eU,
  0x3d362601bc72c171U, 0xbc207e9f3b4e9e09U, 0x3d3da01b3a584a64U, 0xbb6886e63c8eb72cU,
  0x3d576a6e3c077978U, 0x3d4c2d75bbd0a1d8U, 0xbb3eb572bc7dc91aU, 0xbcbfee853ce735c3U,
  0x3cce40863cc2382aU, 0xbc9510bebdab1754U, 0x3a8dfc1fbc9195c9U, 0x3c4cccc73d23cd4fU,
  0xbc18dc6cbcffa14fU, 0xbccd8ea2bd4257f0U, 0xbcf28a5cbd0fcc61U, 0x3ccf60fcbd747463U,
  0xbd1c21cebd3b4521U, 0x3b0600133d2e4a74U, 0xbcaecaa9b9122ef5U, 0x3ced87583cebc11aU,
  0x3d70cc01bd11bcc5U, 0xba9b9022bcf35ac6U, 0xbcd3b4f6bda59416U, 0xbb805e87bd03217cU,
  0xbbc402edbd1ddfcdU, 0x3c19dc1fbbc84c48U, 0xbd37a2e9bb423109U, 0x3c82409abaed2a57U,
  0x3c427cad3b0466ccU, 0xbc6e885bbcd88dc9U, 0x3c6d9723bbc2bd57U, 0xbc621864bc5e9467U,
  0xbbdc34c9bbb5d073U, 0xbcce795fbc9a110eU, 0xbd31fe2abc679920U, 0x3c7d5de1bc35c965U,
  0xbdc1c241bbebb43cU, 0xbcaeb3993cc6cdcfU, 0xbd180bbabc446a8cU, 0xbd2337523c728366U,
  0xbc9b9cadbc838ff1U, 0x3d1d6595bd431f95U, 0xbbacd779bc15c1cdU, 0xbc6d3d6ebc7b099aU,
  0x3ab8c399bc1c0504U, 0xbd170761b9dde64aU, 0x3a4833e53c62c6c9U, 0xbc9d1fb53d0784baU,
  0xbcabe8853c442d94U, 0xbc8b4d9e3d2626a2U, 0x3c77d047bcbecf7eU, 0x3cbf5d60bd10909bU,
  0x3c855f673c5dadf1U, 0x3955f6133b81921eU, 0xbba9a99d3c583072U, 0xbb91bb24bb5f6dd9U,
  0xbcfbcb653c86b459U, 0xbc893f72ba2ec46bU, 0xbc93d0753d4142f2U, 0x3c555fa0bc7fcb7eU,
  0x3d56b2d13d61a1dfU, 0x3cf1a0ccbcee2e62U, 0xbbe51794bca0a671U, 0xbbc500eabbde76fdU,
  0xbcbc1ecf3c62bf15U, 0xbd73b284bcca685cU, 0x3b231c4a3a00c0caU, 0xbca548bfbc56ec11U,
  0xbda4ec3abd07e189U, 0xbce7e2adbd2d8eedU, 0xbcb4d35ebd415827U, 0xbda3ff733c0bdd64U,
  0xbaada23abd36aabcU, 0xbd5af8c6bd106ce3U, 0xbd1f024c3b3f8588U, 0x3c74dbd1bcb15fadU,
  0x3cf77015bd216ca5U, 0x3be538703c33354eU, 0x3c20f784bd46574bU, 0xbd6707e83d246db1U,
  0xbbc328b9bbf375d0U, 0x3ce0326dbd2044d2U, 0xbd1194103c8b8f2aU, 0x3c7d523dbc5026efU,
  0xbb85e58e3d85afe1U, 0xbd425541bd39c4f0U, 0xbd27f889bc4e4688U, 0xbc841dd2bcf0a1a4U,
  0xbc184a69bd3fea23U, 0xbd43b73dbc30d069U, 0xbd406c853d1294ecU, 0x3c5a5fc4bcc1f439U,
  0xbd30a907bc99a515U, 0xbc3a82f83b09fc11U, 0xbd5fb7fbbbf6ca57U, 0xbcad3c88bcd85649U,
  0x3bda5272bd1c4200U, 0x3d78d56ebd87ceafU, 0xbc33ad413c13c50dU, 0xbcff3b62bd03c5bdU,
  0xbcf8d1b83d60642eU, 0x3b983775bd9bf979U, 0xbcb9a6e9bcb9dd05U, 0xbd95a1d0bcb0da43U,
  0xbc6cd2113c2ede1cU, 0xbcaf58c9bd7dcbc0U, 0x3a16f5c3bae03b9dU, 0xbc91df61bd8dda28U,
  0xbc220fcc3be3abecU, 0x3cb96e273da4e077U, 0xbd94c1823c09199dU, 0x3b200006bb423ae7U,
  0x3bd52142bb71fcbdU, 0x3d1437d7bc61a696U, 0xbc705badbd1cbae0U, 0x3b61f290bcccfcb4U,
  0xbb9fcf3b3d973a74U, 0xbcacf11cbca67cbeU, 0xbd33f0babbeb7039U, 0xbc98a3aebc1f24a7U,
  0xbc89f17dbb5d8f83U, 0x3c20ce043d0cdcb0U, 0x3c828399bcade4aeU, 0x3b6ea8ecbc80ba32U,
  0xbca32cad3c0ceb23U, 0xbc0af7a5bc2464dfU, 0x3c705aaabc32c79cU, 0x3bb121f1bbd75024U,
  0x3c9b227f3c0e5896U, 0xbba1bf5dbc234997U, 0xbbc0854b3d04a191U, 0x3cc197633d013fecU,
  0xbb3d80193bf3f564U, 0x3c1056ee3cfb016fU, 0xbb7d44b43b27bedbU, 0x3b9c0bab3cb7897cU,
  0x3c135b80bd3720c8U, 0xbcad680c3c0b25f5U, 0xbcea49673c61714dU, 0xbbdc8d3abc925e53U,
  0x3b84f0473b583745U, 0x3b848cccbbb6cb70U, 0xbd00c44eba64440dU, 0xba01084abd6329bdU,
  0xbc9088f4bccbbe83U, 0xbd187023bcef8928U, 0xbc8d88f83c7453fdU, 0xbc8bf78abc857bedU,
  0x3a68ba0c3bc71611U, 0xbc64a3fe3c66c083U, 0xbcd6526fbd230207U, 0xbc7828643c48299aU,
  0xbd0c5d1bbcf98ce7U, 0x3c665c043aa364deU, 0xbcbcb7b6bae36856U, 0xbd3a2630bcf294daU,
  0xbca74f9dbc201089U, 0xbc97a8a3bc560237U, 0x3b517150bc348cabU, 0xbcc849ec3c4a2945U,
  0xbc5e3167bc8d16c9U, 0xbce6919c3ccfd8f7U, 0xbaf26bd2b9ebb646U, 0xbc11d40bbd567878U,
  0xbca560b2bc8624fdU, 0x3c0684953c47e8c9U, 0xbcfe5feabce3fb54U, 0xbb101181bcbc4168U,
  0xbc9e91e4bb3b9af2U, 0xbc047ca0bcdc552dU, 0x3be1780e3cada7b4U, 0xbb8da887bc762947U,
  0xb9ac82edbc1a6565U, 0x3bc9822fbc977cf1U, 0x3bafa9173c89cd4aU, 0xbcc3525bbcc10ac7U,
  0xbd15089dbb81ad92U, 0x3c4e5caa3cb2bb76U, 0xbaea820f3c9c1ac1U, 0x3afab6bf3b97c32aU,
  0xbb9631cbbc33fd67U, 0xbc24851e3b21f301U, 0x3c2ee94b3b891d0bU, 0x3c1c9481bbc466fcU,
  0xbca02906bc4e05e6U, 0xbd1d9479bcc315e8U, 0xbc9184023d543a44U, 0x3a80ee713c939e93U,
  0xb9977dd83a275c53U, 0x3c33e9ce3bf3de5dU, 0x3cf94041bd07fd4dU, 0xbc4c0bccbc443b65U,
  0xbc39bdecbd2c9d0bU, 0x3bbfd0c3bcfc2390U, 0xbca45145bbb06855U, 0xbbfece07bcf5d890U,
  0x3af021d9bb723cb3U, 0xbd31af6bbc77b602U, 0x3c3473bdbb47b22eU, 0xbc6eb321bca5ceb1U,
  0xbd40f1b2bb85124cU, 0xbcf68f3cbc923db6U, 0xbb2765c63c9462b0U, 0xbb9cd625bd322efbU,
  0xbc00d679bce21cfcU, 0x3c9bcffc3c3db38eU, 0xbce27dc5bd280aafU, 0xbc5794a4bc7e74a9U,
  0xbcd98cfcbd02ac5eU, 0x3ca84207bda2f1abU, 0xbc9fabc3bcdbbd3fU, 0xbd29a6b4bc72a5f3U,
  0xbc967089bce624e7U, 0xbd72e33ebd01d464U, 0xbc5b3112bd20cc20U, 0xbd4a03f6bc87a4c6U,
  0xbcbcb041bc1b87a2U, 0x3cf0ecd1bc8e390eU, 0x3c127f443ae68dd4U, 0x3c475693bce8eb67U,
  0xbb3fedccbc08beefU, 0x3cf430d13b5e4c6aU, 0x3c0f1fffbc87d5c3U, 0x394911153cd4e17eU,
  0xbbac72c03ac19a67U, 0xbc148ab9bc648dabU, 0x3c237261bc897095U, 0xbca2100c3c34275fU,
  0x3b921d4439a24204U, 0x3d14b0f33b176fa5U, 0x3baa80253cb9a405U, 0xbc2cbdc53cc64a34U,
  0x39ec292a3c699714U, 0xbcb474273ab41e83U, 0x3c36dbbbbbe611f7U, 0x3cc6e4a9bc3b0553U,
  0xbc297925bc5b51f6U, 0x3c5228543c951543U, 0xba03bd52bd0a97beU, 0xbb40c2233c6b2244U,
  0x3c8ef7783b9b9260U, 0xbc8efa2ebd11813aU, 0x3c66960f3c4760a9U, 0xbb9195a63a6b1c8eU,
  0x3c9200203c22019aU, 0x3c48ebb53c509e0fU, 0x3c0775523d05a67fU, 0xbc7e5d453b8ac10cU,
  0x3bb77f72bcba05edU, 0xbd731fa5bd28b9c8U, 0x3c0dcf1bbd26a595U, 0x3c872d62bd75a4a4U,
  0xbccf7b61bd37bbe2U, 0xbb9ba893bd5a5a62U, 0xbc279e8f3cb262daU, 0x3cbc4e74bbdeacd3U,
  0xbc91fbafbc8f55daU, 0xbc78b5e3bd4385d2U, 0xbcd7df6dbcccb7f9U, 0xbcccad4d3c1799b4U,
  0xbc4cb752bd92d454U, 0xbd46c263bcdd00bdU, 0xbbdf545cbd0c31ffU, 0x3b330d53bca4fd0aU,
  0xbd8f7267bdec3363U, 0xbe2d50d93d3a39f8U, 0xbde26596bd0a5e4aU, 0xbce447d4bdab0914U,
  0xbbb771483d3e386eU, 0xbde6bca0bcad5c65U, 0x3d9c36c2be338fcbU, 0x3d32d40abd257796U,
  0x3d21fee6bcad77b2U, 0x3d71d265bdd67683U, 0xbe0ed1cd3b5ced13U, 0x3ddb0fb8be0d955aU,
  0x3d8bc3cbbcece651U, 0xbe0ffc58bd83b670U, 0x3d7726143df1cc46U, 0xbccd57dd3cd9de25U,
  0xbdb03629bce275caU, 0x3b9f4a203dc9ce7fU, 0x3ca1f6abbd48804bU, 0x3d411c75bd4b0fd6U,
  0x3de3a6053dcaedbbU, 0x3cf3430ebdd31d07U, 0xbc875d86bdd135ccU, 0xbcbadd073db5d94dU,
  0xbc16d17dbc7c411fU, 0xbdc23f22bd89bd7bU, 0x3d39692abda5c91eU, 0xbcf24cc5bd93ae0fU,
  0x3d913e873d22cfdcU, 0xbd9d1972bdcb594cU, 0x3d90caf8bdabcf5dU, 0x3d7ce8a63d8b8d37U,
  0xbce883a13dc8d319U, 0xbd27eb6abd073d32U, 0x3c9f84dcbddbfd92U, 0x3de7dab5bd554d38U,
  0xbd51adac3cfacf7fU, 0xbdab2a0ebd66d8b4U, 0x3da739353e32ed57U, 0x3d9366203c872cbaU,
  0x3dd216f63d042e6fU, 0x3b8355523d0af528U, 0x3babb51e3dde82e0U, 0xbdc7aae4bccf1948U,
  0x3d0bc0df3c9b04a0U, 0xbcc8b4d33d834953U, 0xbb8a5ca83d07c9c4U, 0x3cc207893dba54b1U,
  0x3d6c5bcfbc0fc477U, 0xbcdd94ef3d37597fU, 0xbd54dd203ca50803U, 0xbd7fc9f63ce07d43U,
  0x3ce5ab773e0dd1d1U, 0xbb0f2808bd844d8fU, 0xbdc35490be8f13e8U, 0xbd7f35293d42da49U,
  0x3de15cdcbc83dd00U, 0xbd618192bdafa07eU, 0xbe18369e3e033266U, 0x3d5219d33dd7911fU,
  0xbce6997c3c20768aU, 0x3d8133913dd4be0bU, 0xbc7737db3e5f7b48U, 0xbd76dbda3ca23bcbU,
  0xbdfaa66e3cb23d1eU, 0x3d5caa71bd031a7aU, 0x3caaa6503d9116beU, 0x3d40d206bd0a2364U,
  0xbce2c9a73d5df01dU, 0x3d06ec24bd507036U, 0x3d5609bf3ccd2b9cU, 0x3d6e37203d2858f0U,
  0x3d8ad8f6bd229bedU, 0xbde33eb53d9a3025U, 0xbd766aa8bd96ad5eU, 0xbd96527dbd879eb1U,
  0xbe1245323d94430dU, 0x3db017e23dcfb9ebU, 0xbdc0d046bd3f095dU, 0x3ce7dff03e0436b2U,
  0x3dec2b91bd047321U, 0xbceb98233d6e6a37U, 0x3dcadbe63d6d1a61U, 0x3d43ba6c3d6e1661U,
  0xbd7502e7bde7a8b4U, 0x3c95931cbe17623cU, 0xbd193af63da5184cU, 0xbbe6e4b53cdb151bU,
  0x3c622cfb3c5eaeceU, 0xbcddf2703d674a81U, 0x3e0e71e23d57b7a1U, 0x3d1f538c3cf806d9U,
  0x3e1d34f6bd2498f8U, 0x3e068202bd47784eU, 0xbc2824b1bdd1285bU, 0x3c5da166be051e32U,
  0xbd8155babe10f1b0U, 0xbe026a13bd628efcU, 0xbc287a0abe4bd0b2U, 0xbd3c3a7c3bdb8790U,
  0xbce7e5323e1e8419U, 0x3af12567bdf96b73U, 0x3c82cd5fbc974dffU, 0x3cc1c5afbdf22047U,
  0xbdd2fd42bdd9c63aU, 0xbe24925bbc6a0830U, 0x3d0e3d603d27431aU, 0x3d0cd3eebe0524b8U,
  0x3dbbbf81bd9af0bcU, 0xbd9da3a4bcd42e84U, 0xbdcce273be26d430U, 0xbcc4659a3c0f8d9eU,
  0xbcd9e7703d5d701bU, 0xbbf9f0ed3d5bd01aU, 0x3c1f0789be2e9df7U, 0xbdf16869be024c1eU,
  0xbd9cea173ddeac31U, 0xbdb4ea8dbd6723abU, 0xbce2021bbb6e9726U, 0x3d6ca7fcbd53d445U,
  0xbe1886a8bdb75083U, 0xbc622ea9bd4af436U, 0xbcaa4f8dbd86b376U, 0xbdb9d856bd59d98cU,
  0x3cf5ddd9bdb1ca3aU, 0x3c23c9f3be18f47aU, 0x3dda3828bc68e235U, 0xbd94cbd8bc053425U,
  0xbd1867e43e0c540aU, 0xbd0ee67fbdaee62fU, 0x3da732b1be867c4fU, 0x3d3a95d93e0b621eU,
  0x3d3158ee3dd8dbf2U, 0xbe5f40733e11c836U, 0x3d6abc713da20320U, 0xbdae0391bd6fbe98U,
  0x3d978f2e3dab717bU, 0xbcaffad13e213359U, 0x3d12234cbc441ea6U, 0xbdc5a1653dce18f1U,
  0x3e079f423d2e55acU, 0xbdbe21303d910419U, 0xbc803d10bd484b0bU, 0xbc3814a83d96404fU,
  0xbda223d63d55e483U, 0xbdd5d38e3e1d19eeU, 0x3d1869d93d5d50e9U, 0x3c2e1d4b3da73d02U,
  0xbd88703f3d576773U, 0xbc076f643d1ac949U, 0x3c9ac639bd75d99dU, 0x3ba3068d3ba224d4U,
  0x3cac31edbd01b91bU, 0x3c92c019bd48019dU, 0x3c676d283dcf7e92U, 0x3d81357fbcd3ef59U,
  0x3b8047bf3d45d876U, 0xbc98c38d3e396d28U, 0x3bfc1803bd3d2c79U, 0x3d4f2ec73d6a7746U,
  0xbd410121ba40496aU, 0xbd8d36673dc666d0U, 0xbbb350f3bd0f9ef4U, 0x3ac603eb3d0bca40U,
  0xbc8e44193d97f65dU, 0xbd5ff3febd115964U, 0x3dc748513d079d9cU, 0x3ccaf5dabd5ca3adU,
  0x3dce068d3c97be5aU, 0xbd413156bbab2089U, 0xbc9f1f83bd7d5435U, 0xbd919d19bbb89ea3U,
  0xbdd91c793d79d3cfU, 0xbda055eb3e41cea9U, 0xbcd8c0f83d33aec5U, 0x3c150630bdc1769aU,
  0xbd4e6eacbc04c535U, 0x3ddba426bd170786U, 0xbd1067e8bdb1e3f1U, 0xbd4c5950bba16afdU,
  0x3c4d402f3d20cc97U, 0xbdb6d8eabd806178U, 0x3e1bff403dd84b82U, 0x3b5894323d84a71aU,
  0xbcc860b93daed867U, 0xbdc5f82b3e0e4c73U, 0x3d6456ccbcd35bf6U, 0x3a6bd74dbc91fe2bU,
  0xbd7c894cbda17a31U, 0x3d2855a7be0fe3f3U, 0xbc23000abdb0cd70U, 0x3b21528c3d215995U,
  0x3d820c41bd2e7978U, 0x3db30a26be0f1683U, 0xbcbdaccf3dfd0dd7U, 0x3d43be533d7c0efeU,
  0xbd138bd1be0baa17U, 0x3d97c4b9bc06ceffU, 0xbcd262ec3c38c020U, 0xbbfc335f3c62dbbbU,
  0x3ce77047bbfae39dU, 0x3b51f9e93d817f2aU, 0x3d0137613d6426d2U, 0x3df0342a3db9d0e1U,
  0x3c4265cbbd76faabU, 0xbd405d473c0d596aU, 0x3e2254c33c81a052U, 0x3d281683bdab59edU,
  0xbcfc56d53d390fcbU, 0x3c7ca1123d8cf786U, 0xbd7cb1ca3dc1e487U, 0x3d8dda63bbd9d996U,
  0x3cba22153d0e6fd0U, 0xbdba9403bd517762U, 0x3d8d3f363ba8a5f7U, 0x3caa9e71ba580ccdU,
  0xbd98d7073d33f828U, 0x3d4b5d41bd1d54bbU, 0x3d671183bc7e4de0U, 0x3dbb428fbd0b9332U,
  0xbda9b0b83ccda04bU, 0xbb8042c33db09a21U, 0x3d45c6dcbaa16e5aU, 0x3ddfbfd0bc7b989dU,
  0xbd8cd90fbd25ebbbU, 0xbd6ef7f03b9dd2eeU, 0xbd46504f3d33e943U, 0x3b88ae6dbc2042d6U,
  0xbd941110bd8404e0U, 0x3cc15e51bd06e534U, 0xbd9cca5a3cdef294U, 0xbba84094bc02e26cU,
  0x3c3776403d5349feU, 0x3d4f1d913cc99304U, 0xbd07bd04bca431d9U, 0xbdc3bdb9bceed630U,
  0xbe0fde29bdae7867U, 0xbbb405c03d74d6efU, 0xbc5e84a43d4d1206U, 0xbd836919bcfa6481U,
  0x3d30dbdbbd3da8f6U, 0xbd0bc842be047febU, 0xbc76f35b3d39ecd3U, 0xbccfa2adbce7e9b5U,
  0xbd939379bd1da55aU, 0xbd2743b33c0bb0d1U, 0xbce879fe3c284e2dU, 0xbc3497053ce6a373U,
  0xbc3f86803d519e94U, 0x3d8e951cbce7bb3aU, 0xbcc01fdabd76c26cU, 0xbd8cd23cbd49900eU,
  0xbd8cf9093d2e3a9dU, 0xbddefa47bd82da72U, 0x3da5fe4ebe107462U, 0xbd72dca9bdb4eb9aU,
  0x3c4a99c13a092d06U, 0xbddf3ac63d288e5dU, 0x3d84f0f7bd22f425U, 0xbc1383523db1e834U,
  0xbe0eb2563cffcc03U, 0xbcdf101ebda30a51U, 0xbd1a7dd03d8c2b3dU, 0xbd8841b1bdade315U,
  0xbd28b1e83c83803eU, 0x3d67fdd33dab6e86U, 0x3d00dced3c41da73U, 0x3d39e9e93d03d30fU,
  0xbceef89cbd988682U, 0xbddc94bb3d4ae4f1U, 0x3d7a15d93c916059U, 0x3d452c2dbd7f5d8bU,
  0xbbd7a4ad3babaa48U, 0xbe14b3f5bdacdf72U, 0x3c14b067bb92d822U, 0xbbb89896bd0a9732U,
  0xbe1e8fcfbbc5b903U, 0xbce3cac0bdb56e05U, 0xbe27d1fa3cbc4e01U, 0x3cbfe290bc060e88U,
  0xbe01b5b1bdc14555U, 0x3c73b95cbd862648U, 0x3ddb0d5d3d39e877U, 0xbc425f623d27da3fU,
  0xbd21c798bb269a1fU, 0xba8e477ebdc47ed9U, 0x3bf309e9be1a892fU, 0x3df180323d43cd23U,
  0xbb6ebaf63ca63c32U, 0xbcc685683b837537U, 0xbcce749d3c34af6cU, 0xbcdc1b43bd0454d1U,
  0xbcef887bbd00ceb6U, 0x3cf79ed4bb620082U, 0x3bc70afa3c9dab2aU, 0xbcf79c52bd662a30U,
  0xbb6472f93ce8bcdbU, 0xbd02662cbb99efc7U, 0x3bf7a427bcaa3eedU, 0x3d38ba3cbc99e555U,
  0xbd0814fb3d0e5c4bU, 0xbc8e0ec7bb3cb90aU, 0x3b96a8debc93b79dU, 0xbcf5e302bc59b8a9U,
  0x3a70e7923ba5e370U, 0xbb598fadbcb2ffdaU, 0xbc9b578f3bed3301U, 0xbc8e4a98bcf4f893U,
  0xbc9d3352bbba576bU, 0x3d14557b38ae4921U, 0x3d139589bc48e28eU, 0xbd4f75e93b560c02U,
  0xbb5f31f1bc43e0b8U, 0xbc3720213c8c3c6fU, 0x3cd7bba23c85a6e8U, 0xbb8b0ac2bbc528faU,
  0x3b825c64bcfce600U, 0xbc8ebe29bba7a82eU, 0x3c3f79f1bc4da2f5U, 0xbd3266183d338fe9U,
  0xbb8ffaccbd1e8e74U, 0x3c1cba23bba8be63U, 0xbd1485d6bd1f8b61U, 0xbc58147e3c24d193U,
  0x3c9002debbc242a7U, 0xbcc82d36bd8268b0U, 0xbcfd8b5b3c7fbbb9U, 0x3c179909bc9307ecU,
  0x3cbfea313d06433eU, 0xbcd78d3f3d4d445bU, 0xbbf498b5bbe29a69U, 0xbcd14501bd3cee83U,
  0xbd865bfbbd2594a5U, 0x3c6d0af83c3c8e97U, 0x3b04d2dbbd63cf56U, 0xbd24ebcfbd446bc5U,
  0x3b1583acbcca8015U, 0x3cbcc18bbce6dc08U, 0x399c68743be9eb29U, 0xbccb8a4abc5e05a4U,
  0x3ca26944bbd7aea9U, 0x3ccf7a72bc177d7bU, 0xbcf2371abccd4fb5U, 0xbb89f7dfbd2ebe09U,
  0xbc5b284fbc7ea683U, 0xbcdda692bcd9dfffU, 0xbb3dbdd9bd550255U, 0xbcc2f2163c5d3b4eU,
  0x3c29385d3c9def07U, 0x3c6b2cdd390a8bdfU, 0xbd37b94fbc917f52U, 0xbbac52c63c93e775U,
  0xbd4d96bf3cb7efb7U, 0xbc02ccf2bc036dd6U, 0xbcd076413d388566U, 0xbb665796bba3f577U,
  0x3be8b862bc5fd968U, 0x3af12b4b3cba378cU, 0x3c3b5daebb82355aU, 0xbab803be3c8fda72U,
  0xbbef258abbc48a87U, 0x3ca4943dbb89d6ceU, 0xb993fdb7bd4a7766U, 0xbcd37bcbbb816eabU,
  0xbd241c3d3aecd80bU, 0xbb9ff7633b019d53U, 0xbd74caa03d033e61U, 0xbd168e3dbc9f8c0aU,
  0xbcc21a963b5aeb31U, 0x3c844995bd314c02U, 0xbc6c18c5bc4cb459U, 0xbc9926c6bd1a348bU,
  0x3d26464ebd092137U, 0xbcdbef16bc909d19U, 0xbb7b37d4bc1de187U, 0xbcc09042bcf36050U,
  0xbc6b86a13c84503aU, 0xbc899d51bc216a67U, 0xbb835cf4bc92794eU, 0xbc3b39febc6c25f6U,
  0x3b1f2e973bbad8baU, 0xbc800acfbcc1ff74U, 0xbbd569cbbcb853e3U, 0xbcdd6cfcbc4bbf83U,
  0xbcd001f0bafc0ae5U, 0x3b700d30bd775ca4U, 0x3ba3ce7cbc8b90d1U, 0x3cdcd716bcb7f829U,
  0x3be12e7a3ca41863U, 0x3d00eb37bc06e89bU, 0xbcfebc173ccbd999U, 0xbc20aeb33b815ea2U,
  0x3b2670683a4678cbU, 0x3a96f451bcfae18fU, 0xbce0147f3c9a84fbU, 0xbcbd7024bb7d31abU,
  0x3d0ae7b63ba690f5U, 0x3c2b31dfbcf81636U, 0xbb91536bbd0a79d3U, 0xbd02c3413c96c0bdU,
  0x3ce4f43cbcf646a0U, 0x3c73f9a0bc964a2bU, 0xbd0e0c653cbd4c79U, 0x3b9c1b1b3cbe1a7aU,
  0x3bfdb6ae3cec8d10U, 0x3c5a53eabcdf8288U, 0x3cf77daebcfa96b3U, 0x3cf0fa51bd382a11U,
  0x3cd4b7403c91d9adU, 0x3c6a31c6bd214c9eU, 0xbd018a6d3c6f97b8U, 0x3c7099f83c2eb79fU,
  0xbbaef569bbdba152U, 0x3ca25372bcc368acU, 0x39302d053c1f3a7cU, 0xbbd97e47bc4603ffU,
  0x3cbb494e3d3acd00U, 0xbd08e294bcf499e6U, 0x3b928d53bc54e65cU, 0xbc5064cbbc471a94U,
  0xbca5bf8a3d1226d8U, 0x3c9abae73ceccdfcU, 0xbb98724bbc8570a8U, 0xb9d1c8843ca556b4U,
  0xb90237b8bbb721e4U, 0x3c986a9a3baf9933U, 0xbcb6f52bbb88c3f5U, 0xbcd7b8b33cd205dbU,
  0xbcd94f4abd0482c4U, 0xbc20b855bdbd27c1U, 0x3c244f793c56b2a9U, 0xba932cddbca1e073U,
  0xbe147edd3cd8fc22U, 0xbd799497bd347b32U, 0xbdc2ea093d187a6eU, 0xbca62a273cf53329U,
  0xbbefdc02bdd233c6U, 0x3d01528ebb69ea9fU, 0x3d63d922bd816b9bU, 0xbdaca5f5bd6d0f1eU,
  0x3d700f50bd3faf51U, 0xbca6fb7b3dd23b53U, 0xbcd203fa3d0ed0acU, 0x3cad8a7ebcd295bcU,
  0x3bcfc9f53bd6f27aU, 0xbc5e1f133ce15719U, 0x3c8f62e8bb399646U, 0x3d9ab3ad3d0ae9dbU,
  0xbd85c48e3c16a59bU, 0xb753f279bd7dd74cU, 0xbd40cc41bd129782U, 0xbd109d5a3dae983bU,
  0x3dbef1da3e1a3928U, 0xbe0df9dfbd25e94aU, 0xbb9de68d3d0a5282U, 0x3d7ef18cbd5e00a6U,
  0x3d26257ebc84b9e0U, 0xbdc6448cbcdeb822U, 0x3c363cb2bdea91a2U, 0x38f18ae6bde208d2U,
  0x3db9bbc3bc8f822cU, 0x3c2b5817be10e6a9U, 0xbd1e7db6be30be35U, 0xbcb2fc99bd09cd82U,
  0x3cd20ec5bcb38bc6U, 0xbc83f2fabd3b0bf4U, 0xbc548480bde375adU, 0x3dd0e0593ca5c9f4U,
  0xbcc77a8c3c8fba35U, 0x3c682cccbe0e64bbU, 0xbd56b4193d08a20eU, 0xbc89944a3ddfd7ecU,
  0x3cb3866c3d9a7d93U, 0x3e1eb5693d8bbf0fU, 0xbc02bc84bd602c90U, 0xbe00766bbc237e25U,
  0x3da9b36f3d6e4dedU, 0x3d2f3f923ca6683aU, 0x3dd91b0d3d087d2cU, 0x3e15c9c73bba1a43U,
  0xbdc16a13bdaf1c83U, 0x3c79c2e6bce96e98U, 0xbddb2ed2bc14686aU, 0xbd7d13cb3d27ed1bU,
  0x3d820cbbbc1a0aa0U, 0x3d97e75a3cf5a64dU, 0xbc8b690c3c7403adU, 0xbdc713ba3dac5fb4U,
  0x3cbb114e3c7a2e03U, 0xbccba5903d78f315U, 0x3c639e7b3de8fee2U, 0x3d1375333d646c01U,
  0x3df979613c58b21eU, 0x3dd7dc3fb9cd93caU, 0x3dfb672b3e24e47eU, 0x3cc7703dbdae2193U,
  0xbd9091b6bbc1c392U, 0xbd5952e93c2494a7U, 0x3d3760bf3d8efc21U, 0x3d6d9bd03c799f36U,
  0x3b82270dbd285d6dU, 0xbc9bb823bdee0757U, 0x3bed7351bc31d390U, 0xbc9adb69be28aaa0U,
  0x3ccd838cba424063U, 0xbd120c3fbbe6730dU, 0x3c23dc0e3cd21b90U, 0xbdba979cbd861928U,
  0xbd82ec68bd9bfb02U, 0xbe20d79cbe0e68ebU, 0xbd9aaf15bd1c8179U, 0xbd9decb13e0a1695U,
  0x3d2fd2e93de625c7U, 0x3b848a0e3d871306U, 0x3e06f762bce64c44U, 0x3d150c8d3d90915aU,
  0xbe491d123d71e63bU, 0x3d8e7f89be415481U, 0xbdaafe443dda84aeU, 0x3ced527b3cd75da6U,
  0x3d3e4dafbbd0c0b9U, 0xbe1c6379bcaf5a03U, 0x3e16cb43badf7fe6U, 0x3dd5d8053e12d54cU,
  0xbb89003bbe08468eU, 0x3df6d7d73de80e20U, 0xbda31befbcd56bafU, 0x3d7a5bf5bc86d918U,
  0xbe007d3ebd74c6cdU, 0x3e02600cbc9dc5c8U, 0xbbe9f13cbd56092dU, 0xbbff98013d275fe6U,
  0x3cac58c1be03c040U, 0x3e0fd6fe3cf36928U, 0x3da611083d394b62U, 0x3c5a9c88bd492c3bU,
  0xbd1b7a7cbd757d15U, 0xbca1fb483c58acb4U, 0x3ca14cbb3db12637U, 0x3d9e00eabceea6d0U,
  0xbe002646bc8350ecU, 0x3dd78234bcbe03ebU, 0xbda5b62f3cdc90b3U, 0xbca52ab9bd187e4bU,
  0xbda0d164baa8cb49U, 0xbdd56bdbbd99dbd9U, 0x3d83e8e9bd72555fU, 0xbd0ac759bbab04ddU,
  0x3e3a7d983df46cdfU, 0x3b39d9f4bd90cec5U, 0x3d284aa2bd2ab549U, 0xbd0deec7bd83b84aU,
  0xbb373209bd6f09b6U, 0xbd9d28c13c7e8997U, 0x3da9aee3bd27a37dU, 0xbe05aad2bc991f86U,
  0x3c8d3b8bbe2f6ebfU, 0xbe4555babc4204cbU, 0xbd53cff6be36c3deU, 0xbda074d4bcf95494U,
  0x3dbfece33db4acdfU, 0x3dce8eaa3ba9899aU, 0x3e53d45ebe608fdaU, 0xbb735efc3d721b5fU,
  0xbc1f4b0fbd856e1cU, 0xbe2dcdd4bd9ba3d9U, 0xbdf8484c3dd10190U, 0x3d66a8a93de09104U,
  0xbe51fb2d3d94f221U, 0xbda1d98b3e252fe2U, 0x3ddfffdf3e0ecf17U, 0x3ce73bd73cccf8a0U,
  0xbd71d108bdafce52U, 0x3de7e641bd53fc1eU, 0x3e32f167bd4daf67U, 0x3db2fd40bcb8f695U,
  0x3cc5fbc5bd6114fbU, 0x3df204d73d89b432U, 0x3c5bd1f4bc21feddU, 0x3daa6a0fbc2e331bU,
  0xbdbe9e0cbd3d02beU, 0xbd2668b9bd72a53dU, 0xbd14dbd73c61e207U, 0x3daf74a03d2b3912U,
  0xbc8d27e73d81f40eU, 0x3c283800bc3e4349U, 0x3d88ff57be0a849fU, 0xbd606d3cbde12657U,
  0xbcc013383e0f76b5U, 0x3d0db57cbce3c21cU, 0xbb9610f5be1ed82fU, 0xbdf3f406bcfd2829U,
  0xbc1d633abdcb536bU, 0xbdbf9dcb3db200daU, 0xbc9e93cabd0c15edU, 0xbdef9a2ebcb51239U,
  0xbdea4e43be11c84fU, 0xbe1f37a53e1a1db6U, 0xbdd79d843d9803a8U, 0xbd6fc9a9bc97ee65U,
  0x3dda1f2c3d6fc633U, 0x3e0587d13da335bfU, 0x3c358f14bcb2e42bU, 0xbd6fdfd93c72beeaU,
  0x3e171ecb3e4ad296U, 0x3cb345f3bc844f23U, 0x3d3a9ac43df7a672U, 0x3dce1aefbb17e28cU,
  0x3c3b7009bce97b61U, 0xbde0fa60bde1964aU, 0x3d6e2d09bdee7438U, 0xbdd6ffa2bc5d1c53U,
  0xbd6a57a4bdfd6c21U, 0xbd52b7e1be246a75U, 0xbe6ad09bbc656e23U, 0xbd8eb3c63c835e8eU,
  0x3d36a7123bbb0a59U, 0xbda508a5bde343a5U, 0x3cb843e6bd7ca9d6U, 0xbd516d67bcdc60b5U,
  0x3b40bb443c96d326U, 0xbd2c223b3e0ba6edU, 0xbd8c3be9bd3d4c92U, 0xbd1b4db43d6276f4U,
  0x3da0ff9e3d44c598U, 0x3c90d4a4bd47d55aU, 0xba61c5c73cc0ad2bU, 0x3df4f7273da21f20U,
  0x3df79ba43d93af82U, 0x3e34611fbe39a7f3U, 0x3e3c045bbd16c221U, 0x3d1c06f63d9fa801U,
  0x3c74a2cf3d7ddfe1U, 0x3c0e98823cbe18ccU, 0x3da2321a3d72f6a7U, 0x3c6601f1bd440e90U,
  0x3cdca140bd9d41ecU, 0x3d9175acbd42e6bfU, 0x3e018a9ebd261218U, 0xbdcbb49b3dc02b0fU,
  0xbc149f8cbdd873ecU, 0xbd3e3340bdab69cbU, 0x3c1b2cdcbe2fa8cdU, 0x3b5f7dcbbcf78e0cU,
  0xbdb3c5643b41cfbcU, 0xbe969992be06e8d7U, 0x3cb4897e3d0c7b12U, 0xbd66ccfcbe04034dU,
  0xbdb0b9963dba05fdU, 0x3c67b2503dffb47bU, 0x3d02ed523de91fc3U, 0xbd280ef7bd65c51fU,
  0x3d488439be36994eU, 0xbd78f5c13dcf608fU, 0x3d0eafbd3be4a5c2U, 0x3c776ceabe10b8e9U,
  0xbcfb49a0bdcaa8ccU, 0xbd83946abb382048U, 0xbd4468fbbe81070aU, 0xbdaa7eadbc04d9f8U,
  0xbdefb16bbd92b2b5U, 0xbdc15072bdc271c3U, 0xbdccd1e63ccdecfbU, 0xbd3a42d0bdfd0034U,
  0xbd6d423e3d907a3fU, 0xbdea4fb6bd8d3188U, 0xbd9805dc3ca1f644U, 0xbdeabd58bd991108U,
  0xbda4968bbe52d5baU, 0xbdc94fd8bcb873e0U, 0xbd3995f3bdbd0005U, 0x3cc43b09bd991105U,
  0x3d05f5933d3208abU, 0x3df853b23d519abcU, 0x3d3f90653d65bc31U, 0x3b7536fdbda0a77dU,
  0xbd70729cbd39ab46U, 0x3d9594a13d765a0aU, 0x3c90408e3d17975eU, 0xbc6cf664bd4d6985U,
  0x3c634fc03de439e5U, 0xbcae9bf43cc4dda0U, 0x3d7db88ebdf2c1daU, 0xbca8a6753b977b1dU,
  0xbdae18ae3e1961a0U, 0x3dd69c263d25a809U, 0xbd2240643dc2dcf2U, 0x3dab97a1bd93927aU,
  0x3caaecd33d3944f9U, 0xbe480abf3cc1a3b0U, 0xbd580f303ca11b46U, 0xbd9a6d45bd4460b1U,
  0xbd46ff74be0ef5a7U, 0xbe6d44e4bd4cbc79U, 0xbe0b852abdace403U, 0xbe195c043d1c2a5bU,
  0x3db3196e3c4e1a7aU, 0xbd2ca8193cf78223U, 0xbe016b21bcddbebdU, 0x39867aee3c9f0e27U,
  0x3d0246ad3d8dc0a6U, 0xbc8dbdb4bd8aae67U, 0xbca864dfbdb48189U, 0x3d180afcbcc7c1e7U,
  0xbc7a202a3d8b26deU, 0xbcbe7e4a3d5032c2U, 0x3d4703893c5d752dU, 0x3de43117bda60625U,
  0x3d8a29b9bc52bd1dU, 0xbe585cdd3dc2cd3cU, 0x3e1a6977bd2902d4U, 0x3cb69499bd14d3b2U,
  0xbda7a4913cd13fb7U, 0xbd2530dfbda2c261U, 0xbc8dbfd13ca160e9U, 0xbc953a513e438831U,
  0x3e2bfb47bd967117U, 0x3db5029a3d7fbd94U, 0xbd0b9e6e3da26537U, 0x3bcce5393d5c003aU,
  0x3c7dd581bd4cd546U, 0xbe3eb8753e1afe0aU, 0xbc42cee13c866df7U, 0x3bc320a5bd5cca27U,
  0xbe13c305be226c54U, 0x3e08212e3da609bdU, 0xbe1d3113bd94a5a4U, 0x3dd27d51bd386905U,
  0x3db159683d87a70eU, 0x3dd95ca63d3625a5U, 0xbdbbb7f1bdf9a6a2U, 0xbd48da303b5b2dceU,
  0x3dd1ac093e5ec266U, 0x3d183cf4be10fdf9U, 0x3c6e23eebdc38b58U, 0x3d8fb3183d2c56efU,
  0xbdae60f2bdcc03c7U, 0xbd9e45aabda54084U, 0xbbf3abd53d71d5c0U, 0xbc8f2e1cbba6c77aU,
  0xbd43739fbd2ae354U, 0x3bd5945bbc6c4907U, 0x3e002c023cb70777U, 0xbd0651f43c53917aU,
  0xbdcb8b0cbd3d0db5U, 0x3de0d0b9bd30f0bbU, 0xbd860744bccbea43U, 0xbd79f3e73d0ba451U,
  0xbde428043d847f5aU, 0xbd547c8ebca66a1eU, 0xbc18ec06bd360fe8U, 0x3d4f047abdcc5d39U,
  0xbce53a653e0b696aU, 0xbbb94423be18f1c2U, 0xbdaf56e13d840a46U, 0x3de340a33db870a6U,
  0xbbc92aa0bcb7b25eU, 0x3d55ae5c3e241a96U, 0x3c04d5bb3dfd457eU, 0x3dec96413e4c376dU,
  0x3d3f0a59bd5e1a9bU, 0xbb252e83bd6a1488U, 0xbd8e6ccd3dfac5b1U, 0xbdd76d67bd043729U,
  0x3d7a4db63da2db7bU, 0x3d16ac52bdbc1a31U, 0xbd7862043e3b08acU, 0x3b1b1dcc3e0fe417U,
  0xbccf8ad1bd0d7263U, 0xbcf3033dbd4a588fU, 0xbd3986273d92f3fbU, 0x3d96d8703cb4bdf5U,
  0x3e1cc8943d90b8bbU, 0xbd3d811abd211f35U, 0xbe02ba343d030024U, 0xbbc31bad3d92ed3dU,
  0xbd0ae518bd609025U, 0xbd30ee293bf6f54fU, 0xbcfa2049bd317501U, 0xbe039296bc3d83faU,
  0x3ddcb3b63cec3004U, 0x3e0676363dbc6bafU, 0x3e23f6fd3d76323dU, 0x3d3054033ca2eb73U,
  0x3c7a704d3d83a9d4U, 0xbd1cb8503d8a307fU, 0xbd9d9adf3e084050U, 0xbd77f67a3e0ae677U,
  0xbe302e233ca4b671U, 0xbcce2d7b3e1f6280U, 0xbdc29560bd10f633U, 0xbe0eea483da0aac8U,
  0xbd38d376bda47ffdU, 0x3d9425c6bcb07d9aU, 0xbdcca0703cd94063U, 0xbdd8e00d3d6bf7a3U,
  0xbaab8a3c3cb10f16U, 0x3d63bc8d3d5a0e0bU, 0xbcf92a6e3b602232U, 0xbd99878cbd9a36c4U,
  0x3db84df33d1647a6U, 0x3e0582ebbd48831eU, 0x3e0095f53d007ebcU, 0xbc80e9c43daacb97U,
  0x3df55aa7bccca712U, 0x3d478fac3de22481U, 0xbda6c001be255227U, 0xba371e71bb5959fcU,
  0x3bc322b6bcbb36bcU, 0xbbb0da943dc2326dU, 0xbc80ae66bdc2f826U, 0x3dd6179e3e0d3f8dU,
  0x3decf8ec3d802718U, 0x3cf4cae5be6a4f6eU, 0x3d86f4eebddbf0aaU, 0x3e0f3bd1bc46b58fU,
  0xbda16f233d7a41b1U, 0x3d4a66f93d741104U, 0xbe0128753da1e7b8U, 0xbe37b39abe0fd233U,
  0x3d3ab0093dc975d8U, 0x3e0aab42bdbd0aadU, 0x3e20d7523de99e8dU, 0xbb063397bd541d3eU,
  0xbe48036cbc93d1f0U, 0xbd859ac73d109079U, 0x3d2306d8bdbf096fU, 0x3db1fd40bd9788c0U,
  0xbe63154d3c534aa3U, 0x3b7982a0bdc8de97U, 0xbd5ebf5ebcd8af4fU, 0xbe193d9cbd691e2aU,
  0xbc800913ba07734eU, 0x3dd6510e3d25e0a0U, 0x3d1f8bb6bd352ddaU, 0x3c825d3d3df1f899U,
  0x3e183bedbd7e624dU, 0x3dc6ba953d022885U, 0x3de58c413c294557U, 0x3d4c68023dd6c73dU,
  0x3d7735f23db0a228U, 0x3d1ec8123c9ea6c8U, 0xbd9123d63ce44fe6U, 0x3d1860e1bdf91c2cU,
  0x3db66442bbccdc62U, 0xbcb1f0283e62b1b4U, 0x3cd730b83d10d509U, 0x3db51528bcc4e85fU,
  0x3c6aced4be607ac6U, 0x3e54439ebc9df155U, 0xbe4ea0d43dfa0375U, 0xbe7850c83c79b872U,
  0x3accc7c7bc6ceda4U, 0x3e1191d53d1f242dU, 0x3d21f039bd95b8f5U, 0xbddc7ecdbc8705e7U,
  0xbd13a2533c2c837cU, 0x3db9abdc3c88b941U, 0xbd19def8bd7f194fU, 0x3d23d84dbe023ef7U,
  0xbe3606c43d897f09U, 0x3e4841c93df09184U, 0xbe371e093d56173cU, 0xbe44e35fbda31472U,
  0x3dbc2b423dd5ddf4U, 0xbdc4016fbccc1b51U, 0x3d42f81abddc13d7U, 0x3dd19622be14cfb5U,
  0xbdc88da2bc3efd4dU, 0x3d855ab8bd3d8f3cU, 0xbd8d936ebd45c531U, 0xbd4d353fbc7e5d0aU,
  0xbda868e73c88308aU, 0x3deb2426bdf86d7bU, 0x3c87b3a23e3ac500U, 0x3c90e64b3dcc65ddU,
  0xbd461975bdad3518U, 0xbd0a0274bda9fcf5U, 0x3d5c6826bbbd30e1U, 0x3d0b7e793d235f46U,
  0xbdc81dc43d4e8428U, 0xbdd48f56bd441e3dU, 0x3c5d51fabd7ae7e2U, 0x3d615e79bd22b40fU,
  0x3d4b5bf9bc833b54U, 0x3e093686be0b97fcU, 0xbc97a6923d33f701U, 0x3ceff47c3d23916dU,
  0x3dae77673acbaf8cU, 0xbddf5294bd86ab1aU, 0xbd3ee095bd66da55U, 0xbe01eb59bd991096U,
  0x3b229ff53c0f4f5fU, 0xbc9f00f63d966522U, 0xbd2d1d34bdc7f2bfU, 0xbe2bdc72bcb7a1baU,
  0x3d71aa33bcb481c8U, 0x3d40599b3d1cf114U, 0xbd59a01abd8ee084U, 0x3d6cbcdcbdd2ca57U,
  0xbd07c1093d345b1cU, 0xbd5e1d9ebd4274d4U, 0x3e889d6e3d3e7635U, 0x3e3f2d18bc138bf1U,
  0xbd8aa27c3cd53b4aU, 0xbdc7942d3d215a58U, 0xbc3d54ba3cdaea88U, 0xbd04a8b83ca8b54cU,
  0x3d94f236bd3272ccU, 0xbcd771c23caaba62U, 0xbddcff4c3cfb3e2aU, 0x3a690f223d7a8eb6U,
  0x3e0985d03d84eaa8U, 0x3d4f7ffebd9ec067U, 0x3d42ca173def75d9U, 0xbb34a3fd3d33ee07U,
  0xbe5daa03bd755200U, 0xbdf469e03e3538f8U, 0xbd67b936bda68858U, 0x3c0365debcece70bU,
  0xbd1436a7bdb8061eU, 0x3d818171bde80aa2U, 0xbd4ace4c3d768744U, 0xbd62aa13bba98298U,
  0x3a58814b3db6fcf5U, 0x3d3c9325bd581404U, 0x3e13f1573cbefeb6U, 0x3e27dc323d4a1924U,
  0x3d8f52fb3c626451U, 0xbe4a055a3dc2cbccU, 0xbcdcaa733e23703aU, 0x3d9302fabd908f10U,
  0xbc9946613ca0b18bU, 0xbd93f5c2bdf093d2U, 0xbda0cd3fbe44a648U, 0xbcc2892d3e25f91fU,
  0xbdeeb79ebd54f4bdU, 0xbccfe228bc04928aU, 0xbdb2565cbd85c721U, 0x3da1f05d3db73a51U,
  0xbd1db9e4bd04d5c3U, 0xbd89cd7b3d2072b4U, 0x3bd91b873d70d330U, 0xbd9d25d83c81c47fU,
  0x3d8d1d923cb83d23U, 0xbde9428abc687696U, 0x3d995fab3ddbeae2U, 0x3cd967e8bde7bb9bU,
  0xbdffceb3bce57f83U, 0x3d84fa4a3c1e279cU, 0xbe011f9ebba08acfU, 0x3b8dbb7e3c8cd9c2U,
  0xbddf7a40bca3c69cU, 0x3c8473963ca0fc5dU, 0xbc6988c1bda9e127U, 0xbcc5bddabd18c7dcU,
  0xbd269af3bc289d00U, 0x3c9a75ae3dc872a7U, 0x3d415780be028d42U, 0x3cbcfbeebd0cd9f4U,
  0xbbbd3d72bdcecb74U, 0x3c8672c1be01fc60U, 0xbe3f75da3d41b4d3U, 0xbd74a59abd20d3d6U,
  0xbd3c224a3e1a6bdbU, 0x3d3d365dbd1a1a27U, 0xbda9d4e83c4560fdU, 0xbe81199c3c6e4c76U,
  0xbde005e4bd24e1c3U, 0xbe48531c3de6c4efU, 0x3c7abcf33c2c75ffU, 0x3d2ed849bd95da6cU,
  0xbdbd09b7bda52312U, 0x3d5cf4823d5c1276U, 0xbdb0ff6cbd6e9447U, 0x3c8586f1bdb0d636U,
  0xbd78a40b3db83496U, 0x3d254cf23afd215bU, 0x3d80e5f53dc9972fU, 0xbdec3b573e279c24U,
  0x3c8fd0c4bdcd1161U, 0xbd60c6203e0e0dd9U, 0xbcbea3a93e1d101aU, 0x3e0bf288bb0e9cbeU,
  0x3deb190d3ca11eadU, 0xbc8c9f4d3d7b4887U, 0x3d8b22dd3dcffb4cU, 0xbd09c60cbc407b7aU,
  0x3dc812f03d6bcd87U, 0x3e06dfdabd6b9df6U, 0x3ddfaf813e1bb650U, 0x3d9ad661bd06d15fU,
  0xbd2ee3d2bddebd5bU, 0x3e071e373e0077bfU, 0xbde73e60bdcdf3b7U, 0xbd168f4d3d5d61c6U,
  0x3d137223bc019c4dU, 0xbdebd6babd0608b1U, 0x3dc7b43abd0a929dU, 0x3aeaf08abe7b7426U,
  0xbcb2f0b1bd1a8d45U, 0x3b3076833d97ad18U, 0x3d2918c23d490334U, 0x3de12a49be42c362U,
  0xbe2d6340bc88c356U, 0xbe32143f3e058638U, 0x3bb65392be59831bU, 0x3d6e9567bd89e9a2U,
  0x3bacf143bbd1a17fU, 0xbda77ddd3ddbce2eU, 0x3d7d17cbbd38450dU, 0x3df85bcebcdc578aU,
  0xbd2180d6bbb75b4eU, 0xbdcafc793e288d61U, 0xbc228ac9bd62804aU, 0x3d7b69993d00a7c2U,
  0x3cdea9b8bcb9c632U, 0xbd5aedfe3d52b868U, 0x3c19637ebd3a22fbU, 0xbd3724cf3e2fc362U,
  0x3c74013d3d875c28U, 0x3d8518e83d7f9200U, 0x3d4a069a3dc6b724U, 0x3d4624083c60cb63U,
  0x3c6cb1393c83b03cU, 0xbd9b27c7bda2d6f7U, 0xbd378bb93e04292eU, 0x3d6d768dbd37d6afU,
  0x3bc355423c548833U, 0x3e457ca2bd81c88bU, 0xbc351dcabd2a3e14U, 0x3ccd9ee6bc0e460cU,
  0xbdcd66a73d5aa77dU, 0x3c754a6abda777d1U, 0xbd8abfa5bcaeee45U, 0x3c9a6710bd85ea1dU,
  0x3b7862153d827173U, 0xbbab3de1bd5cbf54U, 0xbdc28f523cd3c6cdU, 0xbd5536a03c373addU,
  0x3dc72d033da6a681U, 0x3c45b6ce3d1abdacU, 0x3e091ce9bc539692U, 0xbd2c6a8c3e285ca1U,
  0x3d0e80783cc1b278U, 0x3ce6eb4e3da34679U, 0x3dd7701fbb99cc94U, 0x3d25152bbd124f9cU,
  0xbcac0a203c0db52dU, 0x3d0828483d3136c4U, 0x3d02142f3d7efa1eU, 0x3d9068133da37a0aU,
  0x3cf6eeba3d81a7a7U, 0xbd30ac4c3aff26b0U, 0x3d9af56f3ccdab16U, 0x3e0de8ec3c73a2d1U,
  0x3d35893c3d1c1325U, 0x3d64e9853dde5263U, 0xbdce1ca03c1a1932U, 0x3d23cdef3c4917d0U,
  0x3e0ef3353da392a5U, 0xbb18b3be3de32f6aU, 0x3dd6d74fbd898ea0U, 0x3ad5a175bd3815bbU,
  0x3cb2b8f1bd69f17aU, 0xbd0f1002bcee6f27U, 0x3d250aa8bd87909bU, 0xbd5ddbc93d28e3d3U,
  0xbcdb0e1b3d3f3a41U, 0x39a3f8813d8c468dU, 0xbd6b000dbd497953U, 0xbd24482b3cbb9f68U,
  0x3d3754f4bc9fb432U, 0xbd9b4572be04ffadU, 0x3ce779bc3dedd7aeU, 0xbcc4458b3c24bc63U,
  0xbb0d64173c3f03e3U, 0xbc800e223dc381a8U, 0xbd5417e1bccad020U, 0xbdb9afb13d823bfeU,
  0x3d6ea3babcfc9e35U, 0x3c997103bceeac70U, 0xba5db0673d636540U, 0x3c15a5bfbdc59d48U,
  0x3c9afe963dd801a2U, 0xbe50c9dfbd86ca31U, 0x3d865e83bdcb9260U, 0xbc31162ebdd12e44U,
  0x3b570271bc09185dU, 0x3d3db8c43d5ae168U, 0x3d001fdabced594cU, 0x3cf6ed49bd026232U,
  0xbdc3824ebb9783e9U, 0xbdc381b6be0e7f00U, 0x3de75422bd028e56U, 0x3cb2af353cf51c1dU,
  0x3c54a457bce62bbbU, 0x3da429133d8a6ad7U, 0x3d83ff49bc9694edU, 0x3db04ed2bd0c966bU,
  0xbd168c80bd588f3cU, 0xbc58cb743d7604c6U, 0xbdc4f3acbe230593U, 0x3cc6fe493a8dc8d6U,
  0xbda3ced13cfebd00U, 0xbe024a38be0fee6dU, 0xbd98ef5bbd109defU, 0xbba9d728baacc08dU,
  0xbdacba54bbaf90d5U, 0x3e0ed0ebbc16d108U, 0xbcd9005ebcc67a2fU, 0xbd8d382c3d8a26f9U,
  0x3d5446a6bd3b01f2U, 0x3de0096fbd715643U, 0xbcb0377a3b676e9dU, 0xbd6b41ea3ccd44e7U,
  0xbe27f8013c858f46U, 0xbdc0df7e3cc98e79U, 0xbd99c2f13e321e11U, 0xbd254d643b583e69U,
  0xbd8162c5be0d49d8U, 0x3d35e07c3dcb273dU, 0xbd7d6bbdbc274d9cU, 0x3cdfeac3bd4251c4U,
  0xbc6736b9bcb2dfc2U, 0xbb15c9c03c0475deU, 0x3c0f7cafbd637631U, 0xbd812dae3d46b689U,
  0x3d960410bc504d61U, 0xbc2a8d223c4d54b7U, 0xbd4e402fbd5bbb12U, 0xbd8a5256bd0f5d63U,
  0xbdc88d533c1a3d0cU, 0x3d921a88391a6c13U, 0x3d47a61fbb6588ecU, 0xbd87d818bc79b50cU,
  0x3c3e6bcbbdd9caa9U, 0xbcef98b73c4ae45eU, 0xbda79fa03b4ba54bU, 0xbd7f968dbd971630U,
  0xbdec0623bdb23eeeU, 0x3b528e2cbd52f538U, 0xbdf412bebd67a340U, 0xbd6f5f24bd2dcadcU,
  0x3d74a8793c309a38U, 0x3ceed88fbd830105U, 0x3d17f51cbda7ce97U, 0xbc2b1f36bd979bf0U,
  0xbddcb4ff3cd581e7U, 0x3d2f78b6bdd2d23aU, 0xbca8fd89bd2376afU, 0xbe042af73d59af23U,
  0xbc81c9c93ba704beU, 0xbb8cd9cfbbd24b20U, 0xbc09817ebc136c10U, 0xbd15a2353c19f922U,
  0x3cd698593d8a96c6U, 0xbd4669143d59afb3U, 0x3ccea7fe3d19bf7bU, 0x3cece5033d68204aU,
  0x3d34752b3d0ea633U, 0xbd1d8bf7baff8907U, 0xbbd27813bd142c9eU, 0xbd44a4cf3d4d7feeU,
  0xbcf707533cdd953eU, 0xbca00299bba57123U, 0xbbc4fe4a3dab7e98U, 0xbd0f37fdbbac9f85U,
  0x3d18a7d63c04d1b6U, 0x3cb0a0583d609033U, 0x3bd76af5bcd73370U, 0x3cb3cd983d07ebe1U,
  0x3c691fa93c72bf63U, 0x3c38b4953c326fcbU, 0xbd17a1cbbcd86982U, 0x3c3b1f053cb6c5c2U,
  0x3cd05364bc0983f7U, 0x3d0741a0bc56e90bU, 0xbc0bc3a7bc0d75cfU, 0x3d896a4d3d4b1115U,
  0xbc8d8b45bc89d2faU, 0x3b10f7903c319e80U, 0x3b4ae987bb3896dcU, 0x3d014a4e3d52fc9fU,
  0x3ce095d2bcbc884aU, 0x3cba164fbda5a267U, 0x378f2bb43b2aa9abU, 0xbcd770cc3d27c0d8U,
  0x3cfaad06bd2db297U, 0xbd7bbc42bda7e67cU, 0xbd4d1244bcaa0d16U, 0x3a0096a2bd5f2bf7U,
  0x3c4f5c993ccc402cU, 0xbdcfcd793cb7a39bU, 0x3cf58625bd4a0898U, 0xbd2accdabc590d92U,
  0xbd9c9714bd4bb444U, 0x3c89f1d3bcff93c0U, 0x3d1a224bbd891d8fU, 0xbc23fc52bd227522U,
  0xbcf03f5fbda60789U, 0x3b58a361bb81a1c2U, 0xbd4325cf3d92fe36U, 0xbced2cb93cb3c510U,
  0x3cdeb4abbd5db25aU, 0xbb9b4b64bbef78afU, 0xbd567ecc39736681U, 0x3a85eff7bc60b3c6U,
  0x3cb948513ccf283fU, 0x3d17eeb83d83ff14U, 0xbcea0426bd92666dU, 0xbda03c08bdb7bbe7U,
  0x3d21be313ce81171U, 0xbd704deb3cd0bc22U, 0xbde2a61c3bb62c61U, 0xbd9cfba3bd39a8a6U,
  0x3b064799bcfe5bd4U, 0x3d15a64c3abde572U, 0xbcd058ee3d9131bbU, 0x3cec78a0bc9c963aU,
  0xbd93b07a3c2b5b1dU, 0x3cfa51bdba8cb7d8U, 0x3c49e1b63d0a718fU, 0xbcc09520bd0e7348U,
  0x3c7f4d31bb1968b9U, 0xbd5c2efabbdbceebU, 0xbb60ac1f3ca0e361U, 0x3cd2c819bc86fe6eU,
  0xbb0ac9843caf1aa1U, 0xbd12d923bc8aed91U, 0x3c079181bbde9284U, 0xbba673003ccaf82fU,
  0xbc89b26fbd6ecffaU, 0xbcec9811bbf712a3U, 0xbdbc22403d8e2843U, 0xbd6048a3bdbd3626U,
  0x3c2c7ea1bb45eabdU, 0x3d4934973c9021f9U, 0x3d4db769bd092b97U, 0xbcf124fc3c4211daU,
  0xbc088244bd50dfedU, 0xbd685ea6bd7e75dcU, 0xbb4e79943bc48dddU, 0xbd7f407dbd2c9c4fU,
  0xbb05c3cb3c937050U, 0xbcd9b43cbc34afcdU, 0xba7b6336bd061659U, 0xbcd1dda5bd03c3a4U,
  0xbac06620bc6973a8U, 0xbd09dd7dbd824d8dU, 0xbbfa4b953d47f1cbU, 0x3bb2dd13bd5aa88aU,
  0xbd93278dbd5f39faU, 0xbd73da5c3c22cbf4U, 0xbded3a85bdb6d92cU, 0x3c96de3fbd7993e9U,
  0x3ca51c6abdaec568U, 0x3cdbcfbabdac1717U, 0x3c83b8a43da47d04U, 0xbbd92ca3bd012743U,
  0xbcbc7c2c3c9c56e1U, 0xbd843949bda5db5cU, 0xbc616e1abc727870U, 0xbcb95d5fbb3e7af9U,
  0xbc7ac166bc987974U, 0xbc8b3cdcbd4b1b35U, 0x3c9f76ea3c8195fdU, 0xbc9e24a5bd9ad32aU,
  0xbd757da33d220c34U, 0x3d3032ea3d92d40cU, 0x3a89e0a7bd8adf9dU, 0x3cde0ec53ccb41ebU,
  0xbd2cfe19bd046a76U, 0x3b9e5aa3bda09267U, 0x3ba7a5093cdc07deU, 0x3badfe8a3d460443U,
  0xbcc269b0bc07e006U, 0x3d282c95bcb31823U, 0xbd00759c3cbc30a8U, 0x3c972540bd00026bU,
  0xbc0837f63ce838a9U, 0xbc598374bd2e880fU, 0x3b5c4f02bd647fd0U, 0x3c9540823c43cf18U,
  0x3cefafd03d50da67U, 0xbdb87b7f3d2a98edU, 0x3d38149f3ba99599U, 0x3ca152ad3d24944aU,
  0x3c6159a2bc4bb42eU, 0x3cf6b5853aea886bU, 0xbd0ee827bcc5856eU, 0xbd2195c4bd0c621eU,
  0x3b8e73cfbc160131U, 0xbd83fe0b3cbadd1aU, 0x3bdcb37fbccaa84dU, 0xbcda2a713d08d6cdU,
  0xbdb1b30cbdc850d6U, 0x3d5d7bdcbdae35d5U, 0xbdf661923dd232f6U, 0xbd676f62bdb69b16U,
  0x3d826d883dac10b0U, 0xbc2e7c343c4883e6U, 0xbd595564bdc01e3aU, 0x3db774ae3ddaa432U,
  0xbc3a880cbd79879bU, 0x3d1bc0153c708906U, 0x3cce31b8bda7d056U, 0xbe8466963d31de41U,
  0xbd5353913dc868ffU, 0x3db71c793d22f849U, 0xbd762df53d24c55fU, 0xbdd8c4e73d704e62U,
  0x3e0242c73de117dfU, 0xbd5b2283bdf08d3eU, 0x3dd8303a3abce3e5U, 0xbcc44e343cd558d9U,
  0xbe8721c5be657f89U, 0xbdc128f33d8d6edbU, 0xbcb8a42b3d5e1f05U, 0x3e1793c73cd008c4U,
  0xbd2af9cf3de9cbd1U, 0xbdc43f533d6f83abU, 0x3cbeb818bc495f28U, 0x3d1509523c0e6596U,
  0x3e0e29d2bd8b70d8U, 0x3d9a7e16be8ab108U, 0x3e4f5de03e1f4b01U, 0x3e428606be027e1bU,
  0xbd894ad53c29cc78U, 0x3c6011c5bde36646U, 0x3d2f6128bdd10816U, 0x3b9242e8bd22cc0aU,
  0xbbba7c8b3d8af510U, 0xbb4add153ce0250dU, 0xbd6f8637be36a481U, 0xbcba232dbdf95311U,
  0xbd88fcdbbe284153U, 0x3d5941ddbe0a6d21U, 0xbc89cb503e1fa4c2U, 0x3dbf538a3db2debdU,
  0xbdacd346be1e714cU, 0x3acbd100bd4274ccU, 0xbbbbfbd7be3417a9U, 0x3c808a0c3e434106U,
  0x3dd09f4bbd456c32U, 0x3d004e9e3db9a5f3U, 0x3ad42cf03dc09ee0U, 0x3d5358c13de65988U,
  0xbd811bc1bd72f446U, 0x3d4821393d051b86U, 0xbe32550abe017cccU, 0x3cb36317bd5eeb01U,
  0x3d9ad35ebd41fe6dU, 0x3d51d84ebd10a6c4U, 0xbc9de79d3de729bbU, 0xbc68580cbd799f4eU,
  0x3ad655ff3c9d36e2U, 0x3c407d27bd0d8e16U, 0x3d78856d3d7f6a5fU, 0x3e6a5026bd568bf7U,
  0xbd4a1facbdcc890fU, 0xbd05d341bde71d7cU, 0xbd414b2cbd0cafccU, 0x3c056973bddb8886U,
  0xbd57bc0ebdbba138U, 0xbe3034393c93962cU, 0xbda7f4593de7d3b7U, 0xbdb196bd3d071772U,
  0xbd7bbf883d74d49dU, 0x39e7a661be12015fU, 0xbcb70205be134774U, 0xbc28e59fbdb02700U,
  0xbd846a9ebcf17c65U, 0xbb65543fbe0799e6U, 0xbe6e74993d8d21c4U, 0xbd970637bd574121U,
  0xbd167c573dfa569fU, 0x3e1e2d6b3d003336U, 0x3e09479c3dba6fffU, 0xbd3bfa1b3d22a8e8U,
  0x3dbdc6a13ce25128U, 0xbcad9e6d3de4c666U, 0x3d8fdd3a3d18cffbU, 0x3df27783be06d826U,
  0xbc8250e63ce8ecb9U, 0x3dea4bc03d542dd1U, 0x3cd50d243d4b6a11U, 0x3cae98e83cd1f50bU,
  0x3cdccf18bdb24e1dU, 0xb95d7718bcf019f3U, 0x3cfa35633e09db14U, 0xbc255cbd3d1ae0b6U,
  0x3ddd2ba6bdaeae00U, 0xbd933db43e10f751U, 0x3be63dddbe258f6cU, 0x3c88dd173d000bacU,
  0xbdc9852fbe05a3e8U, 0xbdc618f9bddb2ca2U, 0x3c0a61003dd087b0U, 0xbc429859bdcff0b4U,
  0xbde34e1f3d15abecU, 0xbd875835bddca546U, 0xbd1ca6033e104575U, 0x3e65c232bde85502U,
  0x3ddb65d0bd5a54b4U, 0xbe1a8cd83d7f3da0U, 0x3de3f251bdfe631aU, 0x3de59616bd428ef8U,
  0xbe0e99c5bcdb131dU, 0x3d25d1a73e0927f7U, 0xbdcc95c73e29ce83U, 0xbcb83123be5037dfU,
  0xbde59758bdeef6f8U, 0x3e3135613d021cf6U, 0xbd74c1bcbdbe5756U, 0xbdf3198e3e091c50U,
  0xbd0bd953bd563c81U, 0x3dcd4f86bd4abb0bU, 0x3db309babe58fad2U, 0xbd8886aebca259cdU,
  0xbe4584283e126864U, 0x3d562df9bde3024fU, 0xbe4300903dbd4c92U, 0xbdd0596f3d40e8f8U,
  0xbcf9fbecbd19377dU, 0x3d8b21adbd1b74b1U, 0xbd4f24283dbe7372U, 0xbd82aca83a813f72U,
  0x3e543335bd72dbd8U, 0x3c77c4403e58e716U, 0xbe17a6d6bdccbd92U, 0xbe3a05473cce9f8eU,
  0x3e55a2e73cb4dd33U, 0x3db2d62dbd784549U, 0x3c9f68afbdd2ef1cU, 0xbdb0b4223e01a7ceU,
  0x3d8f65043e00ae14U, 0x3bca647bbdb93670U, 0xbde702933eaae538U, 0x3c1a3edd3d265547U,
  0x3c852ff9bd3607adU, 0xbd11fd45bd2df6e5U, 0x3d15cef6bc687c0fU, 0xbd4bf7863cf90060U,
  0xbd04e5cebc87a8a3U, 0x3c73c9e1bdab605aU, 0x3db9cb543d7606e8U, 0xbd3f951fbde3fff9U,
  0x3d35ee2a3c26951bU, 0x3cc727323d072ed7U, 0x3d8286c53d74d099U, 0xbc4b6bf0bda8d0fcU,
  0xbc1256ecbd84ed9dU, 0xbdfd594d3e002994U, 0x3c379128bb26fba4U, 0x3d8c10ebbda85da2U,
  0xbbbfd6e4bd086713U, 0xbd404e26bd1aee61U, 0x3c34257a3b79fab8U, 0x3c953ed73de030c6U,
  0xbd9512fabd052cffU, 0x3c2769b2be09b474U, 0x3ddf9dac3d135ab0U, 0xbd3b5a32be3b7299U,
  0xbd49bff23d33c31fU, 0xbdd749e33c37a19bU, 0x3cf2d9a73d7efa32U, 0x3d0a7c58b8c1f61dU,
  0xbc0f0a78bd08b3e4U, 0xbda50d82bd636f96U, 0x3d638d5cbd0b56daU, 0x3cf8c9efbde1af3aU,
  0x3bbb5895bd0a6106U, 0xbcc6015fbc5bea0eU, 0x3d15edf53d440c3dU, 0x3c3b037ebd0ac311U,
  0xbd34ed153c36ab46U, 0x3ddfec7ebe1e9232U, 0xbe20c705bc36a9d9U, 0xbe8a98bcbe4a69c3U,
  0x3bd0281f3d1b01ecU, 0xbe3cb5c1bd662521U, 0x3d572e94bd975818U, 0xbd0906373d12f3f7U,
  0xbe0e9133be10840bU, 0xbdc90f29bdc97bd1U, 0xbe1eb94dbe08629eU, 0xbcb029d0be62a2d8U,
  0x3d7557af3c60b3d9U, 0x3b008fe93d994190U, 0xbc87c477bc89c98fU, 0x3d36b573be005475U,
  0xbd1c1ac03d05716aU, 0x3d67e1a4bd6331f5U, 0x3d6451493e1763bfU, 0xbd694a053e2c6668U,
  0x3dae2f583ce4ad6bU, 0x3d01ecf43c3a96deU, 0xbd2e2d823d3fe527U, 0xbda61f41bb5dadadU,
  0xbe06f43cbd667daeU, 0xba3fd6e8bdb39977U, 0xbc78773cbda6fc31U, 0xbcef8d9c3cbf1f0dU,
  0x3d13a93cbcbc818eU, 0x3cad1d623d0ac41bU, 0xbc4897ad3c6bd7e7U, 0x3d58c53e3d2c7c61U,
  0xbd811ee5bdc8250fU, 0xbd0496263e42046fU, 0xbd5b4bc03d6ab29cU, 0x3cac34cebc810ed4U,
  0x3cc1f492bdb1fe4fU, 0x3da1404a3d955206U, 0xbc592dcc3cdd5343U, 0x3cc8de453dbde6ebU,
  0x3d86a0713e551334U, 0x3cd60f323d95a747U, 0x3da89b8d3dcccd0bU, 0x3d259acc3c831a22U,
  0xbd259f4f3d1192b9U, 0xbcf7e413bd8486e1U, 0x3cc35c1e3e08de5cU, 0x3c17498ebc4dae2fU,
  0x3e65e3c43d770b8dU, 0x3e1b86303d7cd8e6U, 0xbdc0f74abdcb7c79U, 0x3baea2813d387905U,
  0xbdd1df413ccc8010U, 0xba7fc9ecbe0109d2U, 0x3c66d6923d8456aeU, 0xbdf5145a3c4d1506U,
  0xbc4bc3233cb018cdU, 0xbceb106e3d3ea9d4U, 0xbd7b94eebcdc8956U, 0x3c354a8f3d3449e3U,
  0x3d953a3d3d8c0289U, 0xbc9a5bcbbdafcd9dU, 0x3d008b89bc97aedfU, 0xbce8707a3c25a12dU,
  0x3d0b979c3d4df928U, 0xbdc69811bd778066U, 0xbda712a0bda6f30dU, 0xbbee15af3b5878c1U,
  0xbd4e88d7bd1e0daeU, 0xbc6fcc5e3b1cd540U, 0x3cee4186bd4e27d5U, 0xbc484fc1bbaac9dfU,
  0x3c6c06ae3d879271U, 0xbd2c4062be0611deU, 0x3d0a40413d597e2bU, 0x3c89a3ca3d02fd12U,
  0xbb0c4a3dbd9c367aU, 0xbc92b492bbf0236cU, 0x3d5d9bc5bda4ac04U, 0xbde79d49bd3b9fbbU,
  0xbe0944993caa5235U, 0xbe1cfb7fbc0e8d77U, 0xbd41bb68bd6b6e00U, 0xbd168629bd504af3U,
  0xbccde8a43ba5ff92U, 0x3d6d8058bd3fef0fU, 0xbd93aec53d1bf376U, 0x3d121a4e3c73d9f7U,
  0x3d923c8abcfd42feU, 0xbcf62b0e3cfd3255U, 0xbd790f29bd6478e4U, 0x3cb266febc4a60d3U,
  0xbccfabc4bdaff6dfU, 0xbd750d6d3e1e058dU, 0xbe15de52bd89d72eU, 0xbc85ce15bae4523bU,
  0x3c8b1f33bd4c3b73U, 0x3cd58e64bdda8a1dU, 0x3cd8156b3ca0afc7U, 0xbd2b6680bdbf6419U,
  0x3d1c017e3dd39638U, 0x3cb7b7873b01941fU, 0xbd3d1101bd81fc0eU, 0x3d32c7b2bdda5868U,
  0xbdc5b9903d7dad88U, 0xbd11ed2c3e03e943U, 0x3df1827b3d1e247fU, 0xbca5ca86be0f0934U,
  0xbd8fbaef3a911beaU, 0x3e7584d1bdb80981U, 0xbc9fde113e476cbaU, 0xbe2ae75a3bef97a2U,
  0xbe009be6bd862582U, 0x3eabf158be4bee5eU, 0xbb0869783d2226e5U, 0xbeab31f63d7c30b2U,
  0x3decaf523dc1db78U, 0xbc2c69693db97f12U, 0x3e25c6283d3ee144U, 0x3e4fe4573dbd94e6U,
  0xbd96210ebe2730aaU, 0x3d1ccb0dbe37c672U, 0xbdc2a0c7bd3b4ab5U, 0xbda2d28c3da49b2cU,
  0xbd918ad7bde1d03eU, 0x3d930b3f3e1b87b8U, 0xbceabf8dbe0d97bfU, 0x3d9eade8bd032296U,
  0x3e45de4f3ae695f9U, 0x3ca61db53ce5f7deU, 0x3dbdb47b3d82dbb9U, 0xbca775adbd5b2331U,
  0xbcf2bac9bcc6f0b0U, 0xbdfb4b063e03b9daU, 0xbe3483a63d8c9fe4U, 0xbdba4328bd8ef9caU,
  0x3d10b800bdd88395U, 0xbcddfbffbe2a3d05U, 0xbb6ac3b33d1c8514U, 0xbd9640f83d0f61d4U,
  0xbdca2a743cbae532U, 0xbdf7ab2dbcc9c4a6U, 0xbccb5740bdb4a753U, 0xbce0fdb53cae2fffU,
  0xbe6e8e87bcf5da56U, 0x3dcc334fbe19c18fU, 0xbd489a5d3d4ecba8U, 0x3dc982b03c8bf8f4U,
  0x3c7a4ca4be44580bU, 0xbdf608903dbe5980U, 0x3bb817e6be2a1a8aU, 0xbddc856bbdbcf603U,
  0x3be8ab26bdfcb4faU, 0x3de535f33d1c13d5U, 0x3dbe83b43e026348U, 0x3cf84f3dbd5a303fU,
  0x3ccbcd313e0f0011U, 0x3ce4ee353e6a8d03U, 0xbcac1dd83dbad81cU, 0x3e40dd793c7f141eU,
  0x3e55e0f7bdbc81e5U, 0xbd33cc133e25c713U, 0xbd426f73bd621835U, 0xbc952ccdbd5bd772U,
  0x3db3fc28bbcc512dU, 0x3db750213e10593cU, 0xbe1201a43d0a8b84U, 0xbe0f2e6a3c6ba41eU,
  0xbc02dac93ea132deU, 0xbdaeddf33d3f8d3aU, 0x3da8197dbd23e201U, 0x3d333d2bbe67fda9U,
  0x3ba480843d368ba6U, 0xbde220d1bce47905U, 0x3de00f753cf5ad25U, 0x3d4865443e39b229U,
  0xbe01a8f13e3874d2U, 0xbe32d1b4bd0c834eU, 0xbd4e3882be0637e8U, 0x3df0fcad3d92c242U,
  0xbd9a3a9d3c4082d6U, 0x3c9b9b68be3c153bU, 0x3d5cdaa8be5f9752U, 0xbd7200543d1d4a34U,
  0x3de49849bda72f6eU, 0xbd4ba4ffbdee2363U, 0x3d7afc45bdb67e3bU, 0xbdfa66ba3d65f109U,
  0x3db394c03d0d5b44U, 0x3d12c4f93dc82911U, 0xbcb02012bdff0e5eU, 0xbdd657febdea5d85U,
  0x3e3d521d3d76939eU, 0xbec419933db409f5U, 0xbe24be3dbd984b9bU, 0xbe13b3713dad2562U,
  0xbdd98dcebe06ac64U, 0x3e6c66643bd80092U, 0xbceca5b73dea572dU, 0x3c8553babdc192fcU,
  0xbda36c373e78e90bU, 0xbdc29be0bd813d71U, 0x3cc3a06dbce490d3U, 0x3cd7a52f3e0c0872U,
  0xbd8174a93d3fc999U, 0x3e67d7f33c9b57ddU, 0xbd17ac363e0d2553U, 0x3dc673023af307eaU,
  0xbdc3d48e3d50370cU, 0x3eb299b93d2484ddU, 0x3d7b90f8bd95c1d9U, 0xbe38818f3dba15acU,
  0x3c58141bbdc8bc48U, 0x3db7f32bbd1ef10eU, 0x3e07b63dbde3c98cU, 0x3e7fb3743d1216f1U,
  0xbe5355663d5500eaU, 0x3e34edbc3ca1d430U, 0x3e4040163cfad446U, 0xbcf8091c3ce5d11bU,
  0xbdac366fbc97ff16U, 0x3d6dfb403e5884a1U, 0xbde1b7403d3e2eb8U, 0x3c7532303cd9b411U,
  0x3e0032c7bdea9d34U, 0x3dd4079dbd138adeU, 0x3d8a411cbc929db3U, 0x3d85bfe3be362b2cU,
  0x3e583dbd3e2acc4bU, 0xbdb5fa1fbe00cdd8U, 0xbd6b0487bda6d721U, 0xbcd82b41bd1d46bdU,
  0x3d381a21bdcef8d9U, 0xbb4c34b0be84de1aU, 0xbe29549fbd535f8fU, 0xbe22d0643d00cce1U,
  0x3da91486bd8190e8U, 0x3c015783be91d999U, 0x3dd35de4bd24765bU, 0xbd6a06b43ced8681U,
  0xbdc1b5643da8580aU, 0x3d64d41ebe0b4409U, 0x3d3c8d243b08eb87U, 0x3d708cd93cfd618dU,
  0xbd954b6dbe071890U, 0xbc894cf73d9a0755U, 0xbca0cd75bcc4d41fU, 0x3d376a20be0f981aU,
  0xbd7308b83d4da3b3U, 0x3cfcffdfbe5692acU, 0x3d6270ef3c09cf99U, 0x3d914662bd52f3ebU,
  0x38acb02e3c77c857U, 0xbcef9ebc3d993bb1U, 0xbd9a4c063d316254U, 0x3d145b67bbb70a2bU,
  0xbe487098bc8ae85bU, 0x3d34d28b3cf71911U, 0xbda6f5533dcff202U, 0xbd3233933c9c4edbU,
  0xbc9873283d3d083fU, 0xbbd324a5bca74a76U, 0xbcb81ddfb9b35248U, 0xbb715c233cec9128U,
  0xbd216e543d3b64b4U, 0xbc166c8a3d2bcbf5U, 0xbd3c9e993e0050b6U, 0xbd650447bd0e2f41U,
  0x3d14301a3d89f38dU, 0xbde30c90bc46e7eaU, 0x3cfc8d8f3cc8d897U, 0x3c7e1b093a49b40eU,
  0x3ce47e00bd81b98eU, 0xbcfb58743ca5939aU, 0x3c1d4905bb6d5544U, 0xbcf4a2aa3d7915e0U,
  0xbbf846c0bc7b8328U, 0x3d2d82d1bdc1b001U, 0xbd06edb63d905345U, 0xbc36d6123d1f6103U,
  0x3d041b42bbaed341U, 0xbd58728dbdd850c5U, 0xbd05908dbda214dcU, 0x3a0f21f03d91d73bU,
  0xbdb00f383cca87afU, 0xbdbe34f0bcb13977U, 0x3c3824cc3d3df279U, 0xbd8d1f99bde46491U,
  0xbe3f4073bcf7f3bdU, 0x3d7e46d03e14643eU, 0xbe0c28643cc28958U, 0xbda366f3bb2948fbU,
  0xbd90f782bdea080bU, 0x3dbaffee3cb490d3U, 0x3cb73690bdb1c366U, 0x3bfada4cbcc4f07bU,
  0xbd899fdc3d5f7f65U, 0xbc6b13bb3ce9c057U, 0xbc970a08bbdf58f1U, 0xbdfe7509bdc590f4U,
  0x3da1df4ebd6837f3U, 0x3cff09083d813697U, 0xbd83002f3c9d29bcU, 0x3c1268a53b95a255U,
  0x3e22d130bce5d5c7U, 0x3d53e3623d746a03U, 0x3d856839bd1dde8bU, 0xbd215601bc96d96aU,
  0x3d9dbd383c7df187U, 0xbda83fcebdbc03acU, 0xbcb7f0483d2ce732U, 0xbc15a3a3bd4c9e3fU,
  0xba2668c2bc5f4dd3U, 0x3d1453bf3daed8ceU, 0x3c9eff5a3c7eb2ffU, 0x3d4595adbc00dc53U,
  0xbb90d6e83d0e9e9fU, 0x3d8739f23cab3576U, 0x3d8f21733db58757U, 0x3ccae75f3e031cbcU,
  0xbc0940d33d1510a4U, 0xbe01ca103c328a48U, 0xbdf06b853e2ad8b5U, 0x3b59c8a9bd429ee7U,
  0x3deeead03dda3cadU, 0x3d0a07a5bcf63ba9U, 0x3d19bae2bb28e2f8U, 0x3d894b213d13e8efU,
  0x3dfc9eea3aba3039U, 0xbc8a12ebbd6c6d62U, 0x3cfb96a03dd2f23cU, 0x3dc48162bca24470U,
  0xbba79faebc022161U, 0x3d20c02abd8bbca4U, 0xbd40f92e3c9b0598U, 0x3dad7b463d8a740cU,
  0xbce962533c4230d2U, 0x3d0cdf903dc2a7a5U, 0xbe22e6e2bd5bab48U, 0xbd1df5263a0c3b6fU,
  0xbdc86dbc3b22b06dU, 0x3d2b55443dc2950bU, 0x3d331ce03db06b93U, 0x3c5328ef3dc4305dU,
  0x3ce00cbb3bcdd5f7U, 0xbd0d54e2bde521d8U, 0x3de8d6e43d5b15a5U, 0x3d1dd9d4bd838905U,
  0x3d2e098fbd05eb7bU, 0xbc9b2c213e45212eU, 0x3ca90e78bd148df3U, 0xbdd53b013cd131c7U,
  0xbc86179fbdbfd283U, 0x3db1a6193db35d93U, 0x3d0912b9bcb0ed7fU, 0xbc2c7e54bd835551U,
  0x3d2b4141bdc4457eU, 0xbd72480bbd5d860eU, 0xbd1d5f1f392d601dU, 0x3d918a5cbd8bf9a0U,
  0x3d3062213d2b2805U, 0x3d05aa2dbd3f160dU, 0xbc918d083d8f5cf6U, 0x3cac28b93d2eb552U,
  0xbd3e5fa5bd779801U, 0x3d514bc3bdec1e8fU, 0xbe2579ef3d7e7371U, 0xbcb285e8bd86b9f6U,
  0x3d91fb233ccbbdacU, 0xbdaeaae7bcd96f41U, 0x3c1defff3d4c45ceU, 0xbe05bd8c3d5c5f4dU,
  0xbd783866bc05d942U, 0xbe1150b53cc7e99fU, 0xbd96a423bc6aa258U, 0xbd147d8abde70506U,
  0xbd66e7893c1672a7U, 0xbdf4b86c3ddf0f4dU, 0xbdb3192abc3a3ef5U, 0xbe02e553bd9acc71U,
  0xbd625e03bd6a9726U, 0x3e024d5fbd128164U, 0xbdf638b03d3ecb2dU, 0xbe282b163d3e5bb1U,
  0x3de750c33cf36879U, 0x3b3fda2ebd98685cU, 0x3c8a0846bca152acU, 0xbd86b39dbd62834aU,
  0x3beacae03b3da194U, 0xbd874d9f3cbbbc09U, 0xbcedaa4e3dac0b40U, 0x3dcd53fb3ba53adfU,
  0xbd89fb6e3b5fdf89U, 0x3db15409bd0cf6f6U, 0xbc2f20f8bcd05ecfU, 0xbd6c371fbd9544e2U,
  0x3b96276abda118c0U, 0xbdc236183c384d47U, 0xbdacfe203d31b5ceU, 0x3ae7efd2bc29bbddU,
  0xbcd8daf73ab1c5e2U, 0xbccb735dbd8a7be0U, 0x3c3f9388bda04dfaU, 0xbbdd2686bcec23acU,
  0xbd61b7f5bce1e9b1U, 0x3d0c8db1bd28b100U, 0xbd6ea53fbc949c40U, 0x3c92aa4ebd03c28cU,
  0xbc429aa23cca6ac7U, 0xbd9a4992bb2c0b36U, 0xbd1e0eee3c1982b4U, 0xbc4a6d2a3bb015f6U,
  0xbc8bfde03c5b48cfU, 0x3ca04a02bc11b615U, 0x3d151d9e3d0907e1U, 0xbb7773f1bd5187efU,
  0x3cf1a777bc049d88U, 0x3cb7c0803bdc8593U, 0x3d6f00efbd667cd6U, 0xba993a45bc4bb66cU,
  0xbd146a37bd71ec31U, 0x3b4793e7bd2986cfU, 0xbc058f2ebcdf6ee2U, 0xbd0c7663bb870160U,
  0xbcfe4337bbc99a4cU, 0xbd4323d73b047f9fU, 0x3c30c6db3c909869U, 0xbc519ec73a0f64dfU,
  0xbc9aff95bb1770a7U, 0xbd10aa26bd16e8e7U, 0x3d040cb4bd91ab8eU, 0xbd0882d3bd56933bU,
  0xbd26812abc5871fbU, 0x3c26c4d1bd05ffb2U, 0xbd15d698bd81c589U, 0x3ce07ecd3c9108beU,
  0xbd6f95d2bc289483U, 0xbd843eb6bd744ce2U, 0xbb5e7a86bc81ba11U, 0xbc7d69a5bd5a3cceU,
  0x3c195960bdb640c8U, 0xbd94d7fbbd940d1cU, 0xbd315a553d4560ceU, 0x3c11944a3d0bc12bU,
  0x3d11a8fc3c1a81e5U, 0xbdb63e883d5836f4U, 0x3bd21aef3d0eaedeU, 0x3c3b6a06bcf8b7f0U,
  0xbded849ebd1e53aaU, 0x3c39093c3d2e01d2U, 0xbcbe58debd0101f4U, 0x3c3bf90abd1231cfU,
  0xbcbe2327bd532d4bU, 0x3d6857773c94d183U, 0x3c902643bb234b07U, 0x3c0ad17c3ce5c5fcU,
  0xbd178d873c6014dfU, 0xbc8d67a43d0b8bf9U, 0x3d03f044bd3f3060U, 0x3d3180683c9db593U,
  0x3d49a6673d3094efU, 0xbd3e927fbc8c5e54U, 0xbd5ad4c73d8ffaa4U, 0x3cb60895bcbe49a9U,
  0x3bed9c883cec0992U, 0x3c26dbf0397a0b20U, 0xbcbed5cdbd00ff39U, 0x3d27504c3bf65319U,
  0xbd9c9dacbb6ff448U, 0xbc5c5e5c3c219162U, 0xbc6c74793d56328cU, 0xbd1ea22ebd91387dU,
  0x3d718700bd65c07fU, 0xbc0d44a9bcbe86c1U, 0x3c5420233b8f9b06U, 0x3bb4cb183bcacb21U,
  0x3cbc32823c0fb971U, 0xbd8526933d47c9a6U, 0x3d772cb9bd89fcc4U, 0x3d27e5903be8ddf9U,
  0xbe123616bcb854f0U, 0x3c5d4884bd197937U, 0xba646353bcda10aaU, 0x3d4d96cabd0aca6cU,
  0x3c90f98cbc9d73c7U, 0xbd4fe35abd7b428fU, 0x3cca1ec73bd58e82U, 0xbc4c49c23d39a77bU,
  0xbbd33906bd3c5105U, 0xbc5377c0bd496ab2U, 0xbcc68bc63d4744e8U, 0xbbc499b3bd26bd03U,
  0x3d5f0e263cd6b459U, 0xbbf7062bbc57ad16U, 0x3cd0f2d13d80b6e8U, 0xb8d169cb3ba12a4dU,
  0x3d5380f5bc42a6b9U, 0xbd5bc93c3d3bf51dU, 0xbc09dc843da33f33U, 0xbc3122adbda84b57U,
  0x3d3977f63d7203d9U, 0xbd19a9613d4cb73dU, 0xbc63bd543c362112U, 0x3c0ae7f73ce172a9U,
  0x3d5366823c73f7ecU, 0xbda1937a3c5d128dU, 0x3dd719e7bd5ec760U, 0x3d10c707bd115518U,
  0x3d27b159bd3c22a3U, 0xbc84056a3d0b5943U, 0xbd3880fe3d81b332U, 0x3cbd19833d57f180U,
  0xbd224c803d3e2d67U, 0xbc05c99c3d29d132U, 0x3d9950fe3cc56b77U, 0xbbb227c4bc9cb151U,
  0x3cb2a05bbd379ff1U, 0x3c93e24a3b7ddb01U, 0xbd36cdb937f5f647U, 0x3d566fda3cf1b7b5U,
  0x3c42c31abd085c72U, 0xbceb9b8d3c7c9200U, 0x3cee96a4bd7bfeafU, 0x3dc1d61bbc9c1c1cU,
  0x3cd4b488bd6e3052U, 0x3d0fbbfcbb16bf95U, 0x3d492d2bbce800b4U, 0xbc3e1ee83d88c408U,
  0x3b05ba2ebd80d6afU, 0xb91ecf2bbcd342a8U, 0x3c3f9d4c3c3f1b8aU, 0xbae40d4abcea32aeU,
  0xbdaafffd3a422294U, 0xbc628287bd12dbc4U, 0xbbde64033c624bb6U, 0x3ced7c80bd748997U,
  0x3b7cabd6bcf4540aU, 0xbd37180ebdb009f2U, 0xbb72c55bbceaad7eU, 0x3c84823bbdab9792U,
  0xbc5900183b4b997fU, 0xbdd370523e2838f4U, 0xbd071e383e0c93aeU, 0xbc9ea137bd94de3bU,
  0xbd60e2e4bc5322daU, 0x3e29d9753c9ce012U, 0x3d8eae27bc460ea8U, 0xbd0473d43cffca7fU,
  0xba4531f0bccf548bU, 0x3c998516bd1a50c6U, 0xbdab6a4ebd8b9579U, 0xbd7ed2923cd0e0c7U,
  0x3d0515383d887de4U, 0x3c5fde033d7d22d4U, 0xbc9217db3d71cba5U, 0x3d3291dc3dd797fdU,
  0x3d845ac43befc117U, 0xbde77c743dd18096U, 0xbcebf31fbd0495efU, 0x3d89ffc4bd96aaabU,
  0x3d7f7d0f3d2aa9bfU, 0x3e03d6e6bc98a77dU, 0xbd364b84be345822U, 0x3bf08d1e3d66bb98U,
  0x3c64aebbbde04880U, 0x3d1b5e02bde9c5e2U, 0xbd4d6cd83cce4d3cU, 0xbd600d693bff653aU,
  0x3d611cc73d2bda99U, 0x3bb2b2f6bcb8bf93U, 0xbc7a304cbc48be1cU, 0x3d7a6d2abd0ebbaeU,
  0xbd09ee773d82b74dU, 0xbe00445fbc4c131eU, 0x3d762e833d9946e9U, 0x3d9d3d17bd209f1bU,
  0xbd9bfd7bbdd4fb06U, 0x3de1ddf43cdcf438U, 0x3cbb2b0e3ce9ca36U, 0xbc035d9f3b91c368U,
  0xbcc156debd3369bcU, 0x3d25b9a8bd292126U, 0x3d07f0f9bcebf1bbU, 0xbde46f50bd941c81U,
  0xbd45ad553d7340d7U, 0xbe1bcca0bdc6e65cU, 0x3cc00f083c9c0e82U, 0xbdcc31b43bee396fU,
  0x3dc6b9dcbda4dd68U, 0x3cc474f3bdad002bU, 0x3d18eb6a3d2f60b9U, 0x3d90a65fbcf42742U,
  0x3e1602fcbb04a8afU, 0x3d36597a3de2cde5U, 0xbe07c5a9bc456865U, 0xbd1f87e8bd06e7cbU,
  0xbd189a6a3d6ef32fU, 0x3db48d71b89dfb40U, 0xbca15712bcbc42aaU, 0xbde488cd3d2ceeaeU,
  0x3d1d34ab3d6b2facU, 0x3d833c463df01943U, 0x3d6891c43c704f6eU, 0x3dda2c8fbe207ea0U,
  0xbbab96f8bd6d5e9dU, 0x3d11a961bb9d232aU, 0x3d46c44e3dac0c09U, 0xbd5c10933de4f655U,
  0xbe4013da3ce1837eU, 0xbc9245903db893d7U, 0xbddfb0913deefadbU, 0x3d5a08b9bdee64e8U,
  0x3d8ccfcd3db66499U, 0x3d6d23603d17603eU, 0xbcb28ca13db488b3U, 0x3dc3a8853dd072acU,
  0x3d4ad90d3e3876e6U, 0x3ccba11abcffac4dU, 0x3d3e2623bd5d6d40U, 0x3db2d5fcbd602fa9U,
  0x3da8ca4b3cbc2b41U, 0x3ce9666abbaa4c21U, 0xbbef62ae3d81712bU, 0x3db92fa03d83c0a1U,
  0xbdac5baebd05db9dU, 0xbd729631bd1ece7cU, 0xbbe4e7ecbc88b8e3U, 0xbd66b3613cd72c2bU,
  0xbe04eb58bdad97b5U, 0x3d5b99603dfdd110U, 0x3c8d2eca3d6b5cdcU, 0x3e08fbc33b327a52U,
  0xbcbade543d9e5511U, 0xbd4d53e03d119584U, 0xbc7defc8be305cf4U, 0x3d6c6272bd87205eU,
  0xbb8093e1bd84c4c0U, 0x3c96965a3e1ef43cU, 0xbda69f2e3cbbbd42U, 0xbdc6d06fbc2daac7U,
  0x3ba71189bd404746U, 0x3d33a81a3d527aceU, 0xbd64285bbcb0106fU, 0x3d84bc863bb63521U,
  0x3d1874383d34e179U, 0x3d41ba0ebdf3bfd3U, 0xbd0e0a883d6a8d95U, 0x3dc52377bd4d6beaU,
  0xbe3cb7163d090451U, 0xbdd1f4473d0e1e3cU, 0xbdbd23093c12c10fU, 0xbcd916ed3c9cb3d5U,
  0x3cfa5458bd3bcf7fU, 0xbc3e6db2bc520814U, 0xbdcaa350bc8a48d0U, 0xbdf811a7bdaa5961U,
  0x3dfb82903d024bacU, 0xbdd8ba8ebd31a3f1U, 0x3d6c56dcbbc65da8U, 0xbdd17c08bd988b45U,
  0xbd1f512e3d8a3125U, 0xbbd714373d153ab7U, 0x3c24fc21bd24705fU, 0x3d036a4cbd8b8ed8U,
  0xbdf3886bbd50b2c2U, 0xbdddfea93e4a6f7cU, 0x3c82bf353e00293dU, 0xbd3f60f8bcc43bfcU,
  0xbe01d7e83ccd99fbU, 0xbb96992fbd46f3b6U, 0xbde202e3bda40ce7U, 0xbe337b2f3d215ca7U,
  0xbc34c773bd62ae9fU, 0x3d1b12f0be049354U, 0xbd30249fbd4b3670U, 0x3d0f34843de3a903U,
  0x3d2beae23dbe3624U, 0xbd736a22bdaf844aU, 0x3d1fca01bcde0de2U, 0xbd85d486bd87d896U,
  0xbd2bb8f8bdc3e928U, 0x3d181f36be216c10U, 0xbc95f3d7bdd36f01U, 0xbddd922fbcff2ca9U,
  0xbc8dd2a53c0797adU, 0x3bd40c6ab96c7171U, 0xbce40b2b3dafedc7U, 0xbc69659ebe061ae4U,
  0xbd30fb17bde570e5U, 0x3d1fd96d3d3a491bU, 0x3ddd54533dbdbc51U, 0xbd9892313d211ed8U,
  0xbda187883da0579cU, 0xbdaee04e3d4a04a1U, 0xbc4f5469bca2c3f1U, 0xbd9a323d3cd992fbU,
  0xbd337672bc9b774eU, 0xbc4195e73d6c1016U, 0xbe0839d3bd715b6fU, 0xbdaa2cbbbdc45c20U,
  0x3d5289fd3d7e2bbeU, 0x3d089080bc903aa5U, 0xbd087a0c3d3c9092U, 0x3ce457563ce9923bU,
  0xbcf862bcbe2330c1U, 0xbdbc1bfe3d8da609U, 0x3db5cdb33d4d676bU, 0xbda0ecc0bc658595U,
  0xbd6b88d83c0d6872U, 0x3dd2a42d3d7725e2U, 0x3da27b163945e26dU, 0xbbd521e23c26ab1dU,
  0xbd330f783cfa295fU, 0xbd14fa03bcb18cceU, 0xbd1a1ff4bbe74e98U, 0x3dc3246fbc7af579U,
  0xbd91e63a3d9dd0c2U, 0xbd0bf198bcf6cee0U, 0x3dac45323d8422e9U, 0xbdb3daa2bbe87878U,
  0x3d95c4063dbe83b4U, 0xbc4c807dbbb6a536U, 0x3cc59650bdef2a86U, 0xbe1c28cdbdb70f5bU,
  0xbc8afb853c366a61U, 0x3de10ee3bde32a83U, 0x3b13f9b7bc07488bU, 0x3c818ecc3cb205a2U,
  0xbd7c1193bd705cb0U, 0xbd7fa3b33e2c8a5bU, 0xbbc8dd45bda5d433U, 0x3c967b863bb4541cU,
  0x3db3c2623d9f0199U, 0x3c563f5b3d310ca9U, 0xbb4e5ef13d81ab71U, 0x3dd5977c3d5ea163U,
  0x3cba6435bd134cd8U, 0x3d466a05bd1f875cU, 0xbe1f01633ce5fd4aU, 0x3dd091ccbda34ebeU,
  0xbb6eecda3d07ed0cU, 0xbc7158483d7aa78bU, 0x3dbd3847bd9bb88fU, 0xbcc4daffbd68051eU,
  0x3d5855c3bcbab94eU, 0xbd268f5abd55ea1bU, 0x3daca862bdec8985U, 0xbd71d9273c0227aeU,
  0x3c17c53cbd178d15U, 0xbd0a8e0c3d560c5dU, 0x3d52f8f5bd07afccU, 0x3d0bddba3d0eb3a4U,
  0xbcef1e893bf47108U, 0xbe33f69dbd404d7bU, 0xbdcb434e3cfe086fU, 0xbd317ecdbc9085b3U,
  0x3d61ff8e3e00333fU, 0x3d3a1ce23d72a143U, 0xbdccca563dd73cf9U, 0xbbba1c3a3d476fbaU,
  0x3d3b20293d750753U, 0xbe3a37d23dfc4e85U, 0x3d9381df3e13c4c7U, 0x3d5b32bfbd9ad410U,
  0xbd62eb73bd841959U, 0xbb3419c7bcdb008eU, 0xbde69ffb3ccb66b9U, 0xbc2387acbd8021d1U,
  0x3daa1a4e3d0800f0U, 0x3cde9c22bd90a617U, 0xbba0ae6dbba17d6aU, 0x3d053cb0bc46f89fU,
  0xbd7823383b22cfebU, 0xbc020c66bdc2e8ebU, 0x3b629ec3bd6b419dU, 0x3bf37006bddd9974U,
  0xbdc74fc8bda1ed91U, 0xbca61f09bdf59c1fU, 0xbd72dd803cbe0fbeU, 0xbd6a9d4abdb2c3a4U,
  0xbbd1d65e3d529d50U, 0x3c258ae93c90ac1dU, 0x3aad54ff3d140995U, 0xbd8321bebd778b4fU,
  0x3d6af178be332bedU, 0x3dbf32c9bc75b0a7U, 0xbc5744973dca912bU, 0xbd651964bddd90bbU,
  0xbcbf34483df9f6fcU, 0xbd8823303dc65c46U, 0x3cf5650dbdbd21faU, 0xbd8d38ddbe071358U,
  0xbd7b51053cda226dU, 0x3d505b48bd4c39b1U, 0xbde07c0bbd03d50cU, 0xbd0a476ebe0e49ebU,
  0x3da430f6bdb1272aU, 0xbd2b7573bd1e7350U, 0x3c9b2aa5bdd37030U, 0xbd23d8b13d2453b4U,
  0xbc426d543cf0b91bU, 0x3e1e5effbdbf4f31U, 0x3cdc16fabd939f3aU, 0xbe107bdd3cba92afU,
  0xbdde86dcbd91f4b2U, 0xbe36be913e04f6e0U, 0x3d795684bcaf756dU, 0x3dd2e8e7bc35a4b3U,
  0xbceb4179bd392ca4U, 0x3d5ed2b93cc28f37U, 0x3cb3936f3dc7e082U, 0x3dae51c8bd5ff4e8U,
  0xbd2144b2bb9e74b5U, 0x3bc4e7e43b099410U, 0xbd91f2d13da241a0U, 0xbd8c8804bdec5bc8U,
  0x3ca4d118bd90c599U, 0x3c82827bbd10a9c6U, 0x3e0970953d4b8b03U, 0xbcd1c2c6bde89fd5U,
  0x3e02bde7bab99f70U, 0xbe2f1b60bd7e9109U, 0xbd65f18bbe15d748U, 0x3d26bb8f3c9a13a8U,
  0xbcf4670abc04dd07U, 0x3d04d6b33cdfc122U, 0x3ca00c763cccfc4eU, 0x3da43bdfbcacdacdU,
  0x3c90f2823ca40637U, 0x3c5fd1b23bb837e8U, 0x3c1105a6bd4a2a73U, 0x3c403d67bc549757U,
  0x3b6def743d0c1e03U, 0xbca713babc06fc81U, 0x3c9cf4de3cd9433aU, 0x3c9739a23b3d11f0U,
  0xbcd2ef963d425ee4U, 0x3b267e323bf04e5aU, 0x3c04f4f63d7ba592U, 0x3c20b5d0bce07bb8U,
  0x39fd521abc10f757U, 0x3ca15d7dbce18cc3U, 0x3c6e0d8abc734148U, 0x3d4cb0343cecc9e9U,
  0x3ce023d23d710c8cU, 0xbd464875bb7549c5U, 0xbc9b8c923d3ea53dU, 0x3d012fcd3cb5191dU,
  0xbd1270ff3d9f3cc4U, 0xbd3223f93cb29a26U, 0xbd4f8f24bcaaf1c9U, 0xbd06f6853d76f3deU,
  0x3cd6d68dbd0ba745U, 0x3d2142a6bd74974dU, 0xbd6435113bd4316eU, 0xbd9896c63cca21d2U,
  0x3d3ae55e3d555d2bU, 0xbccbdf2dbd068fe7U, 0x3bc03b7f3d89969dU, 0x3d11d0cc3ca75c6eU,
  0x3d6557383cddf559U, 0xbb921fb23cd0d494U, 0xbd1a1399bc29e175U, 0x3aa081283ccaa8bfU,
  0x3b9b84febcc9c927U, 0x3cdf551f3bc0c2e8U, 0xbbc566da3c673ae0U, 0xbb8b41df3c85a61bU,
  0x3d0ec3da3cda5f13U, 0x3dad5d153c55a21fU, 0xbcff4ebf3d23afdeU, 0xbcc338023d278db9U,
  0xbce442bdbc7426f4U, 0xbc835ea8bdb677bdU, 0x3d38c277bd76a7a3U, 0x3d2e7f103b73cff4U,
  0x3ce1ccb9bd059dacU, 0x3b9c3f813cd8c65cU, 0xbd2f2a263cd5cfb7U, 0x3c1d0c2c3c2413d1U,
  0x3c3de7d03d21cd8aU, 0xbd763a1d3d37f291U, 0xb8a4ae2ebd8a626fU, 0xbd4110fbbb3a6696U,
  0xbcb230f2bd3ada52U, 0x3bf7a3cc3c4a18c5U, 0xbc13f2c5bd846618U, 0xbd009853bd4951c5U,
  0xbdd30c653cd17759U, 0xbd476e833dd60ea7U, 0xbd6c6110bdacaf94U, 0xbd7e7f92bc89cacbU,
  0x3b7ddcbabd05e1cfU, 0xbc36e082bd22aeb4U, 0xbd1c3da73d4b7f8aU, 0xbc814ab23d5fbf9cU,
  0xbca2db55bc927dd0U, 0xbd862e7e3cd2533aU, 0xbd6c64643d9cd4ddU, 0xbca15df0bc8b44dcU,
  0xbc124d413d806a45U, 0xbd7a60c93bad6334U, 0x3cf76fde3d5490e4U, 0x3d40529e3ca26fc7U,
  0x3b811936bc55ece8U, 0xbd077759bc5243feU, 0xbcbca70a3ce1f765U, 0xbce115893b8edb87U,
  0x3c7c3e71bd1e3060U, 0xbd277ee23c331573U, 0x3c731aab3c5a621eU, 0xbc2046efbc99ec54U,
  0x3c82908a3d64b195U, 0x3c376445bd14ccffU, 0xbba3dc3bbd4b02ebU, 0xba968711bd495999U,
  0xbd69be8e3b3cdb0fU, 0x3d0acc19bd9eb38bU, 0xbd107030bb619fe6U, 0xbd57c73fbc7f5da8U,
  0xbd4cb4363c77a72aU, 0xbc9d85233d0a81abU, 0x3c9a14973a1e30d0U, 0x3c944e1fbc5b77c9U,
  0xbd0ce9bbbc943a0cU, 0xbd104c05bdb7a740U, 0xbdc284e6bd049b18U, 0xbdb2265b3b2f355eU,
  0xbc3930a4bd6ec95dU, 0x3d8d5280bb0d1778U, 0x3c310a0fbc820573U, 0xbd7013b1bd05b97bU,
  0xbc476153bd61f494U, 0xbdc67ebdbd4cac4aU, 0xbd1c38c43bd50aa3U, 0xbcd4bd69bc9ee929U,
  0xbce0e9753b89b8d8U, 0x3cd53512bd2412f1U, 0xbd7b5739bb2d152bU, 0x39586e9fbc2e7858U,
  0x3bc5839ebdc47959U, 0x3c4bf9703d5d713eU, 0xbdad0088bd2ac4baU, 0xbd124e5e3b3c3101U,
  0x3d1dd95ebc4645bfU, 0xbd6476993cd5659fU, 0x3d6e33f2bd14742eU, 0xbd0f1253bd6e4c1cU,
  0x3ca996a5bb605852U, 0xbd1855f4bd13d112U, 0x3bf6fcf4bd2c9fefU, 0xbbd93d763d0fc90bU,
  0xbd300acbbc94505cU, 0xbd2f1b173d6b2ebeU, 0xbd8a6b843d545ee2U, 0x3cbd5f1b3d240773U,
  0xbd53db74bd274fa8U, 0xbca64007bd28e924U, 0xbd0fd97f3d7c648fU, 0xbd9d59643c27abedU,
  0xbd1848ecbcf90734U, 0x3d5a37633d0877b1U, 0x398176343c70818cU, 0xbd7204753d1bae02U,
  0x3c4f2c12bbe01a3fU, 0xbd87a2053c893ed9U, 0x3cac2506bd2c8f21U, 0xbd09a9f5bb8f8c4fU,
  0xbd9ae5e7bae35421U, 0x3c87c9c7bd33e813U, 0xbd873ba63cf02089U, 0xbdd4151c3c53426eU,
  0xbc596fd0bc1b0398U, 0xbc7949ea3c76ad75U, 0xbd3fb86a3c13a63dU, 0xbc78e834bc5d7c78U,
  0x3bc381693b83f740U, 0x3cf6bbde3c02e5baU, 0x3b127d85bc4110ccU, 0xbcb49fa5bd41ff00U,
  0x3cba21453ab92c60U, 0xbc45cc28bc6dc19cU, 0x3bc7dd15bcb382a3U, 0xbb98bf47bcae7d3fU,
  0x3c8288f63c173803U, 0x3c8fe2903ca1af6cU, 0xbcf65c1d3b5c2195U, 0xbc8238613c48efeeU,
  0xbc8f4a57bc389a30U, 0xbc098ebf3c0d8955U, 0xbbcf317c3b3fb95aU, 0xbd0ab10dbbcb0ac0U,
  0xbcd713b7bce7a54dU, 0xbc8b788abc6a42c2U, 0x3b5f76ecbc24c3fdU, 0xbd39e1e1bca78157U,
  0xbc9198d7bc2898e4U, 0xbbd9d464bcc6cbcfU, 0xbcae26aabc8158d8U, 0x3a3a7b66bcc01df9U,
  0xbbeaac79bc4a969eU, 0xbb16900abc3fb14aU, 0xbcb155a7bc00011cU, 0xbc688d95bc7ed3c1U,
  0xbd16db67bca11f26U, 0xbd03717ebc804eefU, 0xbcccf9f93a6171f9U, 0xbc4a7beebd16e476U,
  0xbb221368bc8168b4U, 0xbcadcf973c85f24dU, 0xbc4abb05bc360b69U, 0xbca847c0bc66e510U,
  0xbcead601bc5db0bfU, 0xbbb6d8bebc6f0413U, 0xbc306db2bc90ac09U, 0xbcd8890fbd3acb51U,
  0xbbbb2ae43c018de0U, 0xbabe221cbcdffeabU, 0xbc99c951bced1fe5U, 0xbcbb15f23c91a8cdU,
  0xbd198edbbcb2cdffU, 0x3c4e1132bcb055e7U, 0xbc2c56933d44508eU, 0xbcbe94cabcc81562U,
  0x3d0c351d3b1a85caU, 0x3d0a6e4b3d26a1aeU, 0xbbb1943fbc28f376U, 0x3c6a62b83c73db08U,
  0xbca785eebcf10113U, 0xbc87cda8bd2a1dc1U, 0xbc6df6beba73d293U, 0x3ba326f6bbb372d2U,
  0xbd04b4313d01b23eU, 0xb9d5d71bbc8e7df4U, 0xbc9172e53c8db89bU, 0xbd10d465bc681da5U,
  0xbc8931213bd089d9U, 0xbd119b50baa6354aU, 0x3ca488143d4c0df2U, 0xbaeabe8bbce788f9U,
  0xbc43b32ebbf5c2b8U, 0x3cb9c20e3c27fcdbU, 0xbc3c717cbc4101bfU, 0xbcaedb93bc009352U,
  0xbb3595fbbcec7f33U, 0xbc785dd1bd00f561U, 0x3c4a3133bc820d93U, 0xbd0def3d3c2ca1e5U,
  0xbcf0a6b23c57d8e1U, 0xbc8a77fabb766d91U, 0xbb2e213e3c87c7efU, 0xbbc2f52539bb4745U,
  0xbcfbe3a23cca7bb4U, 0xbcccd075bd0e4ef0U, 0xbc931749bc25b60fU, 0xbbf0517ebd0f0b87U,
  0x3add53d6bc95420bU, 0x3b85c70ebbe44959U, 0x3c66d8b4bc1eadfeU, 0x3c5586b73c0484a3U,
  0xbc8ef1cfbad95e81U, 0xbba23204bd02f68eU, 0xbcdd3addbcea00a1U, 0xbd0e131fbc0cbf7cU,
  0x3b34e059bbb61d05U, 0xbd185660b89037f5U, 0xbd241129bcc60058U, 0xbcc55e44bb192525U,
  0xbc0323a03c9f971dU, 0xbc59c63e3a5d69d5U, 0x3bc039e0b84d2369U, 0x3c9a95803bc92583U,
  0x3ab5799fbc1cf59aU, 0xbbb676dbbbd8087eU, 0xbb8e2eedbd408460U, 0xbcb639033b965053U,
  0x3c84d4a1bd1719ffU, 0x3cb25cb1bcedfca6U, 0x3b28e8793c812054U, 0x3c7205943cbf3cc3U,
  0xbce8623b3c26d87dU, 0xb8531e6f3c04bc6fU, 0xbaa030483b9ca9a4U, 0xbba5e429bbe4c056U,
  0x3b8bbf493c627e9aU, 0xbc52776abad5fcaaU, 0xbc51258ebbe0bbf9U, 0x3acd39a7b991da24U,
  0xbc518fd8bbcd7492U, 0x3b6ecd35bb517ad0U, 0xbcba3d513c5d89f9U, 0xbc4862743b99f7a6U,
  0x3a0f9cbb3c294342U, 0xbc130fec3b3a9e50U, 0xbcb38bc93d1c7e50U, 0xba0eba9cbc049949U,
  0x3bc88553bc8e27d3U, 0xbc222a72bc07624fU, 0x3ccae21cbc01048bU, 0x3ccda81a3c1f39eeU,
  0x3c372c913d01588eU, 0xbcddce77bcb3d7eeU, 0x3bed7005bae6b9d2U, 0x3c9d54b0bc044de0U,
  0xbd3d9b4d3bb5810cU, 0xbc4d72613c3752ffU, 0xbb63babbbc80f261U, 0x3bd01e923c56e517U,
  0xbc09ab7c3c8bbfd7U, 0x3c1a7102bc0d9d11U, 0xbbae33043ae2a347U, 0x3c6d657d3c5ff934U,
  0x3b01e86fbd22ca82U, 0x3b9e957c3c54d8fbU, 0xbbb20dd03d2d1d5fU, 0x3c89d24f3b463676U,
  0xbcaa7e54bcb2124fU, 0x3d18bf2ebda7c882U, 0x3d50d8ab3c9bc1c4U, 0xbc4c886cbdaf1efbU,
  0xbd4de68cbcd25ab3U, 0xbdc49118bd07a629U, 0xbddc5b8e3c4e3df7U, 0x3ca0db62bce81da5U,
  0xbc704a67bbe17bf5U, 0xbd8dd0d43ac6f4c8U, 0xbbab5a553ce983b0U, 0x3b664124bc35cf0dU,
  0xbb50e4133d0c01a9U, 0xbd31458abd82b8e4U, 0x3c0d1f7abdbf02d0U, 0x3c3e906a3b055fb6U,
  0x3bbf93e83d03d37eU, 0x3db084ef3d5218c7U, 0x3d0cd5e6bd34e338U, 0xbb9e36b53d136af3U,
  0x3cf4258f3cd2f55aU, 0x3d642a1fbd064eafU, 0xbd81243fbdac57ebU, 0xbb3e38bb3bc3bdd1U,
  0x3d9408b7bcca520aU, 0xbd004501bd38d19cU, 0x3cfef86c3cda101eU, 0x3d7b8d57bc70fef7U,
  0x3c73f494bad684f7U, 0x3d503b793ca9c08dU, 0xbb0344a9bb43b500U, 0xbd988ab13d734639U,
  0xbd29bbb4bd827d61U, 0x3d0a2174bce52625U, 0xbd818f6cbd2e4916U, 0xbd2e35b3bd3c258cU,
  0x3acb4bfabcbe2256U, 0x3d73b0e7bdc845a9U, 0xbc27ee3dbdfd2cbeU, 0x3c7d9a30bc0e34b0U,
  0x3d5e9f0c3c002e4eU, 0xbd99439cbd0093f9U, 0x3d2f9dc23cff2cf6U, 0x3d673cbe3d449e81U,
  0xbc0f2959bd3598d0U, 0x3dee7e363dd0628cU, 0x3c6896883daf5e3eU, 0xbd5b74e13d471578U,
  0x3d06844d3da74406U, 0xbbdc7a013c32959fU, 0x3c0e66aebd8b2a24U, 0xbcc4466d3d487bf7U,
  0x3d00c0ca3d57d027U, 0x3dc0e9b8bd83168cU, 0x3d37895dbd84fc4bU, 0x3d5e23673c8a0c20U,
  0xbda5607c3d3c553cU, 0xbca978903d7e8c2cU, 0xb88db6edbd8219e8U, 0xbc86c4503b96519aU,
  0x3d55a63bbbfbd2adU, 0xbc2ddbf13db63ebcU, 0xbce3c2ac3d160282U, 0x3d775b2f3d21e307U,
  0x3ca1f22cbd202178U, 0xbdcf0d81bd2c430fU, 0x3cf25bb8bd276d3bU, 0xbd43349a3d0b9114U,
  0x3d307400bd3b54d1U, 0xbe14da8abc8c3ac8U, 0xbd7418573ce7f6c0U, 0x3d375a08bd8c1b5aU,
  0xbe126a6dbc6d85a8U, 0x3c550c74bc478f76U, 0x3cf62f9abcd9846aU, 0xbd248fd2be137b6fU,
  0xbd62e78bbc47e79cU, 0xbd77e6733ce7d6ecU, 0xbbc18734bd5b8ad3U, 0x3c8af1d3bd951000U,
  0x3c19e0d6bd8aa08fU, 0xbcd1c98f3c3ef920U, 0x3d2d6954bd60084fU, 0xbd91d0afbdb36e1fU,
  0x3d4002343d479bb2U, 0xbd955580bd6c4247U, 0xbdde785e3d2e152fU, 0x39f02ba3bc878328U,
  0xbd674ad1bc21d9e3U, 0xbd0869b7bd593527U, 0xbd4542ccbd37e243U, 0x3ce115e1bdf206afU,
  0xbd77d8793d322c11U, 0xbdffb454bd1750ecU, 0xbbdc4748bcad7b94U, 0xbd4834033a854f59U,
  0xbbd71befbc36a538U, 0x3d764e0b3d9303bdU, 0xbd0f11443d8ef4a5U, 0xbd95e4793bcfcb27U,
  0xbcc46437bd12d7c1U, 0x3ddcbdf73cd3a234U, 0x3bb44ebebcf66b98U, 0x3cca4af83e0b8ffcU,
  0x3db31ba83d75b5ecU, 0x3cacb2453dbfa801U, 0x3d7ac827bd2e8b2eU, 0xbd38e08f3d6aeac0U,
  0x3b470cd33cb49738U, 0x3dddbc50bd363343U, 0x3da44f8a3d834c1cU, 0xbcb7abf3bc1948fcU,
  0xbdb929f9be01ebccU, 0x3a483f043d9316e0U, 0xbe088838bd913799U, 0xbd7579bbbc36ac76U,
  0x3d9ccb6dbd008534U, 0xbcc698ccbddbc649U, 0x3db78560bd842a7fU, 0xbcc0f183bca8b1c8U,
  0x3d99d3d9bb97275bU, 0xbd929c80bdbc6aa2U, 0x3bddd729bd4bbaa8U, 0x3dba4118bd283d9dU,
  0x3da41bbbbe131dcfU, 0x3d9136b3bd5114f0U, 0xbb5b00333d573b14U, 0x3c60bd0d3c8eb061U,
  0xbd26e7cd3d0c4553U, 0xbc43e355bde04bf9U, 0x3da48b11bd9ab7d9U, 0xbd225774bd0967b7U,
  0xbc9518613d31e838U, 0xbc206d7fbdbc80c3U, 0xbd068f14bb1be94fU, 0xbcef3b763d8bc8a0U,
  0xbd16eff53c9e817dU, 0xbd6476b7bdd49998U, 0x3ca6b315bcfa1a2eU, 0xbd427c90bd9da954U,
  0xbd1e8a8cbd907ab0U, 0x3d129994bc8b916fU, 0xbd1ee85b3d4e8ae6U, 0xbdceb6e13c9c3a54U,
  0xbc93b143bc6c93cdU, 0xbcfc0b143c939ffcU, 0x3d437fd6bda0ba2aU, 0x3da3730ebc8064ebU,
  0xbdd9ac553bd96531U, 0xbd75bce63dfe75beU, 0xbe50df76bda7b41aU, 0x3db2643ebcef2ed4U,
  0x3ddb2050bd94cd7fU, 0x3daecfc2bce71923U, 0x3b93804dbd9783f5U, 0x3d2759c53dc37604U,
  0xbd26dc2b3d6b2595U, 0xbc79af2d3df62da7U, 0x3cbb2b2fbd5bcf50U, 0x3a28f8693c2559b8U,
  0xbba68f4ebd6c96a0U, 0x3da42214bc218c33U, 0xbd62b270bca2bf6aU, 0x3d105dfbbd4d4419U,
  0x3d7429ebbe5d8687U, 0xbcafbc8c3d974d0bU, 0x3d0b1ff63e1b680cU, 0xbd7907f83d908eb5U,
  0x3cfa1da63b9fccf5U, 0x3ccde47a3da5577cU, 0xbd6612d0bcc1b42eU, 0xbd6241c13b83477aU,
  0x3d1158b13e1ddc52U, 0x3ce14512bdb9e017U, 0xbdb70bfa3d63d206U, 0x3b85c380bccb7094U,
  0x3e0b85d8bbe2f27fU, 0xbb8c1943bd6c0916U, 0x3d98d505bc917ae0U, 0x3dead1413da17a48U,
  0x3d9031093d115345U, 0x3d2a5904bc5d2fefU, 0xbe9312f63e1d1abaU, 0x3d8d1d853d821087U,
  0xbdb452b8bd956f12U, 0x3c88f624bca562c5U, 0xbc29961d3ce42343U, 0x3d63121abcdb2d83U,
  0xbdfda805bc80341aU, 0xbdaee367bc6c0ea8U, 0x3db046833d8c101cU, 0xbc89a46b3ab7e287U,
  0x3d3409c0bd84c969U, 0xbe1490ee3e2325e3U, 0x3e018033bdb4dd09U, 0x3cea1f713d314007U,
  0xbe1418f03c1579ddU, 0xbdaef4c9bd8aad42U, 0xbd8871203bf9ceffU, 0x3cb5b31dbd4c0b0cU,
  0x3de4727b3da07d10U, 0xbccba1463d918832U, 0x3d877fbb3dc410fbU, 0x3dac9d64bca97d68U,
  0x3d73b33ebdb381b8U, 0xbe00ebe23d947ae8U, 0x3e471a703d2e972fU, 0x3e1f61443cb0e88aU,
  0xbdb34c05bd8b2539U, 0xbd098d2d3cac5f25U, 0x3a6cb26a3cfeca75U, 0xbd848147bd7d804cU,
  0x3e00f02d3d7ead43U, 0x3c3bcd86bd65a098U, 0x3dd31379bd992301U, 0xbdb65f86bdb05d6cU,
  0xbdbadeea3d81015dU, 0xbcb12f643da0072dU, 0xbb8bb4fc3ccedf84U, 0x3c9875a0bc7fcac7U,
  0xbe119bc2bd61667dU, 0xbd4ab5823e0be49bU, 0xbddcf601bc8dee0cU, 0xbde3615dbd474178U,
  0xbcd30a97bd93219cU, 0x3d00a73d3d845335U, 0xbdb5e02b3dc43ef9U, 0xbe00b2b0bd18d69eU,
  0x3dfb5673bbe997bcU, 0x3d8eea13bdb53e4eU, 0xbdaaf6cd3c8b97a9U, 0xbc1b3076be17c78bU,
  0x3d555101bd39744dU, 0xbe229253bbb3bd10U, 0x3c800c2abc75f6b6U, 0xbca71b3abd8d5413U,
  0xbda797f8be0e6aa1U, 0xbdc7c1f4bd9ece14U, 0xbdb46fb9bb0a8a14U, 0xbde0a9f0bd06611eU,
  0x3cb256ffbc2721a5U, 0x3d0638babdc3c9acU, 0xbdcd3446bde914fdU, 0xbdd53740bdd75037U,
  0x3ca835dc3d1d1367U, 0xbd82c342bc8a9d0dU, 0x3dec625b3ddc7c69U, 0xbe04c3313dd0741eU,
  0xbda040713e089703U, 0x3c8a65d0bd85fa91U, 0xbd8c99e53c4da686U, 0x3dbcedd03ce2bcd3U,
  0x3e1c3e51bdc0a1d1U, 0x3e1075c13cf7d2e4U, 0xbcd127d7bd02223bU, 0x3dd07463bdbae4f6U,
  0xbd78d9503daceec7U, 0x3d8f48263d3e8624U, 0x3d3b0c24bc5bf258U, 0x3d95fffbbced6344U,
  0x3da2876bbce86575U, 0xbd3fdcccbde19996U, 0xbd49d8babe0d254aU, 0xbdde7dd13d853c0dU,
  0xbd027eaabe3e00b5U, 0x3de95066bddb72eaU, 0x3db69c94bc569258U, 0x3d7f04dbba105cc7U,
  0x3d2d78793d8ea463U, 0x3c99f6f93d6881f9U, 0xbd158fd2bd615bc2U, 0xbda5d86e3dab7a7fU,
  0xbd6076613d518198U, 0xbda766743d13fde2U, 0xbdedd4e2bca0541dU, 0x3d019128bdbc942aU,
  0xbe626d8abd9b0becU, 0x3df4ad343e1c4e85U, 0xbd22f968bdc7a2f1U, 0xbcf8f0753d97ae8bU,
  0x3dce03a7bc1794f4U, 0x3ce770a5be30d96aU, 0xbe13df1f3d7237ccU, 0x3cb257b03da6d181U,
  0x3e0fb97d3e0f653aU, 0xbd72d1393c04c1faU, 0x3d2685e33d6bc29fU, 0x3cbad1e73de775f4U,
  0x3b897d82bce9d78aU, 0xbccd367ebd263f14U, 0xbba503c93c34080aU, 0x3cf59cb7bce31f1bU,
  0x3cc2e86c3ac400feU, 0xbd189c0abc5f4d10U, 0x3c984738bbd47a9bU, 0x3c59c082bcae59f6U,
  0xbcc5725abbdcdb09U, 0xbd36a974bb97e839U, 0x3b8e795c3cfa423eU, 0x3c765de7badf8bbcU,
  0x3d45ad50bc2e0bfaU, 0xbc79e23d3c27c5daU, 0x3caf7f173b5b37aeU, 0x3caa4d553a6a2c2cU,
  0x3cd0e637bd13350bU, 0xbbb440683d28b267U, 0x3cb2aabfbd44d68eU, 0xbb4ea1a53ce8fc6fU,
  0xbc46fa6e3d204f42U, 0xbcba5e7cbd1887dcU, 0x3c29386b3ac3baa5U, 0x3ce633f43b355590U,
  0x3c966746bd0acbf6U, 0xbd612d66b9f8c959U, 0x3c1ef31bbcad757bU, 0xbbdb8189bd0d70d4U,
  0xbc8c6cabbd0479ccU, 0xbbd539d63c785bc5U, 0xbc816df7bcc1032bU, 0xbc9da1293cd22476U,
  0xbcc9d73a3ae91ed6U, 0xbcbbb6adbd1d89e8U, 0x3c1c9bc8bd30753bU, 0xbd23bf5bbc6ca076U,
  0x3c84517b3d3f7cf2U, 0xbd2030ddbbfbbda4U, 0xbbe42a5d3c7ec0afU, 0xbd5b73873c7736abU,
  0xbc4db0633c843b1bU, 0xbd663ad4ba53b812U, 0x3bc5bf72bbd0deabU, 0xba4abd43bceacb7eU,
  0xbd4875eebd05d40aU, 0x3b6adf17bcbd23d5U, 0xbc081c0cbb8561f4U, 0xbc15881fbc910b7eU,
  0x3a1aa454394cce95U, 0xbcf3d1483d024a3cU, 0xbc430b6cbc257549U, 0x3c65c8853c6927deU,
  0xbbbe184e3d312144U, 0xbb658d70bc8a852cU, 0x3d34caf4bbe1063dU, 0xbcd962df3c48c659U,
  0xbc6e261cbc969bdeU, 0xbba371453aa90dadU, 0xbcccba96bc38bf2fU, 0x3c22b0b0bccc1a80U,
  0x3c5fecbbbb91af58U, 0x3b105adb3d4315efU, 0xbbe7ad423cca4ccfU, 0x3c660c953d20b45dU,
  0xbc549230bd2fd968U, 0xbd0e32f0bc5effa9U, 0xbcb3dbdc3d128d9fU, 0xbc9b3d423a7e3b41U,
  0xbd41dd90bbb5aa00U, 0x3ceb4589ba1ec7e9U, 0x3c72ff9a3b554e00U, 0xbc8394debaf64e89U,
  0xbd0afbc2bd5d4746U, 0xbc16cc08bbf35df5U, 0xbd45c0f2bd676df2U, 0xbcefdf27bd165d9fU,
  0xbcf0c8423c9269f1U, 0xbd47df3c396cb7dcU, 0xb9eaa719bd36f47aU, 0xbd2242f3bd1c616aU,
  0xbc4ad2ecbc4cee1aU, 0xbc7bf35dbd06951fU, 0xbcf94f5dbc6ea774U, 0x38fa4ca53c8e9eb2U,
  0xbd3d02fbbd161172U, 0xbd0b0e5bbd2e5020U, 0xbd2d4b5bbc54c013U, 0xbcaa4eafbc9248d3U,
  0xbd17472abc939cc3U, 0xbca00f9b3c818e53U, 0xbcf842153b9bc64dU, 0xbd58ab47bd2d4904U,
  0xbc0f2492bcbddfa0U, 0xbd01a73b3c53599bU, 0xbca0fb74bcf1d6a8U, 0xbc09948fbcbe36bbU,
  0x3c4b128a3bddf719U, 0xbc08a07b3c2f3c7aU, 0x3955ed813cf18a7aU, 0x3c8ecde7bd41d3e0U,
  0xbd233b7c3cb6aa68U, 0xbb5c989b3ce29c9eU, 0xbd5ef03c3c24593dU, 0x3cdde63b3c1b07a6U,
  0x3cc030e2bca4cde0U, 0x3ce2cac7bca33048U, 0x3c418c95bcad0fa4U, 0x3bdeef6dbbbc8e6aU,
  0xbc16106a3caf29beU, 0xbb0356bb3c63ab6dU, 0xbd05ba23bcd3c9c8U, 0x3c018e763cbbbc66U,
  0xbc39a8a13c85c2ccU, 0xbd07d4c8bd1941f1U, 0xbc35e959bc25feeeU, 0x3b8431e9bcf932baU,
  0xbd54cd0abc997b1fU, 0x3c5c33bebc4b3c9fU, 0xbb1c42d83ba3d622U, 0xbcc8d55abce178e7U,
  0xbd037646bce73d7cU, 0x3bd3b06ebd18fbcbU, 0xbcceef563b1b59efU, 0xbd42eeb03c20f2c2U,
  0xbd0fa014bcc8a834U, 0xbc9592e5bcb83429U, 0xba7a470cbd0f0c7cU, 0xbca7af3fbb5b3fd1U,
  0x3b2decd23c4fb553U, 0xbcbddfc3bd4673d5U, 0xbcc3e053bd82c871U, 0x3c8c51aebd32ca95U,
  0xbcd062483c9769e0U, 0xbcc149a73c1cbac3U, 0xbc415908bba90666U, 0x3d2399d6bb79d5c0U,
  0xbcdcbe643a6d60b9U, 0x3c005580bd36d063U, 0xbce9614c3ccb74c3U, 0xbcb457adbc910030U,
  0x3c88a8e6bd2444eeU, 0x3bd7a1a9bce4f49cU, 0xbd03a9f3bcf08a88U, 0x3b2b3c6a3c862580U,
  0xbc89b0b63d73c4bcU, 0x3cb2ceae3d85a768U, 0xbda596d0bc8b6120U, 0x3d569f193caea6c3U,
  0xbd736a18bcab4c76U, 0x3cf6d232bdc5b75eU, 0x3c4038383cbeb044U, 0xbdfc48e63b38810eU,
  0x39f296ac3d391828U, 0x3cce913f3d9c0685U, 0x3cad0763bd6d67ebU, 0xbd6f49f53d71d383U,
  0xbdb9ef08bd399f0cU, 0x3daeb3303d01ab3cU, 0xbb9cf3163c9dd094U, 0xbcd7c7d6bce2a4fdU,
  0x3cccdc203d2b5acdU, 0x3d39bab4bc9eab0bU, 0xbdaab6993dd2452aU, 0xbd20c73bbd1cce24U,
  0xbc119840bd99897eU, 0xbd95562b3cb894fcU, 0xbdb6e9763d1e1e9cU, 0xbda13866bd39ab86U,
  0xbc1f3fefbd1398abU, 0xbc9369583cd2932bU, 0xbc27a4373d5a7c9eU, 0x3c1f4cef3deeb5e8U,
  0xbda45caf3de11915U, 0x3d83beebbc988e24U, 0x3d04524d3d8eac5aU, 0xbc2ffc553ca535b4U,
  0xbb5c65db3dad4cd8U, 0x3c1196dfbd100939U, 0x3ccc8c343c982e11U, 0x3c02c3d8bc0152e8U,
  0x3de7e4f4bd2ffe8fU, 0x3dd50e6fbdd2bc58U, 0xbe72bd61bd6c0b96U, 0xbe24602cbd92478fU,
  0xbd96bf12bc4d00d5U, 0x3ab26c31bda31d53U, 0x3b130f08ba9d93fcU, 0xbdaf9c753cd4fce7U,
  0xbe10f31e3cf5d056U, 0xbdf66399bd284b54U, 0xbd842bb4bd86caa5U, 0xbcaf83593ca69b7cU,
  0x3d889216bb3aacd0U, 0x3afc2af23d52bbadU, 0x3d0d3c7fbd9fc1e5U, 0x3d4757513c85b3a2U,
  0xbd14b8f73d5328d7U, 0x3d3033c1be1f388aU, 0xbd63044fbd436835U, 0x3db8bbb83ca370bbU,
  0x3bfc21ca3c4e628bU, 0xbce2d2953d3f5eaaU, 0x3d56f861bb9577f5U, 0xbc962dd13b8ab9a7U,
  0x3c94a7d23cdf1e0dU, 0x3d558106bd2f5c79U, 0x3deb4bb7bd202bd5U, 0x3dcc71893d2c7d4eU,
  0xbc5dfe6bbe029b82U, 0xbdb563ecbd3b4df8U, 0xbb88febbbe10bc0fU, 0x3d3e10c83beca9a8U,
  0x386d5a753d4c4558U, 0xbd33c5013ddfcd2dU, 0xbd80b91cbd4b2b06U, 0xbd3586723c293cf8U,
  0xbd0b1a55bde26e57U, 0x3d16012d3d4c40a3U, 0xbc412e9a3d2c386dU, 0x3d059d65bd1428e7U,
  0x3e715aba3d92f851U, 0xbdb8e40dbc8ce2feU, 0xbd08ad9e3e0dda7cU, 0x3cdf5d41bdc7d172U,
  0xbe10d2adbd1d39beU, 0xbce13bde3ca96c09U, 0x3cda4358bccbecdfU, 0xbd584eabbb0dc50eU,
  0xbc2265adbde3ab86U, 0xbdb7c19fbd312b96U, 0xbc514e31bde0a159U, 0xbd444bad3ce92548U,
  0xbdfc1b7d3cd0b207U, 0x3d66d1c3bd808cd7U, 0xbd428bd3bd9c66c0U, 0xbcfd0db4be2ce6ceU,
  0xbdd73b773d9e665aU, 0xbe87e58a3d1e4deeU, 0x3c9eff89bd1e3300U, 0xbd87e99abd72f3a0U,
  0x3c4d36943d8c2822U, 0xbc8aa867bc51244cU, 0x3d17312dbd92e16fU, 0x3c507d2ebe0a6884U,
  0xbcfe1849bd946835U, 0xbd3169ca3d6e3199U, 0xbd1e59f13d701f6fU, 0xbd209448bca8b33aU,
  0xbe390e7bbc3a2d7aU, 0xbc8754debd210ec1U, 0x3c728720bd96ff38U, 0x3d495c693ba1e8cbU,
  0xbd4ab9ccbb92d03cU, 0x3cce595ebd87bc31U, 0x3c94534abb43ea8eU, 0x3cb4894fbdc48e28U,
  0xbb297a3a3d4b306dU, 0xbd40d56b3cf6111cU, 0x3c409029bd2c2f5fU, 0x3cd9b8683c48d3f4U,
  0xbdb3d4443b67e3a2U, 0xbd816dd9bc8a826eU, 0xbdc603d7be13627bU, 0xbcca4eb03d3d7119U,
  0x3e2a9f0bbda9a53bU, 0xbd9a565cbd995a97U, 0xbc18e3f7bd2ba72fU, 0x3d15f2653dd97f50U,
  0xbdc69fd0bd59041dU, 0xbd3440563e0bd73cU, 0x3cc95c0b3dfac350U, 0xbd95b6813d0efabfU,
  0xbd17da163d942cc8U, 0x3d1754dc3d463191U, 0xbd5e1f073c285569U, 0xbd49af58bd398cc8U,
  0x3e0cbb6b3d8ec2efU, 0xbd505683bb38865bU, 0x3d8c6f2dbdaee69eU, 0xbb627fa63cdaaecaU,
  0x3cf408103d6e22c8U, 0xbdf0f289be0147f6U, 0xbd94358fbd398302U, 0xbb97bcea3d16deefU,
  0x3d240bc6bd8afed7U, 0x3dae95db3d72219eU, 0x3dabccb03dde9936U, 0xbde01e633db3222bU,
  0x3b073a65bc4907c1U, 0xbbdaf3b03c95f56cU, 0x3bdc886d3c8b5e81U, 0xbcb36a46bb72514cU,
  0x3d04c9dfbcbaef48U, 0xbbea7c3cbbd540d0U, 0x3d50ae86bc099d10U, 0xbc829353bc7e6f44U,
  0x3b7ac8753cdf9e88U, 0xbc37a88a3c89a49aU, 0x3b16f3353bb6184eU, 0x3c24d2e9bcc9f459U,
  0x3c1942a43cf3c4d5U, 0x3ca29e5e3d4e9727U, 0x3ac5efaabcbd595dU, 0xbcae8462bc49e6ccU,
  0xbc289329bcd810e6U, 0xbb7915fcbc7dcf5fU, 0xbd16cd493bd31cbfU, 0xbca93ad33b14f1f4U,
  0xbb184e263c882dc3U, 0x3d6ac2de3cdc4436U, 0x3c938ee23c54e5e0U, 0x3c06ce2fbc98e243U,
  0xbccf0805bbdc022fU, 0xbb6f3bc6bc8f35b4U, 0xbd23db03bbced7fdU, 0xbc90c7e3bb91a6a2U,
  0xbca6ad593b86716fU, 0x39daf975bc35d11aU, 0xbcbd37aebc46451bU, 0xbd1f2c3a3cf23774U,
  0x3c6f8700bd070135U, 0x3c5ee351bcf58d11U, 0xbca0c294bbb3582bU, 0xbc712ef0bc9dc0d5U,
  0x3845c2dabd07d506U, 0xbc5cdc073b0e6d28U, 0xbcfac0923b3122d8U, 0xbd1273bfbc9fd566U,
  0x3c904badbc1f8b73U, 0xbc6385c53c0864ecU, 0xbce7b9e6bcf92ce4U, 0xbdb39b97bd38191fU,
  0x3be6dd513acf671fU, 0xbd25e1abbcdd11a8U, 0x3c307831bcbb7a96U, 0xbccba1c03b3c06ecU,
  0xbd705f69bd03ef69U, 0xbd1c233cbcd84331U, 0xbd3818ab3cfd53bdU, 0xbce236aebc8f9d8bU,
  0xbd0307f5bcac7631U, 0x3d494fa6bc45d49dU, 0xbaeac59dbd084eb0U, 0xbd55c835bd3ce814U,
  0xbcdcaeecbd8a83ddU, 0xbd3acd25bd46e137U, 0xbd0369f7bce8fa33U, 0xbcf17928bd4b1cb0U,
  0xbca0bf0fbc2a4245U, 0xbd8edbe9b94e35f5U, 0xbd74ed5e3b48fa41U, 0xbd39c202bd07bd05U,
  0xbbdddcd03c44102bU, 0xbc2dc62cbc2464c0U, 0x3cd8c0313c1e2846U, 0x3c35ea13bd256059U,
  0x3d8f358a3be2c80dU, 0x3cabe3503b90ddcaU, 0x3d137406bc87299bU, 0x3b113f93bc779f94U,
  0xbc2986a4bd402c92U, 0xbcc3e113bd83b563U, 0x3c4b03763cf153eaU, 0xbbab5fb0bc6950a4U,
  0x3b1f03d53d2245f9U, 0x3d1974a33b21bea1U, 0x3c95f5f23ca8fc87U, 0x3cb0c74ebceb8e07U,
  0x3c58b9333c355267U, 0xbcda2900bc40ebf6U, 0xbc6d48e53c55ec35U, 0xbca7884ebc0802abU,
  0x3c56c972bce600f2U, 0xbc996f893cd9a7dbU, 0x3ccbbec1bd42ef02U, 0xbbb094e8bc419488U,
  0xbc3a5e5abd0b9405U, 0x3c9e0b993cbb673bU, 0xbceb70073c69dfe1U, 0x3c8e6d85bbcb58b0U,
  0xbbfb26eb3b86b592U, 0x3ae042d53d485b68U, 0xbc77a1b13d061a15U, 0xbbcf94f93cb6a4f4U,
  0xbcd96dd7bc952945U, 0x3b8e92323d0fb880U, 0xbcf68f6a3c9d7dd6U, 0xbae2a30abd530b20U,
  0xbd6c2acfbc578f18U, 0xbcd80a89bbf1757eU, 0xbb86f7e0bd5bfbe8U, 0xbb9eef6b3c181a6fU,
  0x3c54c884bcc5fc0eU, 0x3d1a9c86bd0310c3U, 0xbcd77218bba8d055U, 0xbb829b9e3cfc5495U,
  0x3c716fb63cd27738U, 0xbca7690fbc7e9f97U, 0x3cc6e6173ce8a66aU, 0xba86ed54bc8087fbU,
  0x3a8b95da3c93b0a5U, 0xbd4e31763b93aae2U, 0x3c020272bcfcc5edU, 0x3ccf4eb83d164455U,
  0x3c9f5f4ebb9877c1U, 0xbd70d906bcaae9c9U, 0xbce6e41a3c9cddffU, 0x3c83e7aa3b72b203U,
  0x3d0534873c471d8cU, 0xba7f6bf3bd124324U, 0x3c1291003d2a84a9U, 0xbcd052213d002230U,
  0xbc06d77dbc99c9a6U, 0xbd72b807bc37cdb7U, 0x3a470e373cbeaf8cU, 0xbb4a9fa93b27f1f2U,
  0xbc4334d8bbfc922aU, 0x3ca3bce2bbe9b29eU, 0xbc4b53cc3c61f3c4U, 0xbcc483cfbc3dc92eU,
  0xbc768999bd4b048cU, 0xbd433f7bbcdb2d23U, 0x3d3822773c0f5e1eU, 0xbc988172bc0ed13cU,
  0xbc0d0d6a3bf316c3U, 0xbca40fc53b7c619bU, 0xbc51cd3c3cc86753U, 0x3ca3719fbce31083U,
  0xbd91931dbc9cc8faU, 0x3c5f5aba3d2e7145U, 0x3d2bccadbbdca3adU, 0x3b31182fbc87f796U,
  0x3ccbc6bc3c7f2e5aU, 0xbbb0bc60bce07f19U, 0xbce51d9ebc8aecf1U, 0xbc03eb293c9a0878U,
  0x388025423b91b864U, 0xbbf9e8dcbcbc4cbbU, 0x3d072c45baf63359U, 0xbc9c302abc2de900U,
  0xbba955c3bc6ddc9dU, 0xbca74b7dbca8adb6U, 0xbbaab4533d2c384aU, 0x3ccff3a0bc29b3faU,
  0xbd09251abd0ab934U, 0x3b0d7901390d5f37U, 0x3d24fe9abd0a0664U, 0x3d16325d3cd4bac3U,
  0x3c45c020bd2e2407U, 0x3be3a475bc0bcd1dU, 0xbc3b31d9bcd92b78U, 0x3ba88ec93b90b3b4U,
  0x3cc149763c673e21U, 0xbcd871ddbcc9a328U, 0xbc64142fbc800836U, 0x3cdcebffbc167abaU,
  0x399962bd3c67d3f4U, 0xbc91d1623c1dcd09U, 0x3b8ce7c7bd19fbafU, 0xbcbc0ee1bd47cd78U,
  0xbd691db0bcc8d695U, 0xbca0999d3d0a06edU, 0xbd2ed321bcc45ed4U, 0x3c3978243c0f3614U,
  0x3c7cf401bd007302U, 0x3d169a76bb767f2eU, 0xbced03d6bcf072e5U, 0xbd1f25853bee2c1dU,
  0xbba8af1cbc53b715U, 0x3ae80f2fbd3bd1b9U, 0xbc7fc3ef3c152a05U, 0xbccdaafabc36053fU,
  0x3d2b12373d1f43b4U, 0xbd235bb43cb894fcU, 0x3c180e3ebd0e9ac8U, 0xbabcacccbbbf13a9U,
  0xbc87637bbc581bb2U, 0x3c9856ba3b36c445U, 0xbc4048e7bc18d61dU, 0xbcc57301b8a438e1U,
  0xbc9a2208baf7110aU, 0x3b8e26973d551b0cU, 0xbc96df733d10127dU, 0xbab926a8bb1ecd74U,
  0xbd3bc8783acdbfc1U, 0x3c95e3c73cdb170fU, 0x3c2cab55bd0f3c76U, 0xbb0960903cade676U,
  0xbc35689fbcfae2a9U, 0x3d1de13fbc8d3be4U, 0xbc7400dcbc9e6978U, 0xbc1f567abcab1ab0U,
  0x39b9798d3cba9a77U, 0x3bc895553ce6f0c3U, 0x3c206f5a3c6373a0U, 0xbc99f077bc7fe710U,
  0xbc1bd3e9bcb5ef4aU, 0xbc7ef94c3ba48fc4U, 0xbc1aa8eb3d430a4bU, 0xbd33e336bc4dc596U,
  0xba7939433c01d6f4U, 0x3b03ebd63b9f7791U, 0xbc87caa93aa50ff1U, 0xbc7d938c3c3c3591U,
  0xbc0afb70bcbe6267U, 0x3ca1efd4bc305ac8U, 0xbc983509bcfa7474U, 0xbc28eb7bbd4ccb6fU,
  0xbcc5e0333d086cbbU, 0xbce239cfbb70c2c4U, 0xbca28e2e3c81fc20U, 0xbd0dbc94bd050ca3U,
  0xbd152da2bbbf6fdaU, 0xbcabe8b2bc379317U, 0xbbb67cfe3c19de13U, 0xbd52bd75bc3629d6U,
  0xbc7c1ba8bce01ab0U, 0xbcc0d14ebbef5ab2U, 0xbc22f5023a02db5aU, 0xbcba3769bc4ac0b2U,
  0xbc75d1b2bc943b93U, 0xbd1674bbbc1e0c08U, 0x39ccd0e5bd0054aaU, 0xbd1e93e6bb1f9349U,
  0xbcb7cd16bc5d8ceaU, 0x3ace8f86bc9f7fa6U, 0xbc6353a0bcb33dfaU, 0xbc1785f0bb21add6U,
  0xbbfb52463cd7bb17U, 0xbc5fb894bd1288b6U, 0x3d197c09bc0463ddU, 0xba824d94bcab9048U,
  0xbc53fc803b016442U, 0xbbdc8b3bbc6aa724U, 0xbaf904cebca4694dU, 0xbd2541b4bcc0336bU,
  0xbcb4a229bd386c33U, 0xbad8cfd8bd1da2d0U, 0x3bbea478bcb52c54U, 0xbc209c713c132dbaU,
  0xb981d8eb3c5836c6U, 0xbc7c9cdabd4c27eeU, 0x3c396276bd42f44aU, 0xbb0d406f3c39d672U,
  0x3c38d2f3bc2c77cdU, 0xbd4c4e2fbcaa6955U, 0xbd44e0143cabbf51U, 0x3ce7cd08bc88f9d9U,
  0xbce1fcdbbc961b40U, 0xbafab139bcc3bff9U, 0xbc45b575398f61e3U, 0x3c9cf131bc9db7c5U,
  0x3b87fb743bdcaa70U, 0x3c403e6bbd5a2466U, 0x3bc12f013c4e3f76U, 0xbc7103a6bbca2a28U,
  0xbd90eac7bc4825e9U, 0xbb1fda27bc981a3aU, 0xbc81993d3c876daaU, 0xbcb09e963c4f409aU,
  0xbca108f13c91feefU, 0xbcd1673a3bbd8b86U, 0x3c4c633cbd4e54ffU, 0xbb7a2176bcf38486U,
  0x3c4e448fbc56d2a0U, 0xbaa7efbbbc85a230U, 0x3cb867d53baca787U, 0x3cd7caab3c74ba00U,
  0xbcb407a93c4b6f27U, 0xbbed8315bc90d3cfU, 0xbccef5c0bd31f8c2U, 0xbd789df6bcb17b21U,
  0xbc32ea21bc215502U, 0xbc0a14ebbcbecbdeU, 0x3c2738453c97ce64U, 0xbcb1b9f7b9b76dcbU,
  0xbc00a035bd0b7589U, 0x3d1fdb8abd96bd10U, 0xbdc3a2ad3e0f8e4fU, 0xbd6ed950bd3f7ac7U,
  0x3c09eedebdbd04fcU, 0x3cf41cf1bcd3772aU, 0xbc8a1a39bd97628fU, 0x3d5d36ea3d354427U,
  0xbd865c2d3c5cf85cU, 0x3d992acf3ccdfe41U, 0xbd7c9d98bcecd882U, 0xbddd24c6bb8a95aaU,
  0xbc392196bcfc1aa4U, 0xbc1d6c783d7d0c4dU, 0xbc90309dbcaacea9U, 0xbc74364b3c1eea3aU,
  0x3d181d573d8bbcb5U, 0x3cdb16c2bd827129U, 0x3d098e573d259d3bU, 0x3c7a046f3d425beaU,
  0xbcdc7731bdce8386U, 0x3df3cf623d87e361U, 0x3dcf37303dc1c430U, 0xbd61d3aabd7f8529U,
  0x3c1f0ee33da6be93U, 0x3c97534d3d983772U, 0x3d7eef5b3cf59c32U, 0x3d96d4493df8f531U,
  0x3ce01211bd31fd50U, 0xbd67c81b3bb8cf87U, 0xbcba4d783d7b6727U, 0x3d81b5d6bd24555dU,
  0x3d75e97d3cd22d1eU, 0xbcaac72cbe00fa5bU, 0x3defe9c53c04da68U, 0x3cb1aad53cf53ef5U,
  0xbcf403bc3dc9a017U, 0xbc81d0fa3d11cc2dU, 0xbd0151f0bd79e74bU, 0xbc9d4ac83c96be80U,
  0xbda95705bd2c0f27U, 0xbd881da3bdaba5ecU, 0xbcd147bdbb0fc113U, 0x3d3c34663da217d5U,
  0x3cae4cdebd955ce3U, 0xbc58f83cbd255bacU, 0xbd3312babe2cf6ceU, 0xbd20e4d93d3b2537U,
  0x3df7d40a3d84b36aU, 0xbcef7a873e5aeb79U, 0x3d46239b3c3afc43U, 0x3db806c83d9f8ae0U,
  0xbdbfd0e1bd3d487cU, 0xbda37c993d828c30U, 0x3cd71ddbbca54105U, 0x3ca9f90c3d90af81U,
  0x3d0676cc3d2abfb7U, 0x3d0bb75cbb19353eU, 0x3cc5f3383d507c58U, 0xbba0581d3d13caf8U,
  0xbb6cecb43d913c61U, 0x3d6bc7a23d1067faU, 0x3d1f6a85bce7c9dfU, 0xbc966f663db2b478U,
  0x3aa9d0a2bdd18160U, 0xbd000641bd271110U, 0xbd0af0cf3da63fa4U, 0xbd93d8b2bd064aecU,
  0x3c4e9182bd960cbcU, 0xbdb93e423dd16151U, 0x3b1f5f083d6d6489U, 0xbde1e8e3bd85bbeeU,
  0x3a88f903bd52c354U, 0x3d3e1637bcf2ed27U, 0xbcbe22e7bced1a6eU, 0x3cffcfb83d8402a0U,
  0x3cb7aa7f3e2c5e3fU, 0xbc7384123c98b781U, 0xbdb44f0f391b9618U, 0xbd6334db3ca5f2aaU,
  0x3cdda5e2bd5f546fU, 0x3c837fc5bd9e23c6U, 0x3d6832c43d94be28U, 0xbd1373f0bc8ffa9dU,
  0x3d38a8e93c3c24c5U, 0x3d03100bbdd80594U, 0xbdfec436bb40752aU, 0x3cab2f6f3c726276U,
  0xbd7a11d93d41d532U, 0xbdda08473bf272dcU, 0x3d68cf0f3d119dacU, 0xbda04010bda0499dU,
  0xbd3fb6b4bd52ad4fU, 0xbdb72e3ebdd3d669U, 0x3cae2e103c48f0f6U, 0xbd20909fbdd770caU,
  0x3dd2b995bd094936U, 0xbd44d2b93da28beaU, 0x3bd2bd0bbd29b569U, 0xbcaa8ba3bd8ff32cU,
  0x3d2d8145bd9b4c2fU, 0xbd5bb2e9bd0d6c9dU, 0x3d6c3afd3d0d71b8U, 0x3bbf4ba23c520724U,
  0xbd7ce9ac3d1c6068U, 0x3c3405bcbce663d6U, 0x3d93db073da64f5eU, 0x3dd8e5513c75c5f8U,
  0x3d84e979bd04c54aU, 0x3cb4df213cdfe7b6U, 0x3de91889bbf1cbeaU, 0x3db95a6e3a404813U,
  0xbdbd954e3d2d18f8U, 0x3c99046abdad9087U, 0xbd3357043dcddcc0U, 0xbd7a24c2bc933482U,
  0x3d339ccbbd14a37aU, 0x3c8befc03c969040U, 0x3c672317bdca6cfeU, 0xbdda17ccbdda7588U,
  0x3b0fb1e5bd5e042dU, 0x3d0932f9bd93fa68U, 0xbd4e8b40bc782f56U, 0xbdb497f93a816fd2U,
  0xbdff63bc3d5b2888U, 0xbdb3b46b3e069afaU, 0xbd360abcbd8c3865U, 0xbd22b2383d2305a7U,
  0xbd9c514bbdc410f1U, 0xbdafce5b3d275953U, 0xbe4d1b9b3cadbd02U, 0x3d5893ccbdbb84aaU,
  0xbd94ea463b6f571aU, 0x3dc79a783b885412U, 0x3d722e8b3b55fb88U, 0xbd908df7bda3c015U,
  0x3db282c93c1701eeU, 0x3aec1206bb7c18d5U, 0xbdc9db34bd93584eU, 0x3bc8fce9baebeb01U,
  0xbd9f1ffc3d97cca1U, 0x3d31b9cfbc1fcf1eU, 0x3cde29353dc2c368U, 0xbcf6f662bdaf8f27U,
  0xbb9ca702bdbf62e8U, 0x3e0a87ee3d937e2dU, 0x3c97337d3b6819d5U, 0xbd0ed11abc0ddbf1U,
  0x3db8a376bc386979U, 0x3d5b66e4bba4570fU, 0x3c8a31d93c9ddd0bU, 0xbd80ab4abd30baebU,
  0x3d55c5393d90acbaU, 0x3d060abc3d26926bU, 0x3d114aca3d1d9988U, 0x3c32ba123d1acd9fU,
  0x3cedcf853ddcaa44U, 0x3cdced0dba90973cU, 0x3c952a853ddfde61U, 0x3d53e7cc3d4548e1U,
  0xbd7198323d98a5daU, 0x3bc3e675bd527681U, 0xbbbd896e3c89a176U, 0x3c17b863bcad9b1cU,
  0x3d6c20ff3d6e5819U, 0xbaeebf76bdaa813eU, 0x3dcd0f123c49a85fU, 0xbc5f3d71bd3c5ae8U,
  0xbd57e7ff3d400dc0U, 0xbd8569a0bc06cd10U, 0x3c9b0a063c8b7756U, 0xbbbd28203c9a48cbU,
  0x3d08ddf2bc4ff582U, 0x3da4a80bbda13a5fU, 0xbcd0ac33be362009U, 0x3d16b345bc97fe35U,
  0x3cf933003d6facdaU, 0xbb4d068e3d351c8dU, 0x3daa1215bdc714d4U, 0x3d2a433cbd5e4825U,
  0xbcf68a083cf7998eU, 0x3d15ac95bd28b28fU, 0x3cab629ebce23e6cU, 0x3dad77333d8beab1U,
  0xbb9a26fdbb9e9e2eU, 0x3da214a33d63fcefU, 0x3da014a63d7d2155U, 0xbd2dfdaebc578a17U,
  0xbd981feebceca765U, 0x3a8f8cddb940ef78U, 0x3d302e413d062e37U, 0x3bada7dabd1865d3U,
  0xbbf5328a3ccf1f14U, 0xbd93a7a53dbdb4c0U, 0x3ce2267d3d49c4a4U, 0xbc50b489bbf64db3U,
  0xbd8744cdbcbe2f61U, 0x3c6080ecbd21f53aU, 0x3cf0eefb3c6be229U, 0xbc47cf2ebd8b89f6U,
  0xbd448862bdd8b2fdU, 0x3d358c39ba86af6fU, 0xbc446877bd4da9f2U, 0xbc3145a9babeb41cU,
  0xbc23ada33d68008aU, 0x3cabee3d3da275c2U, 0xbd0e87d63e212785U, 0xbdb4f9e83d2bb9c0U,
  0xbc801451bdb3f3e4U, 0xbc365b213cd38b73U, 0xbc6b9a13bd76a027U, 0x3da4096fbcda9e4aU,
  0xbd6a29e73c56631bU, 0xbd7c4715be09a059U, 0xbd430db6bd7eeb2cU, 0x3dc001b9bc6b1c60U,
  0x3ddb7ddd3cb06550U, 0xbd8ad5a9bcb8b3b7U, 0xbd3102e5bd8ff5e3U, 0xbd6596e7bda14bf1U,
  0x3d3a82d2bcb6cce4U, 0xbd1a4a933cf073dbU, 0xbbe1a393bcf4c8eaU, 0xbd20eb693d8dd877U,
  0x3d6c8189bd5e38f2U, 0x3cba5a4c3b399de2U, 0x3d86e6cbbd88fd78U, 0xbd60bb673d84776bU,
  0xbe08f596bd44d1b7U, 0xbe04cfd9bdd39636U, 0xbe0e2741bd6a6975U, 0x3d12d56fbd8ed52aU,
  0xbd48bc27bc9181f6U, 0xbd19a6443d66d863U, 0x3df00935bcab2973U, 0xbad2ccc23d98b83bU,
  0xbb3cb8b6bd488210U, 0xbd21d5c9be5e5dd3U, 0x3cad28033d6d8d2eU, 0x3d179338bcd2cb1cU,
  0x3c34a0e33c79c6efU, 0xbc486b733d44f750U, 0x3d1443943cd64fd9U, 0x3c5657d13d498233U,
  0x3dc591593db7dd4bU, 0x3d39c19d3da09592U, 0x3d1213abbd028c93U, 0x3c52ea1b3d7f0185U,
  0x3cdb874fbc8743f7U, 0x3d2211b4bcf14f1fU, 0xbd1a47803d6fde3cU, 0x3ce9cd6d3d785ddaU,
  0xbceb4f873d9cb76fU, 0x3d115bdebcdb77bfU, 0x3cc4df923e2c47f9U, 0x3c2ff3cf3db43c7aU,
  0x3cd7e244bda91447U, 0x3c8fee8f3ddb1ebbU, 0x3b8d283dbc8ef6e5U, 0x3bd04a353e1d6005U,
  0x3e108d6f3d46fe6fU, 0x3bea2f72bd01b5fdU, 0x3dcf0cc5ba1a6b63U, 0xbc649c6cbd5746a2U,
  0x3d3c20523bcff95eU, 0x3ccf92aa3ddc251fU, 0x3d891ef03c5b7f2dU, 0xbd0c06e4bc033f43U,
  0x3d9b2fa23ce16676U, 0xbd6e24f23de3b3e3U, 0x3c0fbcdebba14b49U, 0xbcb8dfd83d34cf9cU,
  0x3da3dfb9bddb8d09U, 0xbbc1427a3db037b8U, 0x3d29adccbdf24116U, 0xbcd4e973be28a7ccU,
  0xbbcb6d9bbdcdb8afU, 0xbdc2fd853e0247fcU, 0x3d15b96c3dc7b4fdU, 0xba5c9bde3d701ca1U,
  0xbdd051993dc15db3U, 0x3d1b4c3bbbb168bcU, 0x3cefc45bbdb567e6U, 0xbd0119213ce596f5U,
  0xbdc1ba66bd6955a8U, 0x3dca63583d412323U, 0xbd304d3dbdb5599bU, 0x3dfb150abd32242aU,
  0x3b938984bab2c6c5U, 0xbca93493bd1e9ec7U, 0x3c9cbb5cbc3b7bd1U, 0x3c49b41e3a962338U,
  0x3cd53ae4bb99f78bU, 0xbcd072cd3c98d279U, 0xbca771183c2d344eU, 0x3bb49cf7bb049786U,
  0x3c275aa03d0d4877U, 0xbc82c7593c38b899U, 0x3cf9d041bc75dd5cU, 0xbc4c52913d0d0c45U,
  0x3c28f57b3c7877f5U, 0x3c45e46bbcdf6499U, 0xbbf74659bb1fafd2U, 0xbc4cbfc83b89adc6U,
  0x3b6641653cc61d11U, 0x3c3ca74bbd211000U, 0x3c6eeeeaba5be100U, 0x3bde3a4fbcdf49ddU,
  0xbc56357d3c986655U, 0xbb49f9c0bd0d004cU, 0xbc9a94ac3c83c7c0U, 0x3cf3d5a13a40ba47U,
  0xbc17ce203d43ca2dU, 0xbd5d38fd3b1dd370U, 0x3cb478aa3c31cef9U, 0xbcb6d6b2b771e719U,
  0x3cd3bfb03c0368a6U, 0xbd2e2fedbd46a51aU, 0xbb7859acbcf98f8aU, 0x3d503e24bc8d86a9U,
  0x3cc6e2f43c84424cU, 0x3c394ae23aef1c85U, 0x3c91190abcc946baU, 0xbb9369b93c6138abU,
  0xbc11101e3d5d8cf6U, 0xbb6ea6213afc3428U, 0x3ba25a96bc3e9118U, 0x3d01ce693b63e0b2U,
  0xbc67a4b8bc6cd83fU, 0xbcf7fd213cb1527aU, 0xb9a2cfeabcff5c54U, 0x3cde4927bccfb46dU,
  0xbc1fc744bcde35f4U, 0xbc6b14ea3c61618eU, 0x3c120e72bd5ab525U, 0xbb256a72bc34035fU,
  0x3d0736c6bcef1701U, 0xbc62b2743c3d231bU, 0x3b50674dba38d7e6U, 0xbb2dddef3c1d92ceU,
  0xbcd60c9ebb0fca2dU, 0xbd1ab54abc317d8eU, 0x3c4dbb8abc92fe54U, 0x3cd72cafbd4513e2U,
  0x3c0d165f3c18d035U, 0xbd4a0393bced323eU, 0x399e5ce53b05c122U, 0xbb8da86dbcb28b56U,
  0xbce290ac3c4e45d5U, 0xbd6942843cadc9ddU, 0xbd2fcf59bd016054U, 0x3c98ac96bd0962c5U,
  0xbc0b4432bc877a5aU, 0x3d06bc633d091bafU, 0x3b8d6fd7bd2b3f90U, 0x3c1eb70d3cd06298U,
  0xbbf49fbdbcf1182dU, 0x3c3130d1bd2d31c0U, 0x3c5ae6973c1e27b6U, 0xbb9372eabc743d87U,
  0x3c875ac13c6ae8c9U, 0xbd12d5d73c4a8fb0U, 0x3c99affaba99fb55U, 0xbc2e214e3c9e5ff2U,
  0xbd2184b0bcac5f11U, 0x3ae4452e3c665b67U, 0xbd0fffc23c9b12e7U, 0x3c0da139bd46578eU,
  0xbca9c55bbba74bd8U, 0xbbdd77793c44df27U, 0xbd4f5afdbcc9c9cdU, 0xbc4144eb3c8a4966U,
  0x3c8495dc3b06ec35U, 0xbc94d504bcee7c5eU, 0xbc177d55bce0ac8fU, 0xbb433ecebd4cc860U,
  0x3b8fcd6abca98ad8U, 0xbd598c053cf53695U, 0x3c49d9cfbb5dbceaU, 0x3aeb3c3bbbdb9569U,
  0xbd8a03ddbd7295e2U, 0x3c8f59303c3d9662U, 0xbd184f29bb57ff50U, 0xbcd6938ebbf0e3e4U,
  0xbc649e3cbcd3d50cU, 0x3c6412a23ccd2659U, 0xbcbf9bb8bcf50a0dU, 0xbc7480c5bd165bd9U,
  0x393c2631bcaf997cU, 0x3c5eacf0bc81d773U, 0x3d3bd5403cd73870U, 0xbcfd1b60bd4c3e17U,
  0xbc4045093c024b6fU, 0xbc344b0dbc9f8a97U, 0x3c1299c03b2858f7U, 0xb7c5aff83bb98a5aU,
  0xbc04397bbb97e16eU, 0x3d0d4918bbdeb9fdU, 0x3b5e7dc93c12a517U, 0x3be6415ebce878ddU,
  0xbc426f013bdf468dU, 0xbc1347e2bc00b0abU, 0xbc88ae20bcad4c27U, 0x3b78f463bb65ef36U,
  0xbbbc1b0bbd07bf0dU, 0x3c8638f5bcdeda01U, 0x3c6f7d12bd142656U, 0xbc1f5ba3bcd88a02U,
  0xb9d170f3bd2cb1b6U, 0xb855305bbd55de97U, 0xbca18c61bc269c97U, 0xbd0ef9cebccc2619U,
  0xbd2921c73c7ba9c0U, 0x3c88a9d5bd2b3515U, 0xbd17ba5dbadb9ce5U, 0xbc978f80bd1df70aU,
  0xbd34fdafbd6706c7U, 0xbd49d377bc5f830cU, 0xbd618f6cbcb85179U, 0xbb9be4ebbd2776b6U,
  0xbc9824efbd21da88U, 0xbd1699e9bd8ec7aeU, 0xbd1463b6bc886988U, 0xbd4553d3bd23bcffU,
  0xbbb5c539bc7b6c94U, 0x3bb29e11bcd29491U, 0xbd187bcfbd4d23d6U, 0xbc9bed5fbc99e302U,
  0xbda9abfdbccf533cU, 0xbc10886abb867cc0U, 0xbc514ca8bd4583caU, 0xbcc7e697ba1cf866U,
  0x3c0af4dcbcaed131U, 0xbd13bf353c136808U, 0x3c74c295bd9f6978U, 0x3c9880323ceacd0fU,
  0x3e024a4f3d1b5065U, 0xbd2e94213ce5c9bfU, 0xbc412aea3dc412f4U, 0x3d8941663dad840bU,
  0x3d0817b8bdc7c654U, 0x3df674ad3d5e21acU, 0xbc81577fbde34db9U, 0xbdfb5345be0e1d94U,
  0xbbfae9c3bd303954U, 0x3e269518bdde1801U, 0xbc9178b4be03ee53U, 0xbcbbb0eabd97c6a7U,
  0x3d92fa9abdd867bbU, 0x3c79646839c32ecfU, 0x3cfe3e133cbacdb7U, 0xbd282f82bd7b4c82U,
  0xbe02b7c1be0658b5U, 0x3ccc34c1bd52b1d9U, 0xbd4c6197bb32ea27U, 0xbdc34a5b3d210cccU,
  0x3c56a5f53e152106U, 0x3ccbcd0e3e4b29b5U, 0x3d9ce1443d96074cU, 0x3d58bd8b3e0b430bU,
  0x3c805436bcbd9c50U, 0x3d91e5fc3cb3c24fU, 0xbc9264973c2fe46eU, 0x3de5542b3d56da41U,
  0xbd7db5b63befe03cU, 0xbcb1330f3cf3a82eU, 0xbda4f5b13db8be3aU, 0xbdcb24a83c511b01U,
  0x3d4d3f1fbcc661bdU, 0xbd7382013da3ba0eU, 0xbddd0f3d3c651f42U, 0x3d7b1509be09cebdU,
  0xbbfbc22d3cb57768U, 0xbd02d0503d059962U, 0x3d5c3635bd345619U, 0x3db8bbe73d6a773dU,
  0x3d8afb8b3dc36f8bU, 0x3e148d743d9c8e72U, 0xbc92d25b3c14a541U, 0xbc1d1981bd7d37a6U,
  0xbcc8b9293dcef2b8U, 0x3d6d6bb13d8059abU, 0x3d6a6864bd3f6e63U, 0xbc245fc4bd0b3489U,
  0x3d2078cbbd637629U, 0x3dcf8b13be87c03dU, 0xbdb4e9973cf50979U, 0x3d3b45f2bd2e54daU,
  0x3cea8b433d0600e1U, 0xbdc8b590bd540e08U, 0x3d9cf2abbdc7b984U, 0xbd8ba770bdbff38fU,
  0xbd35bfe9bd1fd8d7U, 0xbd12bab93ba5a15aU, 0xbcfa84d4be015923U, 0xbddc8e27bb4b5723U,
  0x3da42ddebd9b14fcU, 0xbc8c5a20bbe3c32aU, 0x3d665633bd7a631dU, 0xbcbf48263cedc6faU,
  0xbd86f374bd92abc5U, 0xbe3c24f7bd5ad66bU, 0xbda75f843ddb9f16U, 0x3dab6ef9be050907U,
  0xbd848aa0bdb816c7U, 0xbd904a18bdc6ec3fU, 0x3dab4b7b3caef2e5U, 0x3cb9e95ebbcd6a41U,
  0x3d1bc168bc6e3fd4U, 0x3cf39b6b3dbead65U, 0x3cde15b93ca2bc2cU, 0x3d83f420be24ba40U,
  0xbdb29a923aaabbdfU, 0xbd9b276fbd5426fdU, 0xbd0f6f5ebdd8c2e9U, 0xbb3a62fdbd8b2b00U,
  0xb9ea7bfe3bf9f107U, 0xbdd9a811bdcfb08fU, 0xbd086d8ebe2bfa37U, 0x3d576e6dbe12dd7dU,
  0x3cb1f5223d2fd89eU, 0xbdc9d8b9bdb70876U, 0xbe2266c1bd3a4926U, 0xbc8a29f2be16c269U,
  0xbdd0d64cbd9aa6abU, 0xbe6df23d3c517835U, 0x3cc7e443bdaf9576U, 0xbd150e78bc9e6c73U,
  0x3dda7103bd7a6e2aU, 0xbd2be8acbd091b1eU, 0x3d9a8ad83baa240fU, 0x3d41c4ef3d60c728U,
  0x3d2cecddbda7ce19U, 0xbd1e4f143c84df3aU, 0xbe0197fb3dd37b08U, 0x3d33af71bd297b82U,
  0xbdc10e5c3daeb593U, 0xbc74d77e3dd2b6feU, 0x3d401fd8bd6ff81bU, 0xbd7052143c13860aU,
  0xbd1aa5fbbd8045b1U, 0x3bf0befb3d405f70U, 0x3d517f76be49db5bU, 0x3c663e9bbdeb3d9aU,
  0xbcd4b355bd23f9e4U, 0xbd95a288bd15bba2U, 0x3d2f331fbdb6b107U, 0xbdcdfe17bcb43e12U,
