/**
  ******************************************************************************
  * @file    person_detection_data_params.c
  * @author  AST Embedded Analytics Research Platform
  * @date    2026-03-03T19:46:50+0800
  * @brief   AI Tool Automatic Code Generator for Embedded NN computing
  ******************************************************************************
  * Copyright (c) 2026 STMicroelectronics.
  * All rights reserved.
  *
  * This software is licensed under terms that can be found in the LICENSE file
  * in the root directory of this software component.
  * If no LICENSE file comes with this software, it is provided AS-IS.
  ******************************************************************************
  */

#include "person_detection_data_params.h"


/**  Activations Section  ****************************************************/
ai_handle g_person_detection_activations_table[1 + 2] = {
  AI_HANDLE_PTR(AI_MAGIC_MARKER),
  AI_HANDLE_PTR(NULL),
  AI_HANDLE_PTR(AI_MAGIC_MARKER),
};




/**  Weights Section  ********************************************************/
AI_ALIGNED(32)
const ai_u64 s_person_detection_weights_array_u64[7825] = {
  0x3e2b99d73e29f370U, 0x3dd9cd1b3e1b19d1U, 0x3e0a99cb3df78059U, 0x3dab99d73e2359d4U,
  0x3c9133673dcc99e3U, 0xbe25003b3d0a99cbU, 0x3e2359d43e3dc044U, 0x3e21b36dbced99efU,
  0x3da84d093d6d99efU, 0x3e1480353e518d18U, 0x3e0f8d003e3f66abU, 0x3d1e669f3dab99d7U,
  0x3da84d093d323373U, 0x3c9133673e4c99e3U, 0xbe3c19dd3ced99efU, 0xbda1b36d3cd3337fU,
  0xbd2b99d73dbc19ddU, 0xbe518d18be1cc038U, 0xbe2d403ebd874cfdU, 0x3df0e6bd3d25003bU,
  0xbdfb477f3d4905ffU, 0xbdbaaa243d813ab6U, 0xbe2354dfbe400c96U, 0x3d5761db3d0868a4U,
  0x3d41d8123dde8fc8U, 0xbd4905ffbd41d812U, 0x3e2354df3e28b752U, 0x3e63f23bbdafe53fU,
  0x3d84d1adbe31b0bbU, 0x3e53cae43da18964U, 0xbd1df26d3d3aaa24U, 0x3e53cae43d25205bU,
  0x3e28b7523de954adU, 0x3e3c759f3df0829bU, 0xbe26ebd6be3aaa24U, 0x3e16c47f3dd033edU,
  0xbdbaaa243d65bdb6U, 0xbae5bdb63ddaf8d1U, 0xbd2c4e483d96c47fU, 0xbdc1d8123d9df26dU,
  0x3d42862ebd506b32U, 0x3d1fc9a6bda342e7U, 0x3d6c35383e155de4U, 0x3cfa1a3cbda6bc28U,
  0xbdb4a12b3e381a6cU, 0xbdbf0cee3d98d724U, 0x3dbb93adbdadaea9U, 0x3bde50353d575db3U,
  0xbddad6f4bdec3538U, 0x3dc978b03d18d724U, 0xbe18d7243e26bc28U, 0x3e11e4a33dbf0ceeU,
  0x3e5c9395be1a93c5U, 0x3d9fc9a63e26bc28U, 0x3dccf1f13dadaea9U, 0x3e47bc10bba6bc28U,
  0x3d7a1a3cbc8af221U, 0x3c26bc283d42862eU, 0x3dfa1a3c3dbf0ceeU, 0x3e575db3bd1fc9a6U,
  0xbcd045fabc21fd8aU, 0x3d78c55d3d851043U, 0xbda1fd8a3e2d8fa6U, 0xbdd8f38fbdb358b4U,
  0xbcfe8e6b3e37af7eU, 0x3c966b6e3e236fcdU, 0x3dfe8e6b3df5e0d6U, 0xbdcd6173bdf8c55dU,
  0xbc5045fabe208b46U, 0xbc3921c2be31e670U, 0xbdf017c83e10a260U, 0xbc0ad9523cad8fa6U,
  0xbd8dbdd9bd3921c2U, 0x3e27c6983d3921c2U, 0xbd3358b4bdea4ebaU, 0xbcf2fc4fbdc79865U,
  0xbe208b46bdd32a81U, 0xbce76a32be265454U, 0x3e10a2603dbc0649U, 0xbe194ff5bdb0742dU,
  0x3e34fcaf3dbe3096U, 0xbd7b8a94bdaeda16U, 0x3e34fcaf3de922c8U, 0x3e0b93233d9960fdU,
  0x3cc4532fbdd9cc48U, 0x3e34fcafbdb1eb63U, 0xbce922c8be17d856U, 0x3c7567fbbe337409U,
  0xbe0a0a7d3e42ca89U, 0xbde6117bbb933e63U, 0xbe0b9323bd5cdd95U, 0xbe11b5bdbd31eb63U,
  0xbcf567fb3d3e3096U, 0x3ac4532fbd63002eU, 0x3df256aebdc7647cU, 0xbe0d1bca3e05708aU,
  0xbe025f3dbdf87947U, 0x3d63002e3e1ae9a3U, 0xbdc141e23c86f930U, 0x3c2bc8c93dbe3096U,
  0x3e13abf33d01a9b6U, 0xbe3416613e20471eU, 0xbe1578f93dbee485U, 0xbdace2483db41661U,
  0xbd581ada3dea1d17U, 0xbcd81ada3e4d4cb6U, 0xbe01a9b63e1cad11U, 0xbe20471ebe13abf3U,
  0xbe2eaf4ebd66830bU, 0xbdb7b06d3da21424U, 0xbd7c1f54bdb7b06dU, 0xbe20471ebe2b1542U,
  0x3de6830bbe64b605U, 0xbbe6830b3e1ae00bU, 0xbdbee485be4b7fb0U, 0xbc1011e7bd9011e7U,
  0x3cace2483ae6830bU, 0x3db7b06d3e2ce248U, 0x3e40b18bbdf15130U, 0x3d5f4ef33db7b06dU,
  0xbe130b30bd8c8228U, 0xbe0c82283db073d3U, 0x3ad120fabd964fb4U, 0xbe093da43e47536eU,
  0xbdf1ce213d5120faU, 0xbdba415f3d8c8228U, 0x3d1cd8bc3d999438U, 0xbd8fc6ac3dc7536eU,
  0x3dad2f4f3de4bc11U, 0x3e1168eebdd4657eU, 0x3d02b49cbd3d85e3U, 0xbbd120fa3de80095U,
  0xbcb6fcdbbe4f7eb8U, 0x3d85f920be201d3fU, 0xbd3073d3bdfb9badU, 0x3d8fc6acbd785729U,
  0xbd1cd8bcbd930b30U, 0x3e0adfe63ca9eacbU, 0x3df857293e26a647U, 0x3da361c3bdeb4519U,
  0x3ca3d122be2aa483U, 0x3df92363be147587U, 0xbc3f1ea7bd81b03bU, 0xbe08839c3cb177e5U,
  0xbdfff6c5bdf92363U, 0x3e3177e53d75b9b3U, 0xbdeb7ca13d3177e5U, 0x3d5398cc3c3f1ea7U,
  0x3e0519eb3de812f0U, 0xbd999410bada6c2dU, 0xbe0a3874be0da225U, 0x3c5a6c2d3de812f0U,
  0x3d9cfdc0be0519ebU, 0xbe4e7a43be58b755U, 0x3db4e1953cccc56aU, 0xbd8bed4d3e08839cU,
  0xbdda6c2dbe199410U, 0x3cda6c2dbada6c2dU, 0xbdaaa483be51e3f3U, 0xbdd02f1bbd5398ccU,
  0x3d2efe64be3f663dU, 0xbdcc28cabe08b6beU, 0x3e08b6bebe08b6beU, 0xbd8a8964be0e2eb1U,
  0xbdf09dcabd3648feU, 0x3db9ee4a3d27b3caU, 0x3dd37364bd5abdfdU, 0xbdd718b0bd206931U,
  0x3dc8837d3c11d3feU, 0x3e13a6a4bd695330U, 0x3e051171be2b5917U, 0x3e2efe64bd95794bU,
  0x3d206931bd709dcaU, 0xbe06e418bda7b3caU, 0xbe4a56243e191e98U, 0xbe67808abdc138e4U,
  0xbda7b3ca3d3648feU, 0xbe033ecb3e4fce17U, 0x3ddabdfdbd91d3feU, 0xbe51a0bdbcbd9397U,
  0xbde80e7d3d94c115U, 0xbe08da983e1ab453U, 0x3e075dc93cbe67c9U, 0xbd3e67c9be14c115U,
  0xbd82e75a3e04642aU, 0x3e0d5107be251e00U, 0x3d85e0f9be3ceaf9U, 0x3e11c7763d504184U,
  0x3db2814cbd8bd438U, 0xbd91c7763cca4e46U, 0x3db8748bbd08da98U, 0x3dc16168be14c115U,
  0x3c269ad03dbe67c9U, 0x3d1ab453bd91c776U, 0x3e33fe1c3dca4e46U, 0xbe05e0f9bd97bab4U,
  0xbde80e7dbe1f2ac2U, 0x3de514de3b3e67c9U, 0xbd32814c3bee01bbU, 0x3e1344453dee01bbU,
  0xbdd5e9e23c55e9e2U, 0xbd2fb6f93d85b22dU, 0x3e3efe8a3d7c1ccaU, 0xbd1127d93d85b22dU,
  0x3ddd8daa3dbefe8aU, 0x3dfc1cca3c55e9e2U, 0xbe1127d9bcb75ac2U, 0xbdbb2ca6be0b6d03U,
  0xbe4e461abd653172U, 0x3e46a2523dffeeaeU, 0xbdc6a2523d2fb6f9U, 0xbd81e0493e0f3ee7U,
  0xbdca74363dffeeaeU, 0x3e0984113e634880U, 0x3d98cba13e3571cfU, 0xbc55e9e23e1127d9U,
  0xbd1127d93c898411U, 0x3c8984113d9127d9U, 0xbe22585bbe375ac2U, 0x3e729010bc18cba1U,
  0xbe2a40923d6bfe41U, 0x3e12a7253e26e182U, 0x3e56145c3de1e113U, 0x3dca47a63dd7c3e4U,
  0xbe45390e3e1b14ccU, 0xbd97b5bcbe01cbd7U, 0xbd90f79d3de89f32U, 0xbe052ae7bd1b14ccU,
  0xbe2023633e160635U, 0x3d9e73dbbe396c58U, 0x3e360d48bda8910aU, 0x3e360d48bdde8203U,
  0xbd9b14cc3e1456adU, 0x3daf4f29U, 0x3d360d483e1e73dbU, 0xbc3ccb68be3ccb68U,
  0x3d9b14cc3dde8203U, 0xbda1d2eb3ba1d2ebU, 0xbe052ae7be4bf72eU, 0xbb57c3e43ad7c3e4U,
  0xbe4533d43db7d532U, 0xbd55ea1e3daa7690U, 0xbe14bcc9bd96689dU, 0xbdb47d89bc55ea1eU,
  0xbde348c03cbb2cdaU, 0x3e0e0d78bda3c73fU, 0xbdbb2cdabc9310f5U, 0x3e0fb94cbd7e0604U,
  0x3d7e0604bd8c61a4U, 0xbe543e4a3de6a068U, 0xbe257313bd55ea1eU, 0x3d5c996f3e2c2264U,
  0xbe347d89bcd5ea1eU, 0xbe19c046be0c61a4U, 0xbdc88b7cbd19c046U, 0x3dfe06043e0fb94cU,
  0x3d8c61a43e28cabcU, 0xbbd5ea1e3d4f3acdU, 0xbda3c73fbc70a762U, 0x3e1d17ee3dcf3acdU,
  0xbde8e9b9be2450b9U, 0x3d25e91ebdcc329bU, 0x3df5ace23e112bfaU, 0x3def4b4ebd0c62cbU,
  0x3de5b8eebd060136U, 0x3d32ac483d860136U, 0x3da2b8543e45d106U, 0xbdef4b4ebd12c45fU,
  0x3dcc329b3d3f6f71U, 0x3d2c4ab33e178d8fU, 0x3e0aca653d7f3f42U, 0x3de8e9b93e12c45fU,
  0xbe4a9a363dff3f42U, 0x3c32ac48bda919e8U, 0x3e07999b3d2c4ab3U, 0x3e12c45f3d45d106U,
  0x3cbf6f713dbf6f71U, 0x3e211fee3e1f8789U, 0xbc4c329b3def4b4eU, 0xbe25e91e3d82d06bU,
  0x3de8b541bdd33a2fU, 0xbdabd88ebe12c8faU, 0xbde8b5413babd88eU, 0x3e2da2d03d5df7b8U,
  0x3c6520be3e63567dU, 0xbe516fee3d80e26bU, 0x3df7074d3de8b541U, 0x3e34cbd63e4a46e8U,
  0xbe4c11293da8440cU, 0x3dd33a2fbdcc1129U, 0xbd80e26b3de18c3bU, 0x3e1f50c4bd6520beU,
  0x3da4af89bd7a9bd0U, 0xbcabd88ebc80e26bU, 0xbda4af893d8f3477U, 0x3c6520bebbe520beU,
  0xbdd33a2f3d965d7dU, 0xbe56ceb2bdda6335U, 0xbe5a63353dbdbf1dU, 0x3ce520bebe211b06U,
  0x3d9d253f3d8edc0aU, 0xbe0425233e07b770U, 0x3e2d379abd39b7a7U, 0xbe3b80cebdc0dc41U,
  0xbd4f2576bde49344U, 0x3d2b6e73bdfa0112U, 0x3de100f7bd9992f2U, 0x3de100f7bdd64a10U,
  0x3e1992f23d9600a5U, 0x3debb7de3d926e58U, 0xbe42a568bdcb9329U, 0x3d39b7a73cb9b7a7U,
  0xbe32930d3e126e58U, 0x3e0b49bd3d5d6eaaU, 0xbda0b78c3dcf2576U, 0x3c9d253fbe62ca1dU,
  0xbd926e583c4800dcU, 0xbe1d253fbe0d12e4U, 0xbe29a54c3e30c9e7U, 0xbdcb93293cc800dcU,
  0x3e38eff13c2e0f01U, 0xbcec38ef3dfbc36aU, 0x3d5fca25be0d6c31U, 0xbe2c81273e2c8127U,
  0x3e455eba3e2af34eU, 0x3e232e11be43d0e1U, 0xbe05a6f33d40b52eU, 0x3e2649c33e0d6c31U,
  0x3e05a6f3bd78a7b8U, 0xbd2e0f01bdd6770eU, 0xbde91d3c3e1e8485U, 0x3d15316ebdb12ab3U,
  0x3e2965753e13a395U, 0x3e35d43ebe21a037U, 0x3dd03faa00000000U, 0xbe05a6f3bcba7dcaU,
  0xbd8bde57be40b52eU, 0xbe184d21be13a395U, 0xbe0d6c313bf8a7b8U, 0xbdf58c053dfbc36aU,
  0x3e392f83be0241f6U, 0x3e429a10bd83d3b8U, 0x3e0888ffbe1e819eU, 0x3d360bffbd86f73dU,
  0x3d99cc573c16a8d3U, 0x3d297ded3e474f57U, 0xbe265a69bc8a1ac1U, 0x3e0a1ac1bdcf2822U,
  0x3e27ec2b3df1aed2U, 0xbdd56f2b3d297dedU, 0x3cee8b4ebca336e4U, 0x3d429a103d3c5307U,
  0x3ce1fd3cbda65a69U, 0x3e11f38cbdb92f83U, 0xbd99cc573d297dedU, 0xbd6e8b4e3e0241f6U,
  0xbe06f73dbd3c5307U, 0x3e3156b83e379dc1U, 0x3dbf768cbd8a1ac1U, 0xbe0bac833d48e119U,
  0x3e042187bdc088a0U, 0xbd9e8ea23d9701bfU, 0xbe4fa267bddaf5bcU, 0xbd261b85be38fbbdU,
  0xbda25514bdb8fbbdU, 0xbdea0f823dc44f12U, 0x3e1158153e133b4eU, 0xbe09cb323c1701bfU,
  0xbe09cb32bc35354cU, 0xbca61b85bd805b16U, 0xbde64910bd1701bfU, 0xbc87e7f93bb5354cU,
  0xbe6fb92cbcb5354cU, 0x3e1ac8313e0f74dcU, 0xbe0d91a33dd368d8U, 0x3e133b4ebe49f8bcU,
  0xbe2f8ba13af19c65U, 0x3dcbdbf5be18e4f8U, 0x3e27febebd719c65U, 0xbd9e8ea2bdd72f4aU,
  0xbe1ad4623b9fd2faU, 0xbd992a2f3ddbc217U, 0xbda3275f3d81db6bU, 0x3cd5194dbe1c7e95U,
  0xbdcb1c1d3d766541U, 0xbd8bd89bbdf9b9a6U, 0xbe42c920bdf66541U, 0x3d3a76233de5bf47U,
  0xbe142b98bb9fd2faU, 0xbcba7623bd55194dU, 0xbc928165be3dca89U, 0x3d6fbc77bddbc217U,
  0xbd1fd2fa3ddf167dU, 0xbdefbc773e088435U, 0xbd928165bd95d5caU, 0xbde5bf473c052fd0U,
  0xbe4cc6503df66541U, 0x3df665413e536f1aU, 0xbcad248fbe01db6bU, 0xbe35778cbdb3cd59U,
  0x3d752349be1d23bfU, 0x3dafff143e29b5f7U, 0x3dd8da4abe236cdbU, 0xbdd5b5bc3cfb6c65U,
  0x3e1d23bfbe47913dU, 0x3cbc914cbc16daa3U, 0x3e026d083e13b615U, 0x3e31915b3e269169U,
  0x3e0723dd3d6247f4U, 0x3de56c83be0723ddU, 0x3d42da68bdc5fef6U, 0xbe059196bd6eda2dU,
  0xbdfb6c653ddf2366U, 0x3e269169bb96daa3U, 0xbe059196bd689111U, 0xbdbfb5da3e026d08U,
  0xbcbc914cbd5bfed8U, 0xbce247f4bd7b6c65U, 0xbda69169bdebb59fU, 0x3c2fff143dacda85U,
  0x3e30e69c3bd7a688U, 0xbd287a1abdc6cd85U, 0x3cbcb1b73c729b59U, 0xbd21bce6bca1bce6U,
  0xbe55f73b3e236c33U, 0x3dc010513d800ae1U, 0x3e30e69c3d83697bU, 0xbe26cacdbc06c815U,
  0x3d5e63bcbdc01051U, 0xbe287a1abe129330U, 0x3d35f4833cd7a688U, 0xbd5e63bc3def3cbfU,
  0xbda87a1abcaf374eU, 0xbd35f4833d06c815U, 0xbc3cb1b73db9531dU, 0x3df9588d3dfcb727U,
  0xbd8d85493e1caeffU, 0x3e0518c83ca1bce6U, 0x3e1950653d4a2c20U, 0x3cd7a6883dde63bcU,
  0x3bb24927be2cb6deU, 0xbe53b6dfbcdedb71U, 0xbde2924dbe2cb6deU, 0x3d5edb71bdedb6dfU,
  0x3e05b6ddbe37db70U, 0xbe096db9be4e2495U, 0xbd9fb6debd90db70U, 0xbcd000033ddedb71U,
  0x3e2549273d576dbaU, 0xbd9fb6debe6bdb71U, 0xbe4a6dbabe166db9U, 0x3dedb6dfbdaadb70U,
  0xbd14924b3e236db9U, 0xbe3d6dba3d896db9U, 0x3e2e924cbe0f0002U, 0xbe12b6debdf8db71U,
  0xbd324927bdd76dbaU, 0x3da36db93e166db9U, 0xbcc124953e576dbaU, 0xbe14924bbe10db70U,
  0xbe189ad5bdbd8d1eU, 0x3d96ff9a3e3a56a8U, 0xbd675117bd808262U, 0x3e0554133d20a2fbU,
  0x3e1f07c03d675117U, 0xbe0d5c39bd93c924U, 0xbe088a883e13c924U, 0x3e1f07c03e4a66f4U,
  0xbd93c924be2d7cd1U, 0x3e3a56a83d2d7cd1U, 0xbe1a3610bd9d6c85U, 0xbb9a36103b4d9d6aU,
  0xbc0082623dc0c393U, 0x3acd9d6a3ce75117U, 0xbb4d9d6a3db3e9bdU, 0xbd3a56a83e4c022fU,
  0xbdb720323d540a55U, 0xbdd0d3e0bd86ef4eU, 0x3e0a25c3be4c022fU, 0x3e30b347U,
  0x3d2f35cc3de29099U, 0x3d292b1d3dac3074U, 0xbd9405b93e292b1dU, 0xbd292b1d3c9d15c0U,
  0xbd04eb04bb4155d8U, 0xbdcd6b36bdb845d2U, 0xbdb23b23bde89b48U, 0xbda3206e3b4155d8U,
  0xbe3fd32c3e036859U, 0x3e35407a3d71ab4eU, 0xbd910062bcfdc0acU, 0xbdb845d23d7dc0acU,
  0xbe0af5b3bdfabb54U, 0x3de290993dca65deU, 0xbd9a1068be27a871U, 0x3e01e5adbc71ab4eU,
  0x3dcd6b363c292b1dU, 0xbe219dc3bdb23b23U, 0xbe3e5081bc292b1dU, 0xbde290993dca65deU,
  0xbd63cdd63d728046U, 0x3d5c749dbdd51b65U, 0x3e6950c0bddc749dU, 0x3d1a51a1bd305d4aU,
  0xbd8f4bcd3d87f294U, 0xbccdc22c3da55776U, 0x3e026faabc305d4aU, 0x3d290412bdbb631fU,
  0xbe00995c3e1a51a1U, 0xbdf28046be061c46U, 0x3dca1590be21aadaU, 0xbe026faabd4668f4U,
  0xbe2ada603d80995cU, 0x3df28046be0b9f30U, 0xbc92f8693d305d4aU, 0xbe061c46bd9a51a1U,
  0xbcbf0fbb3d12f869U, 0xbcbf0fbbbdacb0aeU, 0xbe4492a6U, 0xbe0d757ebdb7b683U,
  0xbd6f3e1d3d26beb0U, 0x3d861ef1be24eeb3U, 0x3e0f2edfbdb19e9aU, 0x3e09beeabdc75e6eU,
  0xbe07eeee3db19e9aU, 0x3df2de16bda6beb0U, 0x3d67fe2c3e231eb7U, 0xbd597e493e231eb7U,
  0x3dfdbe00bc2dfea1U, 0x3c10fedc00000000U, 0x3e12ced83dce9e5fU, 0x3e183ecd3d60be3bU,
  0xbe149ed43c67fe2cU, 0x3e353e923deb9e25U, 0xbd6f3e1d3c827ef9U, 0x3e0d5ee33e662e30U,
  0xbe1daec23e55de51U, 0x3d597e49be370e8fU, 0xbd9bdec63dce9e5fU, 0x3e3e4e80bd597e49U,
  0xbd8073c43d5a5e67U, 0x3e16ee6d3d06dff5U, 0x3db09f2ebacd8607U, 0xbe4beafb3e457ecbU,
  0x3ccd86073e357052U, 0x3dc719d7bd8a160dU, 0x3d9a2485bdc0ada7U, 0xbe020ed0be2bce0aU,
  0x3cb3d546be087b01U, 0xbb4d86073d4719d7U, 0xbd1a2485be2d6916U, 0xbd96ee6d3d1a2485U,
  0x3e121d4900000000U, 0xbe2561dabe309f2eU, 0xbde736c8bbcd8607U, 0xbdca4fef3d2090b5U,
  0xbe3bdc823dd3f237U, 0x3d40ada7be1d5a9dU, 0x3d1a24853e121d49U, 0xbe1553613d4719d7U,
  0xbda2d2df3b591929U, 0xbe5766f7bd15414cU, 0xbd4b8796be430c9bU, 0x3e1c0a15bdf43c4eU,
  0xbe00e6f03da99ba8U, 0xbc95414c3d8b141eU, 0x3e357b08bd6d7385U, 0xbe18a5b1bd07afbaU,
  0x3d80e6f03e102ab5U, 0xbe05fd873d0e7883U, 0x3dcb8796bc87afbaU, 0xbe18a5b13dba919fU,
  0xbe3df604bd8e7883U, 0xbde6aabc3db06471U, 0x3d80e6f03d4b8796U, 0xbdc82332be33c8d6U,
  0xbda99ba8be102ab5U, 0x3dc4becd3e4b8796U, 0xbb591929bdb72d3bU, 0x3d8e78833de6aabcU,
  0xbdd597083d76f6a1U, 0x3d559708bd19848eU, 0xbb559708bdc83d98U, 0x3e112ca7be1e8618U,
  0xbd12d7d63c203146U, 0xbd92d7d63cad8ab6U, 0xbe0f8179bdceea50U, 0xbe28892c3e26ddfeU,
  0x3e28892c3ca03146U, 0xbd7049e9be30e113U, 0x3d12d7d6be022809U, 0x3de2f0783e3ae427U,
  0xbcf049e93e03d337U, 0xbca03146bc857e65U, 0x3e53ebda3e007cdbU, 0xbdbe3a833e08d4c1U,
  0x3ddf9a1c3e0a7fefU, 0xbe08d4c1be21dc74U, 0x3d99848e3e3e3a83U, 0x3e08d4c1bc3ae427U,
  0x3d100e713de73f9aU, 0xbe70b9d1bdf29f0fU, 0x3da6cd5abdeb0a17U, 0x3db5f74bbdb9c1c7U,
  0xbe3d8c44be5080b1U, 0xbdb9c1c7be37dc89U, 0x3e15be2bbdc8ebb8U, 0xbb729f0f3da6cd5aU,
  0x3dccb6353e28b298U, 0x3bb5f74bbe4cb635U, 0xbcd44b2d3d3d8c44U, 0xbdc5213cbd7a3407U,
  0xbce3751ebe15be2bU, 0xbe5815a9be100e71U, 0xbe35f74bbda6cd5aU, 0x3c35f74bbe70b9d1U,
  0xbdeb0a17be28b298U, 0x3e1b6de6bbf29f0fU, 0xbd4cb6353e2a97d7U, 0x3d3d8c44bc729f0fU,
  0x3c772ebabdadccdbU, 0xbd0350d33e2801c2U, 0xbe053f30bca9f020U, 0x3de3df133dd848e3U,
  0xbaf72ebabc8b0a49U, 0xbe3397f33e14b21cU, 0x3e2236aa3df351ffU, 0xbe3586513dc8d5f7U,
  0x3ce7bbce3e5c259eU, 0x3e2425083bb9630cU, 0xbd29f020bd29f020U, 0xbd600259bd92c3beU,
  0x3dfee830bdef7544U, 0xbe2801c23d8ee704U, 0xbdadccdb3e072d8eU, 0xbd7ee830be20484dU,
  0xbcf72ebabe75405dU, 0x3e2801c23c1a7d34U, 0x3d9e59ef3e188ed7U, 0x3e2fbb383cc8d5f7U,
  0x3dcf45953d19c845U, 0xbe28d384be040d5dU, 0xbe43922c3dc895ebU, 0x3d5ca4e93ddca4e9U,
  0x3e4bedc0be05b947U, 0xbd635493bda72799U, 0x3dc53e163e4a41d6U, 0x3dc895eb3da3cfc4U,
  0x3e09111cbd776391U, 0xbd8261723e3ce282U, 0x3e09111cbd4f4595U, 0x3c85b947bdbb3697U,
  0xbd41e6413e37dec2U, 0xbdf40bbcbd776391U, 0x3d2077efbd5ca4e9U, 0xbc93189b3c55f53fU,
  0x3e41e641bd05b947U, 0xbe544955bdb486edU, 0xbce35493bd8fc0c6U, 0xbe040d5dbda72799U,
  0x3d9eef48bdbf5ecfU, 0xbdc29d293e4df765U, 0xbc1bb0ee3e3dbfa1U, 0x3e2be8b13dcf9692U,
  0xbe1d501bbe208e75U, 0x3ddc8ffbbda22da2U, 0xbddfce553e035d48U, 0x3e13950cbd630cb0U,
  0xbd0eb7843d222da2U, 0x3d630cb03ca8aa57U, 0x3df344733b9bb0eeU, 0x3e28aa57bd698964U,
  0xbcc29d293df9c128U, 0x3da8aa57bd4919ddU, 0xbe3404933d2f270bU, 0x3e3c2074bd28aa57U,
  0x3e3dbfa1bde30cb0U, 0xbde64b0abe340493U, 0x3e0eb784bd8eb784U, 0xbd35a3c03e45db83U,
  0x3d9e2153bde34fe7U, 0x3e2803683e0711ccU, 0x3dd96dd23b52d719U, 0xbdd2d7193de9e6a0U,
  0xbe23125dbd0a5d28U, 0xbe143f3e3e0a5d28U, 0xbd669b43be29a916U, 0xbd4c4060bdb87c36U,
  0xbd8da885bd807b13U, 0xbd6d31fc3cfa5f6eU, 0x3c1e2153bcc5a9a7U, 0x3dcf8bbdbd596dd2U,
  0x3d8711ccbd83c670U, 0xbe51316bbdd2d719U, 0xbdd2d719bdc5a9a7U, 0xbdc25e4bbda16cafU,
  0xbc03c670bc387c36U, 0xbdd96dd2bced31fcU, 0xbdcf8bbd3ce0048bU, 0x3e15e4ecbad2d719U,
  0x3e2029613dccbe23U, 0xbe3de1e2bd9b354cU, 0xbc0417923c841792U, 0xbe149a85bd7af996U,
  0x3e3c3b30be0dffbdU, 0x3e3253053e0ab25aU, 0x3d80ca2fbda1d013U, 0x3d2bb83e3e202961U,
  0xbe2a118c3e3c3b30U, 0x3e21d013bd80ca2fU, 0xbe0270e03db25305U, 0x3e33f9b7bddd4115U,
  0x3d914d213e12f3d3U, 0xbdd00b86bdfe46faU, 0xbe12f3d33e1cdbfeU, 0x3d3f8894bdb25305U,
  0x3e041792bdf1116bU, 0x3dd6a64e3e4970bfU, 0x3d1e82b0bd114d21U, 0xbcfaf996be51b238U,
  0x3e1af2c43e2ce3c2U, 0xbd574bedbe29a0abU, 0xbe1af2c4bc827b97U, 0x3d3026d93d827b97U,
  0xbd0f87f3be36ad07U, 0x3ca9a0ab3dc6fc7aU, 0x3d027b97be31c865U, 0x3b50c5bfbd160e21U,
  0x3e0901c53dc6fc7aU, 0x3d1c944f3c9c944fU, 0x3e05beae3e17afadU, 0xbe0de6683dbd3335U,
  0x3d77ead33e0de668U, 0xbdc0764c3d7e7101U, 0x3dda8f04bdfe7101U, 0x3cddd21bbdb369f0U,
  0xbd0901c53e1af2c4U, 0x3db026d9bd8901c5U, 0x3e4f24343e160e21U, 0x3d960e21be489e06U,
  0x3d8bf08e3dfe6f8dU, 0x3c98a955bdb54915U, 0x3db87746bd5ea19cU, 0xbd64fdff3e18a955U,
  0x3e2eecb13d387746U, 0x3dabbe7f3e08c25cU, 0xbca5621cbd7e6f8dU, 0x3cb21ae3be36e02eU,
  0x3e49f5583d1f05b8U, 0x3e2a27663dcb8c71U, 0xbdfe6f8dbe18a955U, 0xbb98a955be321ae3U,
  0x3e05942abe3ba578U, 0x3d64fdffbe3d3c91U, 0x3c321ae33e321ae3U, 0xbe1f05b8bd98a955U,
  0xbc4b8c713dabbe7fU, 0xbdbba5783dc5300dU, 0x3e0f1ebf3c8bf08eU, 0xbe3ba5783e2d5598U,
  0xbd5a303d3d20c53aU, 0xbd89cda03d040fb9U, 0x3e13d9f3bcf127d8U, 0x3e09cda03deb69f1U,
  0xbc4eb470bc7ca3a5U, 0xbcb7bcd53e308f75U, 0xbe057f33bd4338a2U, 0x3e336e683d65ac0aU,
  0xbd31feee3d8130c6U, 0xbe2234b43e1c76cdU, 0xbce5ac0abe0b3d19U, 0xbe085e263e02a03fU,
  0x3dbd7abc3de88afeU, 0xbd2c4108bbb7bcd5U, 0xbda683213e06eeacU, 0xbcb7bcd53e336e68U,
  0xbe02a03fbcda303dU, 0xbdda303d3e27f29bU, 0xbd2c41083e364d5bU, 0x3c4eb470bd5fee24U,
  0xbe48ecce00000000U, 0xbdd4be803e005266U, 0x3e0f84933ad81efcU, 0xbd2f992dbc22173dU,
  0xbc581efcbd515e04U, 0xbd07135ebe566ebeU, 0xbe22173d3c22173dU, 0x3d1b5645be23c77bU,
  0xbde24070bdb9baa1U, 0xbe16458bbdaf992dU, 0x3dc73c90bd2f992dU, 0xbd1b5645bdd81efcU,
  0x3e1134d1bdec61e4U, 0xbdefc260bd94954dU, 0x3e17f5c93c94954dU, 0x3d8dd455bde5a0ecU,
  0xbe08c39bbe0dd455U, 0xbe14954dbdaf992dU, 0xbe23c77b3d79e3d3U, 0x3d805266be3b6adfU,
  0xbd395f033da76e98U, 0x3d809059bdcb4f6fU, 0x3d5d3fdb3df52b15U, 0x3bbf59d23b3f59d2U,
  0x3e1e76623e009059U, 0x3e25efe4bcbf59d2U, 0x3dbf59d23d6f3046U, 0xbc0f835e3d693578U,
  0x3d57450cbde63811U, 0xbdbc5c6bbe1b78fbU, 0x3cd7450c3c9b78fbU, 0x3c8f835e3e1ff516U,
  0xbe0f835e3e1ff516U, 0x3e3ddb1e3e0809dbU, 0x3e0b0743bccb4f6fU, 0xbe09888fbe1ff516U,
  0xbe3364353df52b15U, 0xbe395f033e0c85f6U, 0xbe34e2e9be068b28U, 0xbe13ff78bc838dc0U,
  0xbd2d7b80bdf96188U, 0xbc821ca03cad7b80U, 0x3e6580b6be07887cU, 0x3e03eb3e3cad7b80U,
  0xbd4a656abd97cc10U, 0x3da2a3c83c909195U, 0xbda9de423dbbf075U, 0xbda9de42bdad7b80U,
  0x3e1f068abd432af0U, 0xbdad7b80be142ed2U, 0x3d021ca03d17cc10U, 0xbdf961883e5e463cU,
  0xbc1091953dce02a8U, 0xbd9b694d3e199aaeU, 0x3e199aaebd8cf458U, 0xbd17cc10bd674f55U,
  0x3d2d7b803df2270dU, 0x3d9091953e0cf458U, 0xbdb85338bd8cf458U, 0xbd6e89d03e22a3c8U,
  0xbde696e7baee0720U, 0x3e3dadaebddf26aeU, 0xbdb28558bd6696e7U, 0xbe0d543bbc328558U,
  0xbdfce792bdd7b675U, 0xbc328558bdc51de6U, 0x3cee07203e3dadaeU, 0x3d0d543bbd6e0720U,
  0x3d899c1ebe328558U, 0x3dea4f043d05e402U, 0x3e46f9f5bcc165caU, 0xbd05e402bdbdadaeU,
  0xbe0407f43bb28558U, 0x3e1a589f3d94c474U, 0x3e6c2b123d910c58U, 0xbd14c474bdc8d603U,
  0xbcdf26ae3d57b675U, 0x3dd7b675be1c34adU, 0xbd14c474be16a082U, 0xbbb285583c94c474U,
  0xbd8e78bc3de3f461U, 0x3d37a14e3ccaa056U, 0xbd709e66bdf6f369U, 0xbd574a5b3ddd9f5eU,
  0xbd81ceb7bd2af749U, 0xbd709e663d7d486cU, 0x3e2af749be314c4bU, 0xbe27ccc7bd63f461U,
  0x3d11a33e3db476cdU, 0xbe490b153dbacbcfU, 0x3d5d9f5e3cd74a5bU, 0xbe2637873de71ee2U,
  0x3dfa1deabcf09e66U, 0xbdbdf651be2c8c89U, 0xbdc120d2be1fe284U, 0xbda177c5be1cb803U,
  0x3d314c4b3c63f461U, 0xbd8b4e3b3d444b53U, 0x3cd74a5bbccaa056U, 0x3d04f938bacaa056U,
  0xbdb1a44c3df23d22U, 0xbd7beda9bd9492b9U, 0xbc1b08683e4367eeU, 0xbd0e1d0a3dae6975U,
  0xbe1492b9be2e6975U, 0xbe163025bd5ba13eU, 0xbe4d18743ca7f3c6U, 0xbe1492b9bd0e1d0aU,
  0xbd8131acbc8e1d0aU, 0x3bceb5e0bd27f3c6U, 0x3dceb5e03e0ae232U, 0xbcceb5e03dd52b8fU,
  0x3dfbeda93dd1f0b8U, 0xbdff2880be1ca5d4U, 0xbda17e17bd07a75bU, 0x3e2b2e9e3c8e1d0aU,
  0x3d6f024b3cceb5e0U, 0xbcc1ca823e2b2e9eU, 0xbdb4df243dab2e9eU, 0xbe49dd9d3d7beda9U,
  0x3c9d120abd8ffb33U, 0x3deee0c43d650fa3U, 0xbdc110d63dc4568cU, 0xbd6b9b0e3deb9b0eU,
  0x3e1b6f2f3e19cc54U, 0xbd16869e3ceb9b0eU, 0x3d96869e3e014182U, 0x3dc4568c3d30b44bU,
  0xbdaa28e0be16869eU, 0x3caa28e0bdf8b1e4U, 0x3e4e27ac3e3dcb21U, 0x3d96869e3e4110d6U,
  0x3dde84383c8ffb33U, 0xbdbdcb213e4fca87U, 0x3bd16d623daa28e0U, 0xbd7f3d4f3e2a28e0U,
  0x3d0ffb333e014182U, 0x3d99cc54be2d6e95U, 0xbe2a28e03e0e5859U, 0xbddb3e833da6e32aU,
  0xbde1f6d93dd847b3U, 0x3e24a1903d8ace7eU, 0x3e2cb3853cce988cU, 0xbe114342bdfbc9ebU,
  0xbd87941c3c686b9eU, 0xbce86b9e3cc1af03U, 0x3c8e08e0bce86b9eU, 0xbde1f6d9be23045eU,
  0xbdc4e9653d0e08e0U, 0xbd2e50b6be195538U, 0xbdd1d2eebe1c8f9aU, 0xbe23045e3e4cfb5bU,
  0xbde86b9e3e2cb385U, 0x3e263ec13e34c57aU, 0x3dce988c3d97b807U, 0xbcce988c3e12e074U,
  0xbd21672d3df21ac4U, 0x3c686b9ebdfbc9ebU, 0x3cdb8215be07941cU, 0xbd41af03bd8e08e0U,
  0x3ce6e0b6bde9ea67U, 0x3d97e4ad3e02a0d3U, 0x3d9df8103c426c63U, 0x3dfc2490be2ead61U,
  0xbd54a68cbdd19cdbU, 0x3e2ba3afbc9df810U, 0xbe165fd5bc9df810U, 0xbe14dafc3db94f4eU,
  0x3c73077c3bf3077cU, 0xbe2899fe3d88b436U, 0x3dce9329bdff2e42U, 0xbd7f2e423d73077cU,
  0xbd240b743de9ea67U, 0xbe0a390e3dc26c63U, 0x3e40e78a3cff2e42U, 0x3d6cf419bbc26c63U,
  0x3e2d2888be0a390eU, 0xbd30323abe2ba3afU, 0x3caa1ed73e1df810U, 0xbc9df8103e02a0d3U,
  0xbdc44f75be4c7d6fU, 0xbde1c1c6be2a22bbU, 0x3cc44f75be2f0b1eU, 0xbdc109debe45f241U,
  0x3bd165d2bb9d0c5eU, 0x3dcadaa3bd933b98U, 0x3d99c6c6be21f4c0U, 0xbdb3f380bd6b928cU,
  0xbe23978c3e4937d8U, 0x3dde7c2f3c1d0c5eU, 0x3d96812f3d57f101U, 0x3dad68523ceb928cU,
  0xbe0ff6003e02dfa3U, 0x3e07c806bd096ad2U, 0xbd96812f3e287fefU, 0x3c1d0c5ebe3250b5U,
  0xbe1d0c5ebcd165d2U, 0xbdad68523e14de63U, 0xbd78a8e93e4fc306U, 0x3dba7eafbd78a8e9U,
  0x3d35b5413e2c9f64U, 0xbc4b83533dae7090U, 0x3e66c4eabd98a27eU, 0x3da72be03dc7e0fbU,
  0x3e0a191dbd8dbb75U, 0x3d9c44d7bbae7090U, 0xbcbcf9f23c9fe72fU, 0x3dcf25ac3de4f3beU,
  0x3d689616be50f6d8U, 0x3d689616bbe89616U, 0xbe1fe72f3e18a27eU, 0xbe21b85bbdb212e9U,
  0x3cf71f77bdefdac7U, 0x3e16d1523cf71f77U, 0x3da72be03e272be0U, 0x3c915dcebbae7090U,
  0xbdefdac73dc7e0fbU, 0x3e21b85b00000000U, 0xbd35b541be39579aU, 0xbe0103403db5b541U,
  0xbdffc0fd3d310f74U, 0x3e3c89583d3e2d0bU, 0x3ddbaf9e3caa80a9U, 0xbdf932313daa80a9U,
  0xbdd86838bddbaf9eU, 0xbdd520d3bdc17470U, 0xbdcb4aa23e5035baU, 0xbd9a1bac3dd1d96dU,
  0x3e417470be2c245bU, 0xbdc4bbd6bdd1d96dU, 0x3d5868383dffc0fdU, 0x3df5eaccbdfc7997U,
  0x3e0cfe153e16d446U, 0xbc379e3fbdd1d96dU, 0xbcc4bbd6be153093U, 0x3caa80a93e23f1ddU,
  0xbdbe2d0bbd938ce1U, 0x3c8327e4be3941f2U, 0xbcf932313e35fa8dU, 0xbcb79e3fbe1f06c5U,
  0x3e560241bd9bf8f7U, 0x3dd261ac3e1a28adU, 0x3cbc9e303be82528U, 0x3e2a7b493d5261acU,
  0x3e3acde63df6a77aU, 0x3dd9a2d6be31bc73U, 0x3e0294e6be0805c5U, 0x3c2e1bde3def6651U,
  0xbd9117393d985862U, 0x3de48493bd185862U, 0x3e09d6103e3c9e30U, 0xbe1f998c3e43df5aU,
  0x3e06357bbe0294e6U, 0x3d26dab5bd5261acU, 0xbdc3df5abd26dab5U, 0x3ae825283e5d436aU,
  0x3da33a203e6654deU, 0xbbe82528be38fd9cU, 0x3d8d76a4be477feeU, 0x3e168818bd8d76a4U,
  0x3e11c1ad3e14c307U, 0xbde768453d7c71bfU, 0xbe0d3fa5bb4056aaU, 0x3da2491f3dba53f5U,
  0x3cf06c543da84bd5U, 0x3e3ed5fd3d8a3e4aU, 0xbe0ec052be11c1adU, 0x3cfc71bf3df06c54U,
  0xbc843b95bdcf5d6fU, 0xbe2b4d2f3e08bd9dU, 0xbd1643b5bd873cf0U, 0xbd7c71bf3db14fe5U,
  0x3dcc5c15be11c1adU, 0xbdba53f5bda54a7aU, 0xbe284bd53e1dc717U, 0xbd843b953d1643b5U,
  0x3d873cf0be013a3aU, 0x3dd560253e23c9cdU, 0xbd22491fbde76845U, 0x3c58617fbc58617fU,
  0xbd8b13353e22d1ceU, 0x3cb0634a3d954052U, 0x3e1a56e03e07aed6U, 0xbd98a4b13df43ab5U,
  0xbd0e7794bddc7c1cU, 0xbe2eb11abd9f6d6fU, 0xbe00e618bdfe67d1U, 0xbd154052bca2d1ceU,
  0xbde344dabd743ab5U, 0x3d66a939bdd5b35eU, 0x3c743ab53da6362dU, 0x3c3df4c53e2cfeebU,
  0xbd8e7794be3fa6f5U, 0x3dcb8641be321579U, 0x3e0e7794be0cc565U, 0xbda2d1cebdacfeebU,
  0xbe1a56e0bb5917bdU, 0xbd80e618bd8b1335U, 0x3d44bd833dcb8641U, 0xbc87aed6be57658eU,
  0xbdf2466e3cbc6faaU, 0x3e55ac56bd940e98U, 0x3dcd42c73dd3fda0U, 0x3d8698e83e1c7827U,
  0xbdbfcd173dc9e55bU, 0x3dffbc1e3deb8b95U, 0x3c940e98bc218449U, 0xbd976c043e24e1b5U,
  0x3dbc6faabe033b7bU, 0xbdc687ef3e04ea31U, 0x3de17351be30a8b0U, 0xbdf2466ebe26906bU,
  0x3d64d0bd3d8d53c0U, 0xbde173513e08479eU, 0x3e35b4d2bc72466eU, 0x3e018cc53e4b9411U,
  0xbe018cc53e3e1e61U, 0x3e0ba50a3d90b12cU, 0x3dbfcd173dde15e4U, 0x3ad75b0c3e49e55bU,
  0x3c673dccbddd9b39U, 0xbc673dccbdf41691U, 0xbb4d8c44bd53f8a6U, 0xbd8d506f3d13bcd1U,
  0x3d8077aabe1557e9U, 0xbda701f73df0e060U, 0x3d5a6508bc4d8c44U, 0x3d9a2933be087f25U,
  0xbc1a2933be4bf12bU, 0xbe03addcbdb710edU, 0x3d7416913cb3dabcU, 0xbe0a1a3e3d2d6e59U,
  0xbcc0b3803cf41691U, 0xbd33dabcbe1bc44cU, 0x3da701f7be323fa3U, 0xbd673dcc3cc0b380U,
  0xbdb0a48abe2566dfU, 0xbde0d16abda09595U, 0x3d7416913d06e40dU, 0x3da701f73db710edU,
  0x3e1045fc3e18dc70U, 0x3dfac2c93d4e1ad6U, 0xbdd868fb3dd4f999U, 0xbd09673abe1fbb33U,
  0xbd89673a3d24e245U, 0xbb5bd85cbdaf3069U, 0xbce995e23c24e245U, 0xbddf47bd3cce1ad6U,
  0xbca4e2453e473c13U, 0x3d9724bf3dabc108U, 0x3d8288773de2b71fU, 0x3e329fcbbc405d50U,
  0xbe0440273de995e2U, 0x3d2bc1083d9724bfU, 0xbe0b1eeabe0b1eeaU, 0x3d24e2453ded0543U,
  0xbdcaab753adbd85cU, 0x3d9e0382be5a20abU, 0xbdc05d503e2699f6U, 0xbe397e8ebdc3ccb2U,
  0x3dd63a14be1bf8e2U, 0xbe237d2a3d780d5bU, 0xbdace2853e455071U, 0xbdfbcf7fbd1dd9f4U,
  0xbe436f5fbe3828f2U, 0xbdb466ce3c874d1aU, 0x3d436f5fbdd277f0U, 0xbe1836bd3e0b0f3eU,
  0x3d3466cebd780d5bU, 0xbb708912bdd63a14U, 0xbe5277f03dfbcf7fU, 0x3af08912bdd63a14U,
  0xbde18081bdff91a3U, 0x3d838af63d1655abU, 0x3e129387bd874d1aU, 0xbce18081bdfbcf7fU,
  0xbe038af6bd2ce285U, 0x3e1fbb06bdf80d5bU, 0x3e01a9e43e6ea800U, 0x3df08912bd59fc38U,
  0xbe1d9a183d54590eU, 0xbd1f42ca3dc7137dU, 0xbcfc29c1be52b05cU, 0xbdde4d3bbd4db646U,
  0xbd5afbd63d84b7a9U, 0xbe1f42ca3e11fd3aU, 0x3d7586f83dde4d3bU, 0xbc1f42cabdb9cdecU,
  0x3e278e453db9cdecU, 0x3ce19e9fbd9f42caU, 0xbe13a5ec3da936f7U, 0x3bd4590ebe332b24U,
  0x3dff7b25bd0b5a71U, 0xbd4db646be332b24U, 0x3db67c883deb92ccU, 0xbbd4590ebe1d9a18U,
  0x3da936f73dac885bU, 0xbdcdb646be0d0323U, 0xbe20eb7dbe25e593U, 0x3da2942fbe4a64e1U,
  0xbc9249eabc638f6cU, 0xbc9249ea3e1041c7U, 0x3e3cf4ce3dd34e52U, 0xbe08213a3e228b04U,
  0x3daaab91bd228b04U, 0xbe30c3fb3e3efcf2U, 0x3d32cc1e3dfbf113U, 0xbe186254bdaebbd8U,
  0x3c430d383cf3d086U, 0xbe061916bb0208d0U, 0xbd73d086bde38f6cU, 0xbdb2cc1ebd4b2dc5U,
  0x3da69b4abda69b4aU, 0x3ddb6edfbd6baff9U, 0xbe1a6a77bdaaab91U, 0x3e471d7e3db6dc64U,
  0x3d6baff9be69a7d6U, 0x3d534e523d965a30U, 0x3e1a6a773e8104beU, 0xbd8a295d3e0410f3U,
  0xbddf3bdbbd86833fU, 0xbd80c9ea3e2321e5U, 0xbe35bc373d94d292U, 0xbd6aae833c095fe9U,
  0x3d7bda803c94d292U, 0xbd485689bd76212cU, 0x3d76212cbd429d35U, 0xbe0f193dbd86833fU,
  0x3c895fe9bd372a8cU, 0x3dd6a5dc3dfeb72bU, 0x3de218853e276ce4U, 0x3e24903a3d80c9eaU,
  0xbd8f193dbdfeb72bU, 0xbd64f52fbe17af3cU, 0xbdf8fdd6be344de2U, 0x3d83a695be191d91U,
  0xbe11f5e8bd97af3cU, 0x3e25fe8f3e2321e5U, 0x3da321e53e023840U, 0xbe0daae8bdbfc08bU,
  0x3ba1f59e3e4053acU, 0x3e4c22eabd97d644U, 0xbdb2d4893c94767cU, 0x3e039790be0f66cfU,
  0x3e1e95d53c21f59eU, 0x3c3cf3e33c94767cU, 0x3dca73063e0c0706U, 0xbd4a73063d9116b3U,
  0xbca1f59e3db9941aU, 0x3e564244bd4a7306U, 0xbdbcf3e3bd2f74c0U, 0x3d06f7593dbcf3e3U,
  0x3e1e95d53e12c697U, 0x3e4dd2ce3d9e95d5U, 0x3df2f06d3d0db6eaU, 0x3e0a57223d4a7306U,
  0x3def90a43e363452U, 0x3e0547753da55567U, 0xbddeb1b9bd8db6eaU, 0xbd97d6443c21f59eU,
  0xbe0676c73e5dc73bU, 0x3e3ada403e0835d4U, 0xbe20a8843d99ac52U, 0xbdc017663db21f01U,
  0x3cd18de43ddc082fU, 0x3e0bb3edbe162e38U, 0x3c43957f3e534cf0U, 0xbc43957f3e375c27U,
  0x3e375c27bd747adfU, 0xbe12b01fbe146f2cU, 0x3e4713983d8bb3edU, 0xbdf47adf3de6827aU,
  0xbe3c994d3dc71398U, 0xbe162e38bdd50bfdU, 0xbd3c994d3e17ed45U, 0xbbdf8648bd5f8648U,
  0xbe45548cbd747adfU, 0x3e0d72fa3e305ff5U, 0x3adf8648be04b7bbU, 0x3ca7a4b63d19ac52U,
  0x3db18d3b3d7cab72U, 0x3dc609d63e36ac62U, 0xbd99a687bc3f35a2U, 0xbdf941583ca3e4d4U,
  0x3d81bfd23df94158U, 0x3df94158be111d46U, 0x3d01bfd23d0f683aU, 0xbe4cde093b5a8670U,
  0xbdae23213d7cab72U, 0xbdbbcb883e0374dfU, 0x3e2c6e1400000000U, 0xbe1b5b94bc089406U,
  0x3e0894063e148760U, 0xbe58d1633cf5d73eU, 0x3dc973ef3e2599e1U, 0x3bda8670bdb8616eU,
  0x3e3a167bbd089406U, 0xbba3e4d4bba3e4d4U, 0xbcda86703dbf35a2U, 0xbc3f35a2bdef030aU,
  0xbdab309cbd2b309cU, 0x3d4a50b83af900e3U, 0xbd044879be3cb2acU, 0xbe677ed3bbbac0aaU,
  0xbe063a7a3e11e685U, 0xbd3ac0aa3d61a8ceU, 0xbdab309c3c1ba08eU, 0xbdca50b83e217693U,
  0x3dce34bc3cd9e0c7U, 0xbe11e685be17bc8aU, 0xbdab309cbdd218c0U, 0xbdb2f8a3bbbac0aaU,
  0x3dce34bc3da74c99U, 0x3cbac0aa3de58cd1U, 0x3da74c993c3ac0aaU, 0xbe1f8491be255a97U,
  0x3e2d229ebdb6dca7U, 0xbd1ba08ebdc288b1U, 0xbd61a8cebe770ee1U, 0xbe1ba08ebdce34bcU,
  0xbd643f033c78feecU, 0xbba5ff483c8a54bcU, 0x3d489477be3c79daU, 0xbd913f5fbdb3d48eU,
  0xbc41a9d4be06df6aU, 0x3d86df6abd182a02U, 0xbd94b4b0bdcc09c8U, 0xbceb29a63deb29a6U,
  0x3dee9ef83e166f59U, 0x3de0c9b23dc1a9d4U, 0x3d2ce9ebbe390488U, 0xbe27b9f13db749e0U,
  0x3dcf7f1a3db05f3cU, 0xbe489477be5b99b7U, 0x3d6b29a6bd25ff48U, 0xbdd9df0ebe46d9ceU,
  0xbdbe3482be41a9d4U, 0x3e54af14bd9f14a5U, 0x3ceb29a63e4f7f1aU, 0xbdd2f46cbd113f5fU,
  0x3d854a4fbdb1b86aU, 0x3e803dcc3cd2087dU, 0xbc916857bd997c5bU, 0x3d52087d3e0f6355U,
  0xbca190603d49f478U, 0xbe29a465bdfa6c95U, 0x3dd61280be31b86aU, 0xbc9168573df25890U,
  0xbca190603cf25890U, 0x3e136d58bdb9cc6fU, 0x3dd2087d3e054a4fU, 0xbcd2087d3d997c5bU,
  0x3c6230873dc5ea76U, 0x3e1d865e3c623087U, 0xbe3bd170bd916857U, 0x3e3bd170be3dd671U,
  0x3d29a465be095452U, 0x3d81404dbda59a63U, 0xbcc1e074bdde2684U, 0x3e35c26c3d116857U,
  0x3d8f6610be318a8eU, 0x3d4cdaf33e3bc8b4U, 0x3e2fd5883e17ef30U, 0xbe1ec349bdfca7a3U,
  0x3d75d38abdeb9564U, 0xbdf2697d3e0008d8U, 0x3d7ca7a33e222d55U, 0xbdbf32c03d75d38aU,
  0x3e47bbe03e06dcf1U, 0x3de1573ebd8891f7U, 0xbdd3af0c3e0db10aU, 0x3d53af0cbe17ef30U,
  0x3e2ab6753d7ca7a3U, 0xbe3bc8b4be3bc8b4U, 0x3dd044ffbe0db10aU, 0x3d0f6610be58ce1fU,
  0xbdae20813d53af0cU, 0x3d92d01d3c8891f7U, 0x3e274c683deeff70U, 0xbe571918be17ef30U,
  0x3c80fdf1bdbb09d0U, 0xbe029ab73e1790c8U, 0x3dd4d634be2c86d9U, 0xbdb7d044bc1aca54U,
  0xbde1bc663de82f7eU, 0xbd417ce93e4319b0U, 0x3cb496b83ddb494dU, 0xbdce631b3df84f3cU,
  0xbde1bc663db15d2bU, 0xbd80fdf1bc682f7eU, 0x3cf515b0bdce631bU, 0xbe12ba753d7515b0U,
  0xbd47f002be4cc655U, 0x3ace631bU, 0xbcb496b8bd3b09d0U, 0x3ca7b0863df1dc24U,
  0xbd47f002be029ab7U, 0xbdc17ce9bdd19ca7U, 0x3d6ea297bdfb88c9U, 0xbe04377d3e294d4cU,
  0xbe46deb13d5420bdU, 0xbe02ec353bd420bdU, 0xbda90a173db99ca5U, 0xbe52787c3e137ec3U,
  0xbc8494763e453670U, 0xbce162c93de803cfU, 0x3ce162c93e0143f3U, 0x3dc03dabbdeb5452U,
  0x3de4b34c3dfbe6e0U, 0x3d399ca5bd25b994U, 0x3bd420bd3d32fb9fU, 0xbd46deb1be063cb8U,
  0xbdafab1dbd987788U, 0xbdac5a9abd6803cfU, 0xbda90a1700000000U, 0x3ceea4d53e25b994U,
  0xbd32fb9fbe46deb1U, 0xbd0b357cbe152705U, 0x3e07e4f9bcac5a9aU, 0x3e063cb83e3e956aU,
  0x3d42e0a03d8f1cf6U, 0x3e13ae39bdb6b296U, 0x3ddb3cb43e2f15d0U, 0x3e02eeecbd8905f0U,
  0x3e16b9bc3c5b3cb4U, 0xbe13ae393e415adfU, 0xbd9228783de153b9U, 0xbac2e0a03d5525afU,
  0xbe22e7c63da7790aU, 0xbe13ae39be2d900eU, 0xbd6d81c33db6b296U, 0x3e3cc99b3e0f1cf6U,
  0x3ded81c3bd183f7dU, 0xbe0905f03d5b3cb4U, 0x3dde4836bcdb3cb4U, 0xbe36b2963ded81c3U,
  0xbe33a714be183f7dU, 0xbe216204bd122878U, 0xbd6153b93b922878U, 0xbb42e0a03dfcbb50U,
  0xbdab8543bac7966aU, 0xbe0489e2be31c1f6U, 0x3e31c1f6bdcdd31dU, 0x3d893769bcf97c04U,
  0x3e31c1f63e2ea39dU, 0xbdb7feaabe07a83cU, 0x3de089373d3b1d03U, 0x3bc7966a3d98cf29U,
  0x3e1bed83bcbb1d03U, 0x3e173ffcbe016b89U, 0xbd82fab6bd5a4c84U, 0xbd2866e93dc7966aU,
  0x3df65dabbded029eU, 0xbd0937693e1421a3U, 0x3ca22a36be18cf29U, 0xbdb7feaabe0f741cU,
  0xbe26d7bd3c95b0d0U, 0x3d8f741c3e1a5e56U, 0x3e46073dbd893769U, 0x3d6d029e3ac7966aU,
  0x3d0fff8a3e09ff8eU, 0x3de9ff3fbd57ff4eU, 0xbd27ff76bd98ff82U, 0xbc0fff8abd4bff58U,
  0x3e18ff82be3e7f63U, 0x3cefff3a3defff3aU, 0x3cfbff31be39ff67U, 0xbe207f7cbd8cff8cU,
  0x3decff3d3de3ff44U, 0xbcb3ff6c3e03ff93U, 0xbd15ff85be15ff85U, 0x3d21ff7bbdc8ff5bU,
  0x3d8cff8cbe1d7f7eU, 0xbdadff71be1eff7dU, 0xbd33ff6cbe03ff93U, 0x3e00ff963dfbff31U,
  0x3e0fff8abe21ff7bU, 0x3e15ff853dd4ff51U, 0xbd95ff85be3cff64U, 0x3c83ff93bdd7ff4eU,
  0xbc5ecf4abe192e83U, 0x3da0eb0b00000000U, 0x3db9acbebe0fe5e0U, 0x3b948a313e148a31U,
  0xbc2d4be43df790fdU, 0xbdaa33ae3ca0eb0bU, 0x3dd89eddbd97a268U, 0x3d1aba9ebde4ffb7U,
  0xbdb0641abd20eb0bU, 0xbda0eb0bbe069d3dU, 0xbdc2f5613e09b573U, 0x3d8b418ebd082958U,
  0x3dad4be4be16164cU, 0x3d7dc1693e0b418eU, 0xbb948a31be1c46b9U, 0xbe01f8ebbe148a31U,
  0x3e16164cbe44817cU, 0xbe39acbe3e1f5ef0U, 0x3e0ccda9bdf790fdU, 0x3dd89edd3d716090U,
  0x3e30203f3de0aa25U, 0x3d852274bc052274U, 0xbda0def73d318346U, 0xbe25080bbc903aa9U,
  0xbdaebd393d20def7U, 0x3c5de418bd741480U, 0x3dbc9b7a3c052274U, 0xbe00f961bc052274U,
  0xbd052274bd318346U, 0x3e0522743debc259U, 0xbd87e8823db18346U, 0xbde37032bd903aa9U,
  0xbc052274bc318346U, 0xbb852274be03bf6eU, 0xbdfc66a8be103aa9U, 0x3e0522743e0c1195U,
  0x3db183463d637032U, 0xbdc7b3af3de0aa25U, 0x3e188cd03e0ed7a2U, 0x3debc259be2241feU,
  0x3d8024f2bddc12eeU, 0xbd966e27bc90dbdaU, 0x3de46e62bc75254aU, 0xbda192c2bca7250fU,
  0x3da45be900000000U, 0x3b3249aa3bdedc14U, 0xbdb512d13e02ee19U, 0x3de46e623dfd80beU,
  0x3e10dbdabd2cb75dU, 0xbdbaa51e3e166e27U, 0xbddedc14bd9c0075U, 0xbdecc9d6be2192c2U,
  0x3d7ab7973da45be9U, 0x3e02ee193b85b740U, 0xbdaf80833daf8083U, 0x3d1c0075bd9ec99bU,
  0xbe0452ac3c05b740U, 0xbe1d6508bd05b740U, 0x3d2cb75dbe30e517U, 0xbe12406d3d53b77aU,
  0x3debe5473df21a78U, 0x3e03ea52be3ee3a4U, 0x3e260ee0bdc38b88U, 0xbd825d063e248193U,
  0xbbc6a6213dc9c0baU, 0x3de5b016be4518d5U, 0xbdd310833e34068eU, 0x3cdf7ae5bcba3bbfU,
  0x3ddf7ae53c889237U, 0xbd94fc99bd981731U, 0x3d6be547be2166fbU, 0xbdf53511bd279c2cU,
  0x3b94fc99bdbd5657U, 0xbe1b31ca3da79c2cU, 0xbe2f5ea93d531083U, 0x3e0704ea3dd62b1cU,
  0x3d65b0163cba3bbfU, 0xbc784fa93e181731U, 0x3d1b31ca3e1cbf16U, 0x3b94fc99bde5b016U,
  0xbd38d3bcbe27b6a6U, 0x3e03c65ebdb8d3bcU, 0xbdd7a1b03e08e8b1U, 0xbd1d71ff3e1f281bU,
  0x3c08e8b1bdbfac2bU, 0x3e08e8b1bd8c54e9U, 0xbe03c65e3e3a89d8U, 0x3d543579be5957ccU,
  0xbe1d71ffbc5b0de8U, 0xbdc6849abe31fb4cU, 0xbe2b22ddbe11773cU, 0x3cb1fb4c3d8fc120U,
  0xbe49f0d23de1e657U, 0x3c3fac2b3e2b22ddU, 0xbdef97363cf66fa5U, 0xbc08e8b1bca44a6eU,
  0x3db1fb4cbd88e8b1U, 0x3cdb0de83e3a89d8U, 0xbe08e8b13e005a26U, 0x3dae8f15bd9a05c7U,
  0x3b679b6e3ddcc025U, 0x3e3fccb7bdce466eU, 0x3e65cc37bde05e93U, 0x3e05e5dc3db88fdcU,
  0xbce79b6ebe07b512U, 0x3e17fe00bd7d5200U, 0x3cadb492bd9f3adcU, 0x3d51e4dc3e098449U,
  0xbdeb39dcbd761525U, 0xbd7615253e22d949U, 0x3d51e4dcbd34f16eU, 0xbd97fe00be24a880U,
  0x3da2d9493badb492U, 0x3e3c2e493db88fdcU, 0x3de05e933d679b6eU, 0xbe0d22b73b679b6eU,
  0xbde3fd00be05e5dcU, 0x3e07b512bd1f3adcU, 0xbd2677b7bdeed849U, 0xbd17fe00bd8d22b7U,
  0x3e5039103e5e3899U, 0x3e1f3ab2be22ba94U, 0xbd967afdbe183aeeU, 0x3d66f84ebd3cf9b4U,
  0xbe0a3b653da7fa68U, 0x3d35f9f0bc5ff88aU, 0x3daefa2c3d99fadfU, 0x3daefa2cbde3786cU,
  0x3dd578e43d74f7d7U, 0xbe12fb1b3c5ff88aU, 0x3d9d7ac1bc5ff88aU, 0x3e29ba593df177f5U,
  0x3e167afd3d84fb92U, 0xbc27fa683e49394cU, 0xbdb5f9f03e22ba94U, 0x3e45b96abe0a3b65U,
  0x3e1f3ab23e51f901U, 0x3e0bfb563c5ff88aU, 0xbd887b74U, 0x3e0dbb47bd817bb0U,
  0xbdfc8e503d142a88U, 0x3e55d4a73e1e44b4U, 0xbd285ee0bdaf1afdU, 0xbdd0c7913c86b24dU,
  0xbd142a88bd727424U, 0x3ddae1bdbce4fbe9U, 0x3dcd6982bd50c791U, 0x3def16153cbc9338U,
  0x3c86b24dbde19ddaU, 0x3e3c93383ddae1bdU, 0x3e178896bde4fbe9U, 0xbdef16153d50c791U,
  0x3cd783aebde4fbe9U, 0x3d9e44b4bd3c9338U, 0xbd0d6e6abd4a0b73U, 0xbe2500d13dabbcefU,
  0xbd978896be1ae6a5U, 0xbdfc8e503d142a88U, 0xbd8a105bbe0d6e6aU, 0xbc942a883e19379eU,
  0x3c6dbf783dc61f8eU, 0xbe05bbb3be2a0e49U, 0x3c1e7fa53dbc3794U, 0x3c84150a3d5354dcU,
  0xbe1cd8fbbe163e54U, 0x3dc96ce23e1b3252U, 0x3b9e7fa5bb5354dcU, 0x3cfaf4c53e3dde3eU,
  0x3e0909073b5354dcU, 0xbcb8ea403e51ae32U, 0xbdccba353d8aafb0U, 0x3d17e4fe3e461f8eU,
  0x3e17e4febd8dfd04U, 0x3c1e7fa53d0aafb0U, 0xbe2a0e49bd914a57U, 0xbe3743973b9e7fa5U,
  0xbe2d5b9cbd80c7b6U, 0x3d80c7b63e163e54U, 0x3e33f643bcedbf78U, 0x3e47c638bdbc3794U,
  0xbdf6d7f43d9fb8e9U, 0x3da2a0593dd9cd9bU, 0xbd97029b3e12a774U, 0x3cf3f0853d5cb50bU,
  0xbbe852c8bdb12585U, 0xbdc29221bcd1174dU, 0xbd9cd17a3d0b64deU, 0xbe1cd17a3e38681bU,
  0xbab9dbd33e013ad9U, 0x3df3f085be29e2efU, 0xbd3faab23dcb486fU, 0x3dab56a7be09f127U,
  0x3c0b64de3d6852c8U, 0x3be852c83e1fb8e9U, 0x3d0b64debdbcc342U, 0xbde56b583e26fb80U,
  0x3e340cf43d9cd17aU, 0x3e3580ac3e087d6fU, 0x3b39dbd3bcff8e42U, 0x3d8e4c4ebda2a059U,
  0xbe7a8083bd7495aaU, 0xbccd22b0bd822ea1U, 0xbe2b9a8ebe21bdd0U, 0xbdecb1df3c7c7976U,
  0xbd99da043d25afb5U, 0xbdf495aa3c9dcbeaU, 0xbdc53ee4bd6cb1dfU, 0x3cecb1dfbddcea47U,
  0x3cfc7976bd2d9381U, 0xbe58f861bdc14cfeU, 0xbe729cb7be58f861U, 0x3dd8f8613decb1dfU,
  0x3d822ea13c8e0452U, 0xbd3d5b18be4737d7U, 0x3c5cea47bd822ea1U, 0x3e2b9a8ebde8bff9U,
  0xbd8e0452be2f8c74U, 0xbd8a126d3dc53ee4U, 0xbd91f6383d862087U, 0xbc3d5b183d062087U,
  0xbe0a8652bb40bae2U, 0xbb40bae2bd58d23eU, 0xbcccc6903c84807bU, 0x3d0a8652be3f396cU,
  0x3dbdb7f6be1c97d8U, 0x3db7b21fbe3db7f6U, 0xbdeae3c33d34af34U, 0x3de4ddec3de1db01U,
  0x3d817d90bde7e0d8U, 0xbe272210be2ba671U, 0xbdbdb7f6bd108c2aU, 0x3c70e99abe02ff06U,
  0x3d938f15be0a8652U, 0xbdc0bae23dc9c3a5U, 0x3bf0e99a3cfcf549U, 0xbd5ed8153e017d90U,
  0x3e181376be3db7f6U, 0xbe302ad33ce4ddecU, 0x3e3630aabdc3bdceU, 0xbe15108bbe0c07c8U,
  0xbe1c4feb3d015c9fU, 0xbdf4599ebe3adb1eU, 0x3e0df04bbdac7b7eU, 0xbc0fbc3fbdac7b7eU,
  0xbe0df04b3d8c2457U, 0xbd96ec0fbdfb896eU, 0x3df7f186bcf4599eU, 0x3d015c9fbe2aaf8bU,
  0x3e1fe7d33ded29ceU, 0xbe420aee3dac7b7eU, 0x3bac7b7e3d254bafU, 0xbe06c07bbcc93abeU,
  0x3d493abebd84f487U, 0xbd9354273e33ab4eU, 0x3dff21563e135427U, 0x3ddeca2ebdf0c1b6U,
  0xbc815c9fbe642e0aU, 0xbe1a83f73ddeca2eU, 0x3d254bafbd3adb1eU, 0x3d888c6fbe390f2aU,
  0xbd18de24be13e207U, 0xbdacce983d9238a8U, 0xbddb54fc3d75eaecU, 0xbcacce983e019af2U,
  0xbe2e77f7bdf2982eU, 0x3e22d65e3d1f83a0U, 0x3dd15cc23de1fa78U, 0xbe515cc23cef4570U,
  0xbde89ff43e09e9cdU, 0xbd54af80be0b932cU, 0x3db6c6d2bd819af2U, 0x3ddea7babcc76488U,
  0xbddea7ba3da97bdaU, 0xbe1f83a0be2cce98U, 0x3d26291c3e351d73U, 0xbdf93daa3d689ff4U,
  0xbd8b932cbe530621U, 0xbdacce98be4fb363U, 0x3e1a87833e3a1990U, 0xbe36c6d23d7c9068U,
  0x3e1c1437bdf6e377U, 0x3dc3cee3bddd592dU, 0x3daa4499bdcc5251U, 0x3da497a5U,
  0xbe0289edbe06cba4U, 0x3e2bafd6bdcf28cbU, 0x3da497a53dc0f869U, 0x3e2d1b13bcee6009U,
  0x3e06cba4bd6e6009U, 0xbe011eb0bdfc906bU, 0xbbb59e81be32c807U, 0xbcf9b9f13db59e81U,
  0xbd0289ed3e343344U, 0xbdad1b133e0f4f12U, 0x3d2497a5bc1eeab1U, 0xbe0f4f12bc8836e1U,
  0x3d9667433d9eeab1U, 0x3daa44993e2497a5U, 0x3de02fa73ab59e81U, 0x3e0de3d53d4c5251U,
  0x3e289f1cbcbcdb29U, 0x3c57d5e6be0da45fU, 0xbc94630ebc3cdb29U, 0x3d94630ebcf2d0a3U,
  0x3e1b21bd3df62ffaU, 0x3d57d5e6bcaf5dcbU, 0x3d5117373e21e06cU, 0x3e56263abdf98f52U,
  0xbdd4768ebdb97bd2U, 0xbe1103b73e4c0833U, 0x3e511737bd9b21bdU, 0x3e310d77bd14630eU,
  0xbd289f1c3dca5888U, 0x3e3e8ad53dca5888U, 0x3c3cdb29be2a4ec7U, 0x3d06e5b03dabfe73U,
  0x3dd7d5e6bd57d5e6U, 0xbdb2bd22bd14630eU, 0xbd5117373d4399d8U, 0x3e0386583e2030c1U,
  0xbcab95ca3d80b058U, 0x3d83c0bbbe00b058U, 0x3e0548ed3d567b3dU, 0xbdab95cabd1312adU,
  0xbdb1b6913d567b3dU, 0xbe4290b5be288567U, 0xbe26fd35bda2649fU, 0xbdeefe5abe1abba6U,
  0xbc1312adbe26fd35U, 0x3dc418e73d962311U, 0xbc5c9c04be0548edU, 0x3e20dc6dbdd67b3dU,
  0xbd1f543c3de5cd2fU, 0xbd06d11fbc2b95caU, 0x3e162311be1f543cU, 0xbe31b691bda2649fU,
  0xbdf20ebd3d193374U, 0xbdc418e7bda2649fU, 0xbd9c43d8bdc7294bU, 0x3dd98ba03d06d11fU,
  0xbe132abc3e05a6cfU, 0x3e3434543e1aaceaU, 0x3d343454bdae3295U, 0xbe20aea9be0d28fdU,
  0x3d87273fbe11aa4cU, 0xbd0a281e3e2cb226U, 0xbd523d0d3d932abcU, 0x3e1c2d5abdf64784U,
  0xbd8d28fdbb4037d1U, 0x3d8d28fd3e0ea96dU, 0xbe222f18be1dadc9U, 0x3e1aaceabde74327U,
  0x3dde408abda830d7U, 0x3d2830d7bda22f18U, 0x3e2cb226bdae3295U, 0xbe3eb7613dc037d1U,
  0x3cc037d13d463990U, 0xbe07273fbe07273fU, 0xbe07273f3ac037d1U, 0xbd4c3b4ebdd53decU,
  0x3cc99a65bdc99a65U, 0x3e1733cc3daccd7bU, 0x3e3b33f03e1acd69U, 0x3e1566fd3e4b6734U,
  0x3e56340b3de2cdb2U, 0xbd100091bdd0cda0U, 0x3d819a1c3d9733ccU, 0x3e2ccd7b3dc99a65U,
  0xbd50cda0bc499a65U, 0xbd8c66f43e649a80U, 0xbdff9a9c3de6674fU, 0x3d2ccd7b3cf4cdc4U,
  0x3df13427bded9a89U, 0x3e27670f3b66674fU, 0x3be6674f3ddb9a77U, 0x3e4d34023db79a53U,
  0x3be6674f3d900091U, 0xbe3067183dbb33f0U, 0x3da933debe4d3402U, 0x3d9e67063e379a53U,
  0x3d955d48be0a3dd3U, 0x3de7fdd2bde1a2b4U, 0xbe024bedbda54114U, 0x3e1ee5f63bfe3cbcU,
  0xbdc508ac3dc1db1dU, 0xbda86ea3be0a3dd3U, 0x3cf18680bda21385U, 0xbc4b63ca3e13c681U,
  0xbe071044bcfe3cbcU, 0x3e49cd023d8f022aU, 0xbdb8526fbd5e7525U, 0x3d1ee5f63e3d16c6U,
  0xbe1a219fbdf7e19eU, 0xbd85797dbb988ad8U, 0x3e1bb8673e13c681U, 0x3e00b526bd8f022aU,
  0x3d38526f3e2b9c32U, 0xbe3b7ffebd718680U, 0x3cbead8d3dc508acU, 0x3ccb63cabd5e7525U,
  0xbe4d3337be1f6960U, 0x3db3c3153ce6a359U, 0x3d87ab62bdfe6157U, 0x3dacfa833e153c85U,
  0xbdfe6157bb591236U, 0xbc3defefbdacfa83U, 0x3d00e2d0bd98a0ceU, 0x3df0d0343e153c85U,
  0xbd44b8813ddc767fU, 0x3e0cc1cfbe0e73f3U, 0x3df0d034bdea07a2U, 0xbd4b8113bdea07a2U,
  0xbe05f93d3e466aa5U, 0x3c74347dbe33c315U, 0xbe49ceee3d80e2d0U, 0xbe0294f4be576012U,
  0xbdcee55bbdb3c315U, 0xbdcb8113bdacfa83U, 0x3c87ab623cf4347dU, 0x3d305eccbc953c85U,
  0x3d06ffaebd1f8b42U, 0x3cabd10c3e2a4853U, 0x3d445ca03d8d2293U, 0xbc9345783d19685dU,
  0x3e0576f53d692dfeU, 0x3e2ee27e3ddff9a6U, 0xbd80dcc9bddce834U, 0xbc9f8b42bd8d2293U,
  0xbb934578be11bcbfU, 0x3dc14b2e3e42d3e7U, 0xbe3505643d3816d6U, 0xbcabd10c3d934578U,
  0x3dc76e123e134578U, 0x3dc76e12bdd3b3dcU, 0xbe19685dbdabd10cU, 0x3cabd10cbe1c79d0U,
  0x3e088867bdc14b2eU, 0x3d2bd10c3e1c79d0U, 0x3c934578bc9f8b42U, 0xbd31f3f13b445ca0U,
  0x3dd1d5443e1b90deU, 0x3cbc204e3deb2862U, 0xbdf9a1053d604de7U, 0xbe040cd5bd435ca0U,
  0x3e3145d4be4c6806U, 0x3e1f2f073dc6fac9U, 0x3dca98f23e19c1caU, 0x3e1b90de3ce78a39U,
  0x3ce78a393d6ec68bU, 0x3c4a98f23d266b59U, 0x3cada7abbd4a98f2U, 0xbe3314e8be283a6dU,
  0x3da66b59be1d5ff3U, 0xbe2da7abbde78a39U, 0x3dce371b3e388225U, 0xbd591195bdb88225U,
  0x3d266b59be65bb25U, 0xbd823dc03c678a39U, 0x3cbc204e3df9a105U, 0xbe1d5ff3bcf602ddU,
  0xbe1dd49abe160950U, 0xbdf19df5be1dd49aU, 0xbe719df5bd809a44U, 0xbd5a3c173d3343a5U,
  0xbd3343a5bccaa583U, 0xbd5270cdbccaa583U, 0x3d97fc22bd3b0eefU, 0xbe77766d3da792b6U,
  0x3e259fe43d047fe9U, 0xbda792b6be3150d3U, 0xbd97fc22bd047fe9U, 0xbdf19df5be160950U,
  0xbd847fe9bd620761U, 0xbe2b785b3dbb0eefU, 0xbe23ad11bd69d2abU, 0xbdce8b283dcaa583U,
  0xbe2d6b2ebe3ef494U, 0x3e23ad113dde21bcU, 0x3d9030d8bd3343a5U, 0x3b79693fbe047fe9U,
  0xbc5242c8bd6c8b21U, 0x3d65f90bbe06b2c8U, 0x3e2e1f4ebd86b2c8U, 0xbcdf66f43d316859U,
  0xbd2ad642be172000U, 0xbe050e433e509e42U, 0xbdd242c83df9af4eU, 0xbe2ad642bdcef9bdU,
  0x3daad6423df66642U, 0x3d65f90b3d5f66f4U, 0x3e2ad642bcf9af4eU, 0x3dbb437a3c5242c8U,
  0xbd37fa6f3dcef9bdU, 0xbc6c8b21bc8369bdU, 0x3bd242c8be108deaU, 0x3de94216be1db216U,
  0x3dfcf8593e24442cU, 0x3d58d4de3d2ad642U, 0xbda78d37bdb7fa6fU, 0x3ddc1de9bcb7fa6fU,
  0x3e53a3af3dbd4560U, 0x3cdc3e1c3da89f8dU, 0xbe0d17ca3d70e3efU, 0x3d8d17cabba52e95U,
  0x3e2dc902bd9e4ca4U, 0x3d70e3efbe39d468U, 0xbd8d17cabda52e95U, 0xbd479849bdb2f277U,
  0x3d89a6d2U, 0xbdbd45603e4cc1beU, 0x3e3d4560bdea01feU, 0x3c976ab33dd55c2bU,
  0x3d39d4683db6636fU, 0x3e5a85a0bd479849U, 0xbcf7c5e03e1c9428U, 0x3e02c4e1bd63200dU,
  0x3cce7a3a3dd55c2bU, 0xbe21bd9d3e13f9bbU, 0xbe2c10863e07ee55U, 0x3e4427513d555c2bU,
  0x3e1e1a45bdc782adU, 0xbe6f093ebb70eb14U, 0xbcb4b04fbe23bfc8U, 0x3df4aec0be2d28f6U,
  0x3dcf0a05bdc3bf00U, 0xbe01deb93d9692ecU, 0x3af0eb14bdcb4659U, 0xbe3e197e3ded2768U,
  0xbe2f0acd3dd2cdb2U, 0x3e0b47e8be5c36e0U, 0xbe4782adbe03c08fU, 0xbbf0eb14bda1ddf1U,
  0xbc87843bbe30eca3U, 0xbe1874c3be4782adU, 0x3d1e1a45be07843bU, 0xbcfff9c5bdb0eca3U,
  0x3e32ce79bdd2cdb2U, 0xbd2d28f6bdf4aec0U, 0xbe1ffc1b3e54af88U, 0xbda1ddf13e2f0acdU,
  0xbca993603d9c880aU, 0x3d8f7cb43dd3f839U, 0x3e4f13f8bc9c880aU, 0xbdee0ee5bd43aa0dU,
  0x3d4a2fb8bd369eb7U, 0xbe3840213dee0ee5U, 0x3e194535bd85b433U, 0x3dc06737be39e18cU,
  0x3dd73b0ebd96025fU, 0xbe07559ebe0c39dfU, 0xbdf7d766bdd3f839U, 0x3df151ba3e299360U,
  0xbe17a3ca3d1c880aU, 0x3e00cff3bc369eb7U, 0x3dddc0b93cddc0b9U, 0x3dee0ee5bd644664U,
  0x3e1460f43d230db5U, 0xbd96025fbe335be1U, 0x3d573b0ebd16025fU, 0x3d88f7093dca2fb8U,
  0xbe36c7393d1988a1U, 0x3e1f045dbd7fe3b6U, 0xbdf89410bbe9f4c4U, 0xbe3c42f6bd2827edU,
  0xbe09156b3baf7793U, 0x3d7894103cbe16dfU, 0x3dabcfc0bd2f7793U, 0x3ca0d847bca0d847U,
  0x3caf77933e3c42f6U, 0x3de2a51ebbe9f4c4U, 0xbe3c42f6bd62a51eU, 0xbe331f663e15e0ceU,
  0x3e1988a1bca0d847U, 0x3d20d847be34f350U, 0xbc2f7793bdc90e58U, 0x3da827ed3d9988a1U,
  0xbe314b7dbe5b5578U, 0x3df4ec3d3e29fbd6U, 0x3d7894103e6820daU, 0xbe55d9bb3d36c739U,
  0xbdc4df6b3da2556aU, 0xbd91106a3db70e9eU, 0x3dc8539ebd2cb204U, 0xbc416b383d91106aU,
  0x3e04f9b63e163eb7U, 0x3e19b2ea3e432551U, 0xbc78ae6c3e0d9c37U, 0xbd8a28033cf8ae6cU,
  0xbceadd9fbe0f5650U, 0x3d339a6bbd033f9dU, 0x3d416b38bdc16b38U, 0xbdc4df6b3e432551U,
  0x3e50f61fbc8a2803U, 0x3e3a82d13d4f3c05U, 0x3d2cb2043d8d9c37U, 0xbde7696c3e3fb11eU,
  0xbd25c99e3e209b51U, 0xbe086dea3d56246bU, 0xbe19b2ea3e12ca83U, 0x3e5b52b8bda2556aU,
  0xbd8352733db96558U, 0xbdd09202bc8b0c02U, 0xbe12c5903bb96558U, 0xbc7731ca3e0b0c02U,
  0xbdeb9b753e29f23bU, 0x3d3965583d31abc9U, 0x3e0cfa65bdd46ecaU, 0xbda238adbe339a2dU,
  0x3c3965583bf731caU, 0xbe3965583d411ee6U, 0xbe3f3082bdfb0e91U, 0xbd411ee63e035273U,
  0xbe63e1e63ca9f23bU, 0x3e242710U, 0xbdf731ca3ce7beadU, 0xbd8ee8c9bdeb9b75U,
  0xbe2803d7be754366U, 0x3e2be09ebd1a7f1eU, 0xbe4cb53bbd1a7f1eU, 0xbcd84b913c9a7f1eU,
  0xbde93c2d3d7aa403U, 0x3e1ca682be28d597U, 0xbc271802bdae0e57U, 0xbdaa932c3c0b3eacU,
  0xbd8448573e4ba542U, 0xbe387fd7be176dc2U, 0x3ca718023d2021acU, 0x3e1235023d50de02U,
  0xbcecb7583adecaadU, 0x3dfaa4033cdecaadU, 0xbcc2f157bde245d8U, 0xbdecb7583d42f157U,
  0x3e49e7ad3da39cd7U, 0x3e10776c3d0b3eacU, 0x3d95b02c3d123502U, 0x3d0b3eac3d3504adU,
  0x3e1235023e5d0d18U, 0x3e00cd2c3e1e6417U, 0xbd65c102be2fcbedU, 0x3bdecaad3e192b57U,
  0xbd80c8ea3d6228a0U, 0xbd559826bd96c5c0U, 0xbe1b7beebdf50158U, 0x3de228a03cd59826U,
  0x3e16c5c0bd2fe6b6U, 0x3dafe6b6bd80c8eaU, 0x3c16c5c0bd4f4fe8U, 0x3e0eeb74bd107d83U,
  0xbe08a3363deb94fcU, 0x3e47759cbd3c7730U, 0x3dfe6db4bdf50158U, 0x3d4907ab3e3ae521U,
  0xbdeb94fc3da0321cU, 0xbac907ab3bc907abU, 0xbe03ed083e0d5964U, 0x3d23563bbdcf4fe8U,
  0x3d03ed08bd750158U, 0xbd93a1a2bceeb91bU, 0xbe21c42cbcbc7730U, 0x3e107d83bb4907abU,
  0x3df8c7013acec6a7U, 0xbd8477433da4c64dU, 0xbc34edd23e368b5fU, 0xbdff3d36bce89f7cU,
  0x3ccec6a73d218b32U, 0x3d689f7c3e2b3c82U, 0xbde89f7cbe34edd2U, 0xbb9b14fdbd97d9e3U,
  0xbe299ef5bd4ec6a7U, 0x3e3e9f22bdc85072U, 0xbd41da3d3db4edd2U, 0x3dc1da3dbd97d9e3U,
  0x3e0fc620be299ef5U, 0x3ddbb3113b4ec6a7U, 0xbe34edd23e34edd2U, 0xbe1977703e4d291aU,
  0x3e3d0195bdf8c701U, 0x3d2801683e218b32U, 0xbc813c28be49edffU, 0x3d34edd23e335045U,
  0x3dccd859bdbeb7c6U, 0x3c6209363d97de30U, 0xbba986e83e522490U, 0xbdd3e8a3be00e941U,
  0xbe1eee7a3dfe4a5dU, 0xbd89bd9d3dd3e8a3U, 0x3e2b4afbbda2769fU, 0xbd7029c9bd8d45c2U,
  0xbc8d45c23e522490U, 0xbd063578be22769fU, 0x3df73a13bdb09732U, 0x3dde81113ae20936U,
  0x3dde8111be37a77cU, 0xbe2ed320be4b1447U, 0xbc0d45c2bca986e8U, 0xbde5915bbe53e8a3U,
  0xbd6209363dc23feaU, 0xbd1b6655bcc5c80fU, 0xbd691980be09bd9dU, 0xbd691980be604524U,
  0xbc0868453ce7e475U, 0xbb5a406e3d611271U, 0x3d0196413d886845U, 0x3e4933653e2c36d7U,
  0x3de7e4753e3308daU, 0xbdbef860be315459U, 0x3c75887cbe3b8f5fU, 0x3dadeb583e204751U,
  0xbe21fbd23e06b3c4U, 0x3d6112713e0a1cc6U, 0xbd6eb6783ada406eU, 0x3d84ff43bdb8265dU,
  0x3d8f3a48bd45ca64U, 0x3e3ef860bba3b052U, 0xbd1cde4f3e3d43dfU, 0x3d6112713d23b052U,
  0x3de7e4753de11271U, 0xbdb8265d3d8bd146U, 0x3d4c9c67bda71954U, 0x3e588bedbdeeb678U,
  0xbd6ef5f6bd7be0aaU, 0xbe196312bd756b50U, 0xbe07a05b3e2b25c9U, 0xbe27eb1cbb4eab36U,
  0x3cb4d5cf3e1e3b15U, 0xbe3338793d4835dcU, 0xbe3ce87fbd3b4b29U, 0x3c8e15b53ce8809dU,
  0xbb9b0068bdcb7089U, 0xbe2ffdccbe0fb30cU, 0x3e060305be0465afU, 0x3d9e3b15bdf56b50U,
  0xbe0fb30c3c1b0068U, 0xbd7be0aabd8e15b5U, 0xbe4d0de03dcb7089U, 0x3e319b22be298872U,
  0x3c9b00683d8465afU, 0x3cdb95e93e3b4b29U, 0x3d812b02be12edb8U, 0xbdc1c083be367326U,
  0xbd149f47be248bc5U, 0x3e32b352be4629b3U, 0x3df42a3dbdfb3e03U, 0x3dbf15edbc7ec7e7U,
  0x3e149f473d4629b3U, 0x3c7ec7e73e2b9f8bU, 0x3c9bb30dbe29da9aU, 0x3d6278cdbd9bb30dU,
  0xbdb0ee60be60b3dbU, 0x3e49b3973ae278cdU, 0x3e04b2c83d149f47U, 0xbe2815a83de98c93U,
  0xbd380227bc4629b3U, 0x3e30ee603d98292aU, 0xbe39c718bde602b0U, 0xbd698c93bd6278cdU,
  0x3e3f15ed3e166438U, 0x3c6278cdbe248bc5U, 0x3cf0a05abe19ee1bU, 0x3d6278cdbe0a019dU,
  0xbd56c4bd3e1a25fbU, 0xbe133868bd2645bbU, 0xbd2d334e3e133868U, 0x3e1d9cc43da645bbU,
  0xbc41fc05bd8a8f71U, 0xbe22cef23de12918U, 0xbd3420e03ba645bbU, 0x3da2cef23db0aa17U,
  0xbe39530e3d6b8d74U, 0x3e0c4ad6bcf96899U, 0xbd649fe13d802b16U, 0xbe2801203ba645bbU,
  0xbc796899bd6b8d74U, 0xbdfcdf623e5bf6eaU, 0xbe43b76a3dcfd72aU, 0xbdddb24f3b5db24fU,
  0x3e51928f3d2645bbU, 0x3e186a96be2b77e9U, 0xbc986a963e21138dU, 0x3dbb0e73bc986a96U,
  0xbe1177c7bd9a3b23U, 0x3d4b4df400000000U, 0x3cd250a4be24bf2bU, 0xbdffe21d3e5e9558U,
  0x3e06f3be3cfc60c4U, 0x3dffe21d3cb645e3U, 0x3e16b9cb3e541150U, 0x3e2bc1dbbd6758b4U,
  0xbc605604bd595354U, 0xbca84083be133873U, 0xbe01b1ba3e4d0ea0U, 0xbae05604bbe05604U,
  0xbdc7cc9c3e0fb71bU, 0xbc0c35c23cc44b44U, 0xbc7c60c43df1dcbcU, 0x3cc44b443e213dd3U,
  0x3d6056043d2f4333U, 0x3cd250a4bd053312U, 0xbdeada0cbe08b46aU, 0x3dd953543d605604U,
  0x3d9a8310be216111U, 0x3d5bc0173e24d011U, 0xbd5bc0173c24d011U, 0xbd09580e3dce0416U,
  0xbe3e90943e216111U, 0xbd77381a3e0e7e8fU, 0xbd629e18bdb5fb13U, 0xbe2d65923e456e95U,
  0x3db96a13bd89580eU, 0xbe2161113d027a0eU, 0xbe04318ebe24d011U, 0xbe2687913e328c13U,
  0xbd93a50f3d09580eU, 0x3e13a50fbc89580eU, 0xbdeceb193e216111U, 0xbe1fa991bdd17316U,
  0xbcc048143c5bc017U, 0xbd9df2113e5a0897U, 0x3d89580ebe231891U, 0xbdb28c13be0b0f8fU,
  0xbe32b96abe0c6d1dU, 0xbe0a9a3ebd0a9a3eU, 0xbe679cb13de96f90U, 0x3e383208be46c901U,
  0x3d9cd6f53d11e5baU, 0xbd207cb3be46c901U, 0x3e44f6223dfbac47U, 0xbc4c419e3df0bb0cU,
  0xbd9931363e432342U, 0x3dc4f6223d70bb0cU, 0x3d4c419e3e175e57U, 0x3dff5206bd207cb3U,
  0xbd2f13acbd86f47fU, 0xbe51ba3bbdbdaaa5U, 0x3ddad897bd8e3ffcU, 0x3e1cd6f53b696f90U,
  0x3d780689bdd732d9U, 0x3e158b783e242271U, 0x3dbdaaa53d365f28U, 0x3e11e5babe51ba3bU,
  0x3e39f55dbdb86552U, 0xbb960454bd99246bU, 0x3d9f6499be2284b0U, 0x3e1ab4763dc805c5U,
  0x3dce45f3bcfa0736U, 0x3cc805c5bc61067eU, 0xbdabe4f53e160454U, 0xbd8ca40fbe40358bU,
  0xbcd486213dd7a638U, 0x3e2be4f53d1c4482U, 0xbd5ac64f3e1ab476U, 0xbe0b1403bd0fc426U,
  0x3de1067e3d9f6499U, 0xbe309518bda284b0U, 0xbdce45f33e322523U, 0x3dfd274dbdd7a638U,
  0xbdc4e5ae3d6746acU, 0xbd8983f7be3ea580U, 0x3db22523be4675b9U, 0x3e3d15743e2414bcU,
  0x3da6c4003e1b5228U, 0x3db71d7dU, 0x3e01295f3dc776fbU, 0xbcf883733e4776fbU,
  0xbde4e4dd3df1f941U, 0xbc371d7dbde829f6U, 0xbd8611053e09561eU, 0x3d9cf4b4bd861105U,
  0xbceb6f0f3dc0ecc9U, 0xbe07b3913d371d7dU, 0x3d02cbec3dba6296U, 0x3d99af9b3dba6296U,
  0x3dd14646be3a6296U, 0x3d4abc143d2a0919U, 0x3dff0da53e252173U, 0xbcc431e2be28668cU,
  0x3e01295fbe4fa3b9U, 0x3e3da7afbdba6296U, 0xbd8fe0503e2a0919U, 0xbdb71d7d3d166a82U,
  0x3e1ba62b3de61707U, 0x3e024582be1d5747U, 0x3d1ba62b3ddf5296U, 0xbd4b0543be0fce65U,
  0x3e226a9c3df03db1U, 0xbdbd7c60bc226a9cU, 0xbd226a9cbe1843f2U, 0x3ddbf05ebe1692d6U,
  0xbe3355b73e024582U, 0x3e2ae0293da26a9cU, 0xbba26a9cbc8758d7U, 0xbe0e1d483decdb78U,
  0xbad88e253e56dd09U, 0xbc94e1b93daff37eU, 0xbcd88e25bd2ff37eU, 0xbde979403e3bcb44U,
  0xbdce677b3de97940U, 0xbdd52becbda92f0dU, 0xbd1ba62b3dbd7c60U, 0x3e51c9b4be1692d6U,
  0x3da71c383d4c9ff1U, 0xbde47f663dd6db23U, 0xbd31576abd5a4434U, 0x3df223aa3e0a1f29U,
  0xbde47f66bd67e877U, 0x3e588facbe4c9ff1U, 0x3cbefbae3deeba99U, 0x3db1576abcbefbaeU,
  0xbe06b6183d9ce105U, 0x3da71c38bdeb5188U, 0xbd9977f53c758cbaU, 0xbe330bf3be0bd3b1U,
  0x3e01987fbe28d0c0U, 0xbdfc5edc3db1576aU, 0x3d886aa03da3b327U, 0xbd01987fbe40b036U,
  0x3d5a4434bda04a16U, 0xbe06b6183e45cdcfU, 0x3e2567af3e204a16U, 0xbdd00902bd086aa0U,
  0xbddc9f50be6cb598U, 0x3dca3cb43e37da18U, 0x3d4a3cb43c80b244U, 0xbb1314e03dfccbe1U,
  0xbca5777c3d89e392U, 0xbe156134bcca3cb4U, 0xbde5d09ebe1e9282U, 0xbe45a40dbe4a3cb4U,
  0x3e10c88c3d8e7c39U, 0x3dbc72bf3e00b244U, 0x3da5777cbde5d09eU, 0xbc37da183b1314e0U,
  0x3ddc9f50bdd36e02U, 0xbe27c3d03daa1023U, 0xbe07973e3d1c462eU, 0xbdb7da183e10c88cU,
  0x3e27c3d0be1e9282U, 0x3c1314e0bdef01ecU, 0xbda5777cbe07973eU, 0x3db7da18be91eeb6U,
  0x3dbc9ca03dca7af7U, 0xbe0d75783e27cf1dU, 0xbe13019b3c7415fcU, 0xbbdde570bd5de570U,
  0xbb8523443ab1845aU, 0xbe302151bdc4eed4U, 0x3e2bf837bcb1845aU, 0xbe13019b3cff2e41U,
  0x3ab1845a3dd2cd2bU, 0x3e1464a33cbc9ca0U, 0x3c9b53cf3db1845aU, 0x3e13019bbde37193U,
  0x3e27cf1dbda3a603U, 0x3e119e923d9b53cfU, 0xbdca7af73c31845aU, 0xbcff2e41bdee89d9U,
  0x3dd2cd2b3ca66c14U, 0xbd9e19e03ddde570U, 0x3e1e19e0bddde570U, 0xbdebc3c83ab1845aU,
  0xbdef9ca33e3cecbbU, 0x3dfef8babe33b57aU, 0xbd9cab57be137415U, 0xbe30a30f3cd0e473U,
  0xbce977ccbce977ccU, 0xbcf5c1793e33b57aU, 0xbde66561bdfef8baU, 0x3d57094abd5d2e20U,
  0xbd2c076ebd38511bU, 0x3e4311913dac076eU, 0xbe0ed8753d1fbdc2U, 0xbd9fbdc2bd937415U,
  0x3d57094a3e0a3cd4U, 0xbe0ed8753d8d4f3fU, 0x3e322c44be1998ebU, 0x3d449ac73e22d02dU,
  0xbdf2af0e3d9061aaU, 0x3dd7094abd50e473U, 0x3de0408bbe2d90a4U, 0xbdfbe64f3d010593U,
  0x3e0cf9bfbe04aed2U, 0x3d25da873e11f381U, 0x3e52a2543d75769fU, 0xbdb9c18d3db9c18dU,
  0xbbd44aeabe11f381U, 0xbdb67061bd544aeaU, 0xbe331f35be367061U, 0xbe47063b3dc3b510U,
  0x3e4063e43e2e2574U, 0x3dafce0abd4063e4U, 0x3c04aed2be47063bU, 0xbd91f3813d84aed2U,
  0xbdff6a22be2e2574U, 0xbdb9c18d3e09a894U, 0x3dc3b5103e3d12b8U, 0x3d91f3813dff6a22U,
  0x3ad44aeabe39c18dU, 0x3cd44aeabce18f99U, 0x3e07fffebdc063e4U, 0xbdeb831c3b9f3830U,
  0x3db73af4bdb3a335U, 0xbde257e23e18b120U, 0x3d33a3353dccc96aU, 0x3d506129bd42022fU,
  0xbdc2022f3e5790a6U, 0xbc4931ac3e6423c1U, 0x3da8dbfa3ae5efa0U, 0xbe2c73b8bdc2022fU,
  0xbcf44e9a3e42022fU, 0xbe06ba683e21ac7cU, 0x3de257e2bdb3a335U, 0x3e18b120bd96e541U,
  0xbd1e14bebe300b76U, 0x3e151962be3ad2b2U, 0x3d4931acbc8156caU, 0x3ded1f1d3d1e14beU,
  0x3e27101abc4931acU, 0x3d506129bd506129U, 0x3e23785c3e4afd8bU, 0xbd2c73b83e16e541U,
  0x3e64f1663e54b7faU, 0x3ddf88edbe42b110U, 0xbdc2b1103d9b0841U, 0x3c90374e3e464c0cU,
  0xbdfffbc5be159fc8U, 0x3dc9e7083e1cd5bfU, 0xbae6bee43dc2b110U, 0xbe1204ccbe0c9c53U,
  0x3e0c9c533be6bee4U, 0xbd8c9c53bdea59e0U, 0x3d5f88ed3b66bee4U, 0xbd976d463d66bee4U,
  0x3e176d463e30aa27U, 0x3c49e708bddbedf1U, 0x3c90374e3e10374eU, 0xbd976d46bdc2b110U,
  0xbd93d24a3cbb7b19U, 0x3e01cb60be0e69d1U, 0x3d344522bdfc60c9U, 0xbe10374e3d176d46U,
  0xbdf6c91fbded69fdU, 0xbe272081be12d263U, 0xbde72a923bf9e8d5U, 0x3e1f513bbd95f219U,
  0x3e0e22d3bdc1ae0bU, 0x3e14623e3ca270f1U, 0xbd9911cfbe20e116U, 0x3d5aabbabe01a3fbU,
  0x3db20f7e3e2270f1U, 0xbe12d263be04c3b1U, 0x3db20f7e00000000U, 0x3e41ae0bbe20e116U,
  0xbe3cfe7abe2d5fedU, 0x3e36bf0f3e401e30U, 0x3d6d69fdbe15f219U, 0xbded69fd3e04c3b1U,
  0xbd9f513b3de0eb26U, 0xbe465d9c3cd46c4eU, 0xbde0eb263e097342U, 0x3cd46c4e3d0333d6U,
  0xbcf2c97bbdca5291U, 0x3dfae1443ca1dba8U, 0x3e300546bcb20b38U, 0x3d72c97b3e017c86U,
  0xbd526a5abd11ac17U, 0xbcc23ac9bd320b38U, 0xbdfae144bdce5e76U, 0xbe27ed7ebb817c86U,
  0x3e17bded3d72c97bU, 0xbc91ac17bb017c86U, 0xbd4a5291bd4a5291U, 0x3c6299eabe1fd5b5U,
  0xbc6299ea3c423ac9U, 0xbd85886abd29f370U, 0xbdfeed283e038278U, 0x3d8da033bca1dba8U,
  0x3dfeed28be80798dU, 0xbc91ac17be381d0fU, 0x3d017c863e320b38U, 0x3c017c863c91ac17U,
  0x3dfd4aef3d3b5e01U, 0xbdc93f0b3ba68c73U, 0xbe37e5bfbe0595fcU, 0xbde87960be3ed643U,
  0xbe231430bc0aca60U, 0x3d346d7c3ba68c73U, 0xbd0aca603d493f0bU, 0x3d65011ebdda9857U,
  0x3e39a1e0bd72e227U, 0x3cf9d2acbc79d2acU, 0xbdd72014bdd72014U, 0xbd03d9dbbd572014U,
  0x3dc93f0b3d6bf1a3U, 0x3c79d2acbdbb5e01U, 0xbdda98573e18ab69U, 0xbda68c73U,
  0x3cc24e863d83d9dbU, 0x3c79d2ac3e090e3eU, 0xbd953327be0595fcU, 0x3dc5c6c8be5c5478U,
  0x3cb188f43d228472U, 0xbc930dfa3d50222aU, 0x3c2d9bf2bb829376U, 0x3ced39183ca47e5cU,
  0x3aae3dab3c7283c5U, 0xbba5adde3d4e5eddU, 0xbd1f85b9bb5e62d1U, 0x39010f673cafb257U,
  0xb9343fefbbf0799fU, 0xbca7f1b33bb9adacU, 0xbcf972d73c5346cbU, 0x3bcf69043c6217dfU,
  0x3b18732b3c090c83U, 0x3b1ccb6c3c58d858U, 0x3b0ded9e3c787f10U, 0x3aa68dbf3cbca9beU,
  0x3c36ecb33cfd7e9bU, 0xbb932dbd3c8c6818U, 0x3b42a8f5bba540d5U, 0x3c94034cbbb16b3eU,
  0xbcf12e96b9f4c030U, 0x3bc7814d3c243b96U, 0x3d1764323c9b4d12U, 0xbb99e6fcbc8d9226U,
  0x3ce803c0bc8310a8U, 0x3c980f5f3ce79ae3U, 0x3b93b483bc12d51fU, 0xbcd1075e3ce952b9U,
  0x3d33bb9c3d14663aU, 0x3c41050bbbd2746bU, 0x3ce26c96bc2cf121U, 0x3b8dc4d9bca99b2cU,
  0x3cbb0a003cffc898U, 0x3cb06e90bc3a08fcU, 0x3c999f1dbb37ec7bU, 0xbbc1aecb3b8db2b6U,
  0xbcbe2a993c45265dU, 0xbc0bab20bc52e5c8U, 0xbb06306cbc2d57e8U, 0x3c70d8c6bc26ee11U,
  0x3ca6c1b8bc41c513U, 0x3d4ab07ab98e3301U, 0x3c1ec9263bc21ac0U, 0x3cae1e4e3ca1e71eU,
  0xbccc611b3d1eaf68U, 0x3cbdbba1bc442cd6U, 0x3c843609bcc0d7c4U, 0x3c198c1cbc7530cbU,
  0x3c0ee1943d03b32fU, 0x3aa827c63cda0df6U, 0x3cc91899bbc99a20U, 0x3c35c2973d64a6c1U,
  0xbcac8e0f3c7c48daU, 0x3d11d1603ccdd077U, 0x3cb1cbd33d218b2cU, 0x3ca4378f3ce19595U,
  0xbcb00385bcda31f6U, 0x3bb801763c5e7a85U, 0x3cf899adbab3c9c3U, 0x3d0d7c44bcddac2eU,
  0x3ba968a9bc7ef9a6U, 0x3b9fc9ee3cf46dd3U, 0x3c4832b5bd011139U, 0xbc9f9aa03b2de0c7U,
  0xbc5f92f03da7ae34U, 0xbe10643b00000000U, 0xbd5f92f03e00dd95U, 0x3db0fefebe42131bU,
  0xbe2493463d6bfea8U, 0xbe169a17bd91f1b2U, 0x3bc6bb80bcebfea8U, 0x3cf86a60be2c5699U,
  0xbb46bb80be0585faU, 0x3de5c8ccbe00dd95U, 0xbd4cf15cbd2de410U, 0xbdf23484bd4085a4U,
  0x3e0ed6c43dd64226U, 0xbe1b427cbdd64226U, 0xbe0585fa3db419ecU, 0x3de8e3ba3e43a092U,
  0xbd595d14bdef1996U, 0x3e3419ecbd4085a4U, 0xbdd00c4abc88a0e8U, 0x3dccf15cbd88a0e8U,
  0xbd0ed6c4be2ac922U, 0xbd65c8ccbd46bb80U, 0xbdfb854ebe3bdd3fU, 0x3e026b0c3de5c8ccU,
  0xbdd327383d6bfea8U, 0x3dc6bb803d3419ecU, 0x3e10643b3da17858U, 0x3dfea03cbc786a60U,
  0x3cc6bb80bd2de410U, 0xbe1ccff33d88a0e8U, 0xbe00dd953e2305cfU, 0xbd88a0e8be1feae1U,
  0xbbc6bb80bd6bfea8U, 0xbd026b0cbb46bb80U, 0x3d1b427cbd9e5d6aU, 0x3e2de410bcba4fc8U,
  0xbd46bb803e18278eU, 0xbe43a0923dc6bb80U, 0xbd4cf15cbc786a60U, 0xbdbd6ab6be3734daU,
  0x3e08a0e83e10643bU, 0xbd88a0e83d9e5d6aU, 0x3d2de4103dc3a092U, 0xbd026b0c3e19b505U,
  0xbe452e093d826b0cU, 0xbe137f29bdf86a60U, 0x3d46bb80bdb734daU, 0x3db419ec3debfea8U,
  0x3dc6bb803e169a17U, 0xbe00dd953d8585faU, 0xbc950ca0be2620bdU, 0xbdccf15c3e2305cfU,
  0xbdaac922bd27ae34U, 0x3e0713713d4cf15cU, 0xbe169a173dd95d14U, 0xbe1b427cbd4085a4U,
  0x3c46bb803db419ecU, 0x3e11f1b23e3a4fc8U, 0xbe3419ec3ac6bb80U, 0x3e0585fa3d7ea03cU,
  0x3dc3a092bd7ea03cU, 0xbd8bbbd63c46bb80U, 0xbd026b0c3d7ea03cU, 0x3e19b5053d3419ecU,
  0x3db18f5a3d2d9d3cU, 0xbd6cbf233e33886aU, 0xbd06280b3e17e994U, 0xbe4157d4bd8235edU,
  0x3e3b6ca73cdcf6a9U, 0xbdc549f3bd74a360U, 0xbe11fe673de8cd05U, 0x3c7c879d3e4549f3U,
  0xbd7c879dbc1dd4c2U, 0xbd8e0c48bdf4a360U, 0x3dd1204e3e358179U, 0x3bbd65b6be59048bU,
  0x3db97397bde0e8c8U, 0x3d8e0c48bdb18f5aU, 0x3e15f085bd3d65b6U, 0xbd95f085bd9dd4c2U,
  0x3e19e2a4bd8e0c48U, 0x3dfc879dbdf0b142U, 0xbcecbf23bcecbf23U, 0xbe62e1d7bcdcf6a9U,
  0xbd7c879dbd2d9d3cU, 0xbc8e0c483cdcf6a9U, 0x3d55126cbdbd65b6U, 0xbd8235edbd15f085U,
  0x3d99e2a43de8cd05U, 0x3e1bdbb33e59048bU, 0xbd95f085bd8235edU, 0xbd8a1a2a3dad9d3cU,
  0xbe62e1d73e570b7cU, 0xbe72aa513e100558U, 0xbd8235edbc5cf6a9U, 0xbdb18f5abd6cbf23U,
  0xbd2d9d3cbe2f964bU, 0xbe4d2e303dcd2e30U, 0x3c8e0c483d8a1a2aU, 0x3d7c879d3e2f964bU,
  0x3b7c879d3e0c1339U, 0x3d4549f33dd5126cU, 0x3c3d65b6bd25b8ffU, 0xbda5b8ffbd2d9d3cU,
  0x3e27b20ebbfc879dU, 0x3df4a360be1bdbb3U, 0x3da5b8ff3e0235edU, 0x3dd1204ebc9dd4c2U,
  0xbdf0b1423e003cdeU, 0x3db18f5abdbd65b6U, 0x3df8957f3e25b8ffU, 0xbe7a8e8ebd4549f3U,
  0x3db58179be0a1a2aU, 0xbe5cf6a9bd15f085U, 0x3d7c879d3c7c879dU, 0xbe1dd4c23cfc879dU,
  0xbd06280b3e570b7cU, 0x3dc549f33e4b3520U, 0x3bbd65b63e64dae6U, 0x3dfc879dbd2d9d3cU,
  0xbe15f085bd2d9d3cU, 0x3ccd2e30bdcd2e30U, 0x3d8a1a2a3c7c879dU, 0xbe6eb832bdad9d3cU,
  0x3d74a3603bbd65b6U, 0xbafc879d3e4350e3U, 0x3de4dae63d95f085U, 0x3e23bff0bde8cd05U,
  0x3b57c8913d36113aU, 0xbdde86d6bdbccf7fU, 0x3e26e520bd65451aU, 0x3e17b9063d65451aU,
  0xbe0a3c7d3e088cecU, 0x3e0a3c7d3d4a4c08U, 0xbad7c8913d001f16U, 0xbc72c1a3be160975U,
  0xbe0d9b9f3e1cc7b9U, 0x3da1d66d3e2894b1U, 0x3d97b9063e21d66dU, 0x3de5451a3dde86d6U,
  0xbd90fac13e0d9b9fU, 0x3c57c8913d21d66dU, 0x3e1609753da1d66dU, 0xbcaf52f63d9b1828U,
  0x3c06dd5bbe088cecU, 0xbe0d9b9f3e402ea1U, 0xbd4a4c083e160975U, 0xbd65451abc21d66dU,
  0x3bd7c8913ca1d66dU, 0xbca1d66d3dc02ea1U, 0xbe2f52f6bd6c035fU, 0x3e2385febe2bf3d4U,
  0xbe2bf3d43ad7c891U, 0x3d1459e43d1b1828U, 0xbe2da365bdc02ea1U, 0xbdde86d63dd7c891U,
  0xbc06dd5b3b57c891U, 0xbd1459e43da894b1U, 0xbe402ea13dd10a4cU, 0x3d90fac13e3ccf7fU,
  0x3e5619003bd7c891U, 0x3e36113a3d8a3c7dU, 0x3e2894b1bd0d9b9fU, 0x3da5358f00000000U,
  0x3e46ece6bb57c891U, 0x3e32b2183e36113aU, 0x3daf52f6be0a3c7dU, 0xbd9e774abe438dc3U,
  0xbd4a4c083d90fac1U, 0x3dd10a4c3d72c1a3U, 0x3d21d66d3e3b1feeU, 0xbca1d66d3e2da365U,
  0xbd86dd5b3e06dd5bU, 0xbdd4696f3d8a3c7dU, 0xbd001f16bde8a43cU, 0xbe17b906be17b906U,
  0x3e088cecbd3ccf7fU, 0x3d4a4c08be2a4442U, 0x3e2a4442bc57c891U, 0x3da1d66d3c86dd5bU,
  0x3d5e86d6bc3ccf7fU, 0xbd1459e43d06dd5bU, 0xbd86dd5b3d21d66dU, 0xbc86dd5b3d2f52f6U,
  0x3e1cc7b9bd9459e4U, 0xbcca4c083dcdab2aU, 0xbc3ccf7f3e0bec0eU, 0xbda5358f3c9459e4U,
  0xbdabf3d4bd72c1a3U, 0x3de1e5f83e0d9b9fU, 0xbdaf52f6bd801f16U, 0x3da894b1bdaf52f6U,
  0x3cd1f7debdcd9809U, 0xbd905a693d14ba3dU, 0x3d94ba3d3d0bfa94U, 0x3dd1f7de3daa9964U,
  0xbcf4f683bb0bfa94U, 0x3d74f6833d7db62cU, 0x3ddab7873dd657b3U, 0x3e44d860bd5ab787U,
  0x3d40788cbd991a12U, 0xbe14ba3d3e2a9964U, 0xbd74f6833d833aebU, 0xbc74f6833e8ae29fU,
  0x3dbc18b73e0e2a7eU, 0x3cd1f7debe51f7deU, 0xbda1d9bbbd263990U, 0x3e033aebbd0bfa94U,
  0xbbd1f7de3e0bfa94U, 0x3b8bfa94bd833aebU, 0xbd7db62cbe09caaaU, 0x3d5ab787be09caaaU,
  0xbdaef9393dc93835U, 0xbda639903d0bfa94U, 0x3d637730bd40788cU, 0xbd51f7debe21d9bbU,
  0xbe105a69bd37b8e2U, 0xbd833aebbe191a12U, 0x3dcd9809bd493835U, 0x3e033aeb3dbc18b7U,
  0x3dc938353d637730U, 0x3dcd9809bde37730U, 0x3d51f7de3d905a69U, 0xbc2ef939bde37730U,
  0x3e6147463e21d9bbU, 0x3e5f175c3dd1f7deU, 0xbc51f7de3e3e48a1U, 0xbe28697abcf4f683U,
  0x3e056ad53c51f7deU, 0x3dc4d860bc74f683U, 0x3e3129233e079abfU, 0x3df4f683be1fa9d1U,
  0xbe010b003e0bfa94U, 0x3e3c18b7bddab787U, 0x3c0bfa94be16ea28U, 0xbd8bfa943dc0788cU,
  0xbdcd98093e128a53U, 0xbc0bfa943e010b00U, 0x3e21d9bb3df096aeU, 0x3dc0788cbd637730U,
  0x3c51f7de3df95658U, 0x3e010b003ce37730U, 0x3dc93835bc2ef939U, 0x3b8bfa94bd263990U,
  0x3e2409a5bd879abfU, 0xbd94ba3d3cf4f683U, 0x3d6377303dec36daU, 0xbd5ab787bdc93835U,
  0x3e2a99643d493835U, 0xbddab787bdaa9964U, 0x3dec36da3e1fa9d1U, 0xbd6377303b8bfa94U,
  0xbdd1f7debddab787U, 0x3cd1f7debce37730U, 0x3e2cc94f3dbc18b7U, 0x3c2ef9393e3e48a1U,
  0xbcea5e96bd5d5955U, 0xbe08b72dbda94450U, 0x3dc34ed33d56d6b5U, 0x3e141bc63e212107U,
  0x3e1ddfb7bd70e137U, 0x3b505414be4eb36cU, 0xbdb30841bd22c1b0U, 0x3dc34ed33e0093e4U,
  0xbdfde678be0f39ceU, 0x3d6a5e96be34a8e9U, 0xbe22c1b0bd8575ddU, 0xbd5d5955be175d17U,
  0x3c9c3f0f3e1ddfb7U, 0x3db649923d98fdbfU, 0x3e316799be0575ddU, 0x3dcd12c43cb64992U,
  0x3de3dbf6bd02348cU, 0x3d8f39ce3d9c3f0fU, 0xbcd054143d1c3f0fU, 0x3d70e1373cdd5955U,
  0x3e0f39cebe41ae2bU, 0x3dc00d823d1c3f0fU, 0x3b9c3f0f3e2ae4f8U, 0xbdfaa52800000000U,
  0x3d0f39ce3d88b72dU, 0x3e0093e4bd7de678U, 0xbdea5e963d294450U, 0xbe175d17be02348cU,
  0x3e02348c3d02348cU, 0x3c6a5e963d6a5e96U, 0x3c5054143e0d9926U, 0xbcb649923d08b72dU,
  0xbde71d463dbccc32U, 0x3d927b1e3df42287U, 0x3e0bf87dbe18fdbfU, 0x3ad05414be0d9926U,
  0xbda603003c6a5e96U, 0xbd49d173be08b72dU, 0xbdafc6f1bde71d46U, 0xbe1ddfb7bda94450U,
  0xbc1c3f0fbd98fdbfU, 0x3e260300bd88b72dU, 0x3cc34ed33dcd12c4U, 0xbdea5e963e2ae4f8U,
  0x3d2944503e0d9926U, 0xbd3649923bd05414U, 0xbe0f39ce3c6a5e96U, 0x3e141bc63c8f39ceU,
  0x3e27a3a8bd927b1eU, 0xbe0575ddbd49d173U, 0xbdafc6f13e3b2b8aU, 0xbc364992bd6a5e96U,
  0xbd63dbf6bd70e137U, 0xbc364992bdd39564U, 0xbc364992bcdd5955U, 0x3dafc6f13d22c1b0U,
  0x3e49d173bc02348cU, 0x3e0a57d53df763d8U, 0xbe03d535bd434ed3U, 0xbe18fdbf3e2e2649U,
  0x3e127b1ebdc69023U, 0x3e03d5353e260300U, 0x3c1c3f0fbe03d535U, 0x3c02348c3e175d17U,
  0xbd63940d3e3559faU, 0x3df1cd4e3deab0adU, 0xbe31cbaabe0558c0U, 0xbcf1cd4ebd955929U,
  0x3da39269bc2aaf0aU, 0x3d9c75c9bcb8e84bU, 0xbe0e3c88bdb1cbaaU, 0x3da720babcd55accU,
  0x3d91cad8bd9c75c9U, 0x3d839198be000347U, 0xbbe3940dbcc7218bU, 0x3d6ab0adbdce3e2cU,
  0x3e3aaf733e300482U, 0xbcc7218b3d98e779U, 0x3da392693e300482U, 0xbb63940d3d78e9eeU,
  0xbcaaaf0a3db1cbaaU, 0xbe039198bda720baU, 0x3cc7218b3e0aae38U, 0xbe2392693da720baU,
  0xbd1c75c93c8e3c88U, 0x3d0e3c883de7225dU, 0x3e11cad8bd000347U, 0x3e000347bc8e3c88U,
  0x3d000347be31cbaaU, 0xbd63940d3e2aaf0aU, 0xbcd55accbd71cd4eU, 0xbd63940d3e61cce5U,
  0xbdfc783ebe18e779U, 0x3ddc776d3e2aaf0aU, 0x3e08e710be1aaea1U, 0x3e1e3cf1bda00419U,
  0xbdaaaf0a3c2aaf0aU, 0xbde7225dbd239269U, 0xbd9559293d63940dU, 0xbdcaafdcbc47218bU,
  0xbde7225d3dd8e91cU, 0x3e11cad83e200419U, 0x3e0558c0bd5c776dU, 0x3e2004193e2c7632U,
  0x3e38e84b3e5ab044U, 0xbe0391983e200419U, 0xbdcaafdc3dd55accU, 0x3d4004ebbe071fe8U,
  0xbe1003b03e2e3d5aU, 0x3e172051bd239269U, 0xbdc7218bbe1003b0U, 0x3c2aaf0abe071fe8U,
  0x3d871fe8bcf1cd4eU, 0x3de3940d3e1c75c9U, 0xbe0c75603be3940dU, 0xbdd8e91c3c2aaf0aU,
  0x3d38e84b3c9c75c9U, 0x3daaaf0a3d71cd4eU, 0x3d1559293dc3933bU, 0x3e2720babbe3940dU,
  0xbe38e84bbe139200U, 0x3c800347be31cbaaU, 0x3dfc783e3d839198U, 0xbdb1cbaabe200419U,
  0xbdd8e91c3d0e3c88U, 0xbdbc769bbe21cb41U, 0x3df8e9ee3b63940dU, 0xbbe3940dbc0e3c88U,
  0x3d155d8100000000U, 0x3c1bdc023c35d602U, 0xbd76c7023ccfd002U, 0x3e4e30623e273962U,
  0x3bcfd002bd35d602U, 0xbdbc5482be3ab4e2U, 0x3d69ca023e01e201U, 0x3dfa0642be0d3f61U,
  0x3dfa06423de68ac2U, 0xbe0b9fc13da599c2U, 0xbdd98dc23dbf93c2U, 0x3d7d45823c9bdc02U,
  0x3ce9ca02bdf387c2U, 0xbd4951823e086081U, 0xbd81e2013df04882U, 0x3dc2d3023e2a78a2U,
  0x3d086081be2c1842U, 0xbde68ac23e2a78a2U, 0x3df04882bd9bdc02U, 0xbce9ca02bcdccd02U,
  0x3e16fd21be107ea1U, 0x3cc2d302bda25a82U, 0xbe1f1b42bcdccd02U, 0xbda25a82be1f1b42U,
  0x3e0a00213b4fd002U, 0x3b9bdc023e3296c2U, 0x3bcfd002bdcfd002U, 0xbded0942be0381a1U,
  0x3dd98dc23e30f722U, 0x3e2db7e23d5ccd02U, 0x3d81e2013cdccd02U, 0x3b4fd0023acfd002U,
  0xbe01e201bd155d81U, 0x3dd30f423e052141U, 0x3c4fd002bd8b9fc1U, 0x3da599c23dfa0642U,
  0xbd28d902bcf6c702U, 0x3d5ccd02bdf387c2U, 0x3df04882bd921e41U, 0xbe3f93c2bd886081U,
  0xbddccd02bd852141U, 0x3e2f57823b9bdc02U, 0x3e0b9fc13e0b9fc1U, 0xbc9bdc023e413362U,
  0x3c9bdc023da25a82U, 0x3b9bdc023c35d602U, 0xbc81e201bccfd002U, 0xbe107ea13e1a3c61U,
  0xbce9ca023e01e201U, 0xbb9bdc02be1d7ba2U, 0x3c35d602be0d3f61U, 0xbcf6c7023e0d3f61U,
  0xbd8edf013e0d3f61U, 0x3e3f93c23b9bdc02U, 0x3e3775a2bdd64e82U, 0xbe0edf013d0edf01U,
  0xbe13bde13e06c0e1U, 0xbe1d7ba23e35d602U, 0x3d495182bb4fd002U, 0x3e20bae23d9bdc02U,
  0xbdb296c2bd086081U, 0x3e3775a23e1a3c61U, 0xbcb5d602bd155d81U, 0xbe0860813e2a78a2U,
  0x3da5d214bdbf9d6dU, 0x3db48f6bbda222beU, 0xbe2d30c03bb0e016U, 0xbca222be3def84c8U,
  0xbd8857663e0a2f11U, 0x3d1ac4133e68261cU, 0xbe18ec683d6476c6U, 0x3d2222bebdb48f6bU,
  0xbdfa92c9bdce5ac4U, 0xbdebd5723d46fc18U, 0x3d2222bebdbbee17U, 0x3e434cc2bda9816aU,
  0xbdb0e0163e434cc2U, 0xbd5d181b3e520a1aU, 0x3e2b5915bd4e5ac4U, 0x3d80f8ba3dd20a1aU,
  0xbdc6fc183d9e7369U, 0xbc84a810bd8c06bcU, 0x3de476c63e02d065U, 0xbc136567bde476c6U,
  0xbe00f8ba3c936567U, 0xbe04a810bc4e5ac4U, 0xbd9e73693c6bd572U, 0xbde0c7713cebd572U,
  0x3def84c83d0c06bcU, 0x3bebd5723e45246dU, 0xbcfa92c93e2b5915U, 0xbd6bd572bd55b96fU,
  0xbcebd5723dfe421fU, 0xbd0c06bcbe153d12U, 0xbc4e5ac4bc936567U, 0xbd5d181bbd136567U,
  0xbdd968c5bd936567U, 0x3d5d181bbdbf9d6dU, 0x3d80f8babd7a92c9U, 0xbd80f8babd84a810U,
  0xbe067fbb3e1e7369U, 0x3df3341ebd0c06bcU, 0xbc30e0163e2f086bU, 0x3dc6fc18bd9ac413U,
  0xbd9365673d136567U, 0xbdfe421f3aebd572U, 0xbe1c9bbe3e118dbcU, 0xbdb48f6bbdd5b96fU,
  0xbe0dde673e3bee17U, 0x3db0e0163e4e5ac4U, 0x3c6bd5723d46fc18U, 0x3d84a810bdfa92c9U,
  0x3dd20a1abda222beU, 0x3d6bd572bd73341eU, 0x3e2b59153e3bee17U, 0xbd8c06bc3e1c9bbeU,
  0x3e02d0653e69fdc7U, 0x3da9816a3e3f9d6dU, 0x3dc6fc183dbbee17U, 0x3dcaab6ebcebd572U,
  0x3cfa92c93e0dde67U, 0x3db83ec13dce5ac4U, 0x3e383ec1bc6bd572U, 0x3d383ec1be2222beU,
  0xbdd5b96fbe0a2f11U, 0x3cbf9d6d3bebd572U, 0x3d73341e3db0e016U, 0x3e23fa693d936567U,
  0x3d255935bddfe8cdU, 0xbe0b83453e0b8345U, 0xbe012db13ddfe8cdU, 0xbda8cb11be012db1U,
  0x3da8cb113e1b03a1U, 0xbc40e8133ba55935U, 0x3e02e69f3dba045bU, 0x3adc76f1be2df5daU,
  0xbdc459ef3e255935U, 0xbe0811693e081169U, 0xbc5c76f13d7805cfU, 0x3c40e8133dcb3da6U,
  0xbda8cb113e194ab4U, 0xbc5c76f13d6a3e60U, 0x3e384b6dbdf493f3U, 0x3d5593393d89ca57U,
  0xbe4b3da63e15d8d8U, 0x3ca559353dedb03cU, 0xbd47cbca3dceaf82U, 0xbd559339bd02e69fU,
  0x3dd59339bd40e813U, 0x3dea3e60bd3320a4U, 0xbdac3cecbe23a047U, 0x3dc7cbcabd635aa9U,
  0xbda1e7593e1b03a1U, 0x3e10ae0ebe10ae0eU, 0x3d941feabd10ae0eU, 0xbd1e757dbd559339U,
  0x3d2c3cecbda1e759U, 0x3e384b6dbd7ee987U, 0x3adc76f13c255935U, 0x3dcb3da63d2c3cecU,
  0x3d2c3cecbdc0e813U, 0x3d255935be194ab4U, 0x3cb320a43d9b03a1U, 0x3d5c76f1be202e6bU,
  0xbda559353c5c76f1U, 0x3dac3cecbe1b03a1U, 0xbadc76f13c09ca57U, 0x3da8cb11bd89ca57U,
  0xbcc0e8133d89ca57U, 0x3e3a045bbc40e813U, 0x3d82e69f3de35aa9U, 0x3df493f33d02e69fU,
  0xbdbd7637bd86587bU, 0xbda8cb113bdc76f1U, 0xbe02e69fbd255935U, 0x3cea3e60bd90ae0eU,
  0x3d2559353e4eaf82U, 0x3e4612ddbdafaec8U, 0x3da559353dceaf82U, 0xbdba045bbd02e69fU,
  0x3e194ab43e34d992U, 0x3e09ca573d7805cfU, 0x3cea3e60bddfe8cdU, 0xbd255935bd9791c6U,
  0x3d1e757d3cceaf82U, 0x3dc7cbca3cdc76f1U, 0xbde6cc84bde6cc84U, 0xbdd905153e5abe03U,
  0xbd9e757dbcea3e60U, 0x3e1791c6bda1e759U, 0xbdceaf82bdf493f3U, 0xbdc459efbdba045bU,
  0x3d6e9aa43e52c455U, 0x3d66a68d3e1f11c3U, 0x3d9f11c3bd8b2f8aU, 0x3cceca4abe0b2f8aU,
  0xbd6e9aa4bb7e82d1U, 0x3d3ee21d3d8b2f8aU, 0xbdf294afbd87357fU, 0x3e210ec83e5ab86cU,
  0x3b7e82d1bd3ee21dU, 0xbd2ef9f0be0d2c90U, 0x3c3ee21d3e053879U, 0xbd2ef9f03cfe82d1U,
  0x3d07357f3e1f11c3U, 0xbcee9aa43dc6d633U, 0x3dc6d6333d36ee06U, 0xbc7e82d1bdaaffe4U,
  0x3e44d92eU, 0x3da705d9bdaaffe4U, 0x3df294afbd5eb277U, 0x3e48d3393d971dacU,
  0xbcaef9f0bdaef9f0U, 0x3e191ab2bd5eb277U, 0xbc7e82d1bdbae811U, 0x3e013e6e3daef9f0U,
  0xbda30bce3d6e9aa4U, 0x3d9f11c3U, 0x3dd2c4553cbee21dU, 0xbc7e82d1bdbae811U,
  0x3e4ad03f3e68a393U, 0x3bfe82d1bdaaffe4U, 0xbc9f11c3be033b74U, 0xbdb2f3fb3e230bceU,
  0xbd07357f3d7e82d1U, 0xbe053879bc7e82d1U, 0x3e36ee063d0f2996U, 0x3d171dac3c7e82d1U,
  0x3c7e82d13e5ab86cU, 0xbd4eca4a3d8b2f8aU, 0xbdeaa0993e07357fU, 0x3d971dacbafe82d1U,
  0xbdbae811bb7e82d1U, 0xbd2705d93d971dacU, 0x3d4eca4abd971dacU, 0x3e7c85cbbd87357fU,
  0xbdd2c455bd2705d9U, 0x3e56be60bc5eb277U, 0x3e66a68dbd768ebaU, 0xbd4eca4a3e1b17b7U,
  0x3d3ee21dbd07357fU, 0xbe1f11c33e2affe4U, 0x3df68ebabbbee21dU, 0x3e2affe43b7e82d1U,
  0xbdf294af3dd6be60U, 0xbddab86cbdd2c455U, 0x3bbee21d3d87357fU, 0x3e34f101bdd6be60U,
  0x3e2902df3d8b2f8aU, 0x3e3ee21d3e40df22U, 0xbdb2f3fbbddab86cU, 0x3daaffe43c9f11c3U,
  0x3e36ee063d971dacU, 0x3e40df223c1f11c3U, 0x3e0b2f8a3d833b74U, 0xbe0f2996bde2ac82U,
  0x3da6d152bd626539U, 0x3d6e4f9abdd085a7U, 0xbdc795debd2cc683U, 0xbdc795de3e1ae6f1U,
  0x3d449b463dfa39fcU, 0xbd1ae6f13e0194e2U, 0xbd83122ebd3ea615U, 0xbdc1a0ad3e001796U,
  0xbd0efc90be0194e2U, 0xbdfa39fc3c6e4f9aU, 0xbd4a90763db2bbb4U, 0xbe048f7bbdbbab7dU,
  0x3c83122e3deb5502U, 0xbd7444cbbcd67ad8U, 0x3d8c01f7be0a84abU, 0x3da0dc22bd7a39fcU,
  0x3d03122eU, 0xbbee4f9abd1ae6f1U, 0x3dafc11b3db5b64cU, 0xbe2b49373d8c01f7U,
  0x3d9de189be3d28c9U, 0xbdd085a73d20dc22U, 0xbd567ad8bd801796U, 0xbdf14a333e001796U,
  0x3d26d1523dc1a0adU, 0xbb8efc903e1ae6f1U, 0x3dca9076bcfa39fcU, 0x3e166f0dbd26d152U,
  0xbddc70083e078a13U, 0xbdacc6833dd085a7U, 0xbdca90763dca9076U, 0xbe0c01f7be255406U,
  0xbe1ae6f13dcd8b0fU, 0xbd685a6a3e0efc90U, 0x3df444cbbc9ae6f1U, 0x3d89075f3e3bab7dU,
  0x3d03122e3c26d152U, 0x3c26d152bdd67ad8U, 0x3e26d1523e26d152U, 0x3d860cc73e137474U,
  0xbe2cc683be313e68U, 0x3e1079dcbde55fd1U, 0x3d09075f3d14f1c0U, 0x3e1c643d3e0194e2U,
  0xbe2cc683bd97ec59U, 0xbcca90763d83122eU, 0xbd83122e3d8efc90U, 0x3e17ec59bd626539U,
  0x3df444cbbcb2bbb4U, 0xbe1ae6f13d7a39fcU, 0x3ca6d1523e1c643dU, 0xbd8c01f73db5b64cU,
  0x3db5b64cbd89075fU, 0x3dd67ad8bdfa39fcU, 0x3e0a84abbe3d28c9U, 0xbe3439003d97ec59U,
  0x3e2cc683bde55fd1U, 0xbd449b463e1969a5U, 0xbc567ad83ddc7008U, 0x3d8017963d2cc683U,
  0xbe20dc22bda6d152U, 0xbdc49b46bd860cc7U, 0xbcbea6153e20dc22U, 0xbdbea6153d626539U,
  0x3ddcd868be17d4c7U, 0x3d31e7373dabc4c2U, 0xbe0b8fde3d933af0U, 0xbe2a3c25bda29113U,
  0x3e195d643e1ae602U, 0x3d9f7fd9bd691d51U, 0xbdfe95e9be1f7fd9U, 0x3dd9c72d3e210876U,
  0xbd964c2abe0d187bU, 0x3ddfe9a2bdf25100U, 0xbdd9c72d3dc44e95U, 0xbe3809ac3dbb1ae6U,
  0xbde91d513ce91d51U, 0xbd9c6e9fbe42c5f8U, 0x3ddfe9a23d2bc4c2U, 0xbe1ae6023dfb84afU,
  0x3e0d187b3daed5fdU, 0xbe0d187bbe2419b1U, 0x3e14c38d3cb809acU, 0x3ddcd868bd5cd868U,
  0x3e28b3883d933af0U, 0xbe1ae602bdf87375U, 0x3d06f6063d62fadcU, 0x3e229113bd50937eU,
  0xbdbb1ae63e2419b1U, 0x3bf5623a3d6f3fc6U, 0x3d195d643d964c2aU, 0x3d83e4ccbd995d64U,
  0x3e2d4d603d444e95U, 0xbde2fadcbe17d4c7U, 0x3dd0937e3e11b253U, 0xbd5cd868bd80d392U,
  0x3e34f8713d0d187bU, 0x3d6f3fc63def3fc6U, 0x3de2fadcbc5cd868U, 0x3e087ea4bcdcd868U,
  0xbb444e953df25100U, 0xbdf5623a3c9f7fd9U, 0x3daed5fd3cc44e95U, 0xbda8b3883cd0937eU,
  0xbd56b5f33d5cd868U, 0x3e195d643e2ed5fdU, 0xbd83e4ccbdf5623aU, 0x3c86f6063d62fadcU,
  0x3e0ea118bd1f7fd9U, 0xbd25a24e3e2d4d60U, 0xbdef3fc6bbf5623aU, 0xbd3e2c20be0d187bU,
  0x3d1f7fd9be2419b1U, 0x3e210876bddfe9a2U, 0x3e00d392bdf5623aU, 0x3d0d187bbdb809acU,
  0x3dfe95e93cf5623aU, 0xbdec2e8bbe164c2aU, 0xbe2bc4c2be06f606U, 0xbc2bc4c2bd9c6e9fU,
  0x3e164c2abe1df73cU, 0x3e1ae6023e0b8fdeU, 0xbce91d51be0b8fdeU, 0x3d6f3fc63dc44e95U,
  0xbbf5623abc2bc4c2U, 0xbdb809acbd06f606U, 0x3e28b388be2d4d60U, 0x3da8b388bcd0937eU,
  0x3c787bf73e0f393bU, 0x3d3375fa3ca5a7faU, 0xbd97d9fa3e352fb9U, 0xbe06987b3d3a5cf9U,
  0x3e49e4b9be3c16b9U, 0xbd97d9fabdcf11f8U, 0xbc97d9fabadcdff8U, 0xbc787bf7bcf87bf7U,
  0xbe1b4d7a3d4f11f8U, 0x3e0bc5bb3dac8efaU, 0x3e0bc5bb3d787bf7U, 0xbc8a0bfbbd5cdff8U,
  0x3dc82af900000000U, 0xbdb6e979be12acbbU, 0x3cdcdff8bdfbef77U, 0xbda2347abc4143f9U,
  0x3e207ababc5cdff8U, 0x3d90f2fb3e2ad53aU, 0x3ba5a7fa3e23ee3aU, 0x3dff62f73dc4b779U,
  0x3cf87bf73d90f2fbU, 0xbd0a0bfbbd90f2fbU, 0x3bdcdff83d2c8efaU, 0x3e06987b3e10f2fbU,
  0x3e1ec0fabe42fdb9U, 0xbe0f393bbcdcdff8U, 0x3cf87bf73e10f2fbU, 0x3db375fabdc143f9U,
  0xbd17d9fabd482af9U, 0xbe1d073a3d4143f9U, 0xbe0d7f7bbe0d7f7bU, 0xbd4f11f83d8d7f7bU,
  0xbdcb9e79be23ee3aU, 0x3dd96c783ca5a7faU, 0xbd0324fb3e016b3bU, 0x3dcf11f8bdbdd079U,
  0xbdc82af93d55f8f8U, 0xbd9ec0fabc5cdff8U, 0x3d8a0bfb3d3a5cf9U, 0x3c787bf73c0a0bfbU,
  0xbdc82af93e5b2638U, 0x3d0a0bfb00000000U, 0xbe2761babde05378U, 0x3dc143f93d0a0bfbU,
  0xbdfbef77bd0324fbU, 0x3cf87bf73e0bc5bbU, 0x3e0bc5bbbcc143f9U, 0xbdf194f73e2ad53aU,
  0xbdf87bf73cdcdff8U, 0xbd8d7f7bbe14667bU, 0xbdc82af9bd8d7f7bU, 0x3e0f393bbd55f8f8U,
  0xbe10f2fbbd6aadf8U, 0xbe16203b3e467139U, 0x3dac8efa3da2347aU, 0xbe0324fb3e42fdb9U,
  0xbc5cdff83de05378U, 0x3dfbef77bd4143f9U, 0x3da2347a3e1b4d7aU, 0x3e0a0bfbbe12acbbU,
  0x3d4143f9bd4f11f8U, 0xbdba5cf9bc8a0bfbU, 0x3d17d9fabdf50877U, 0xbe04debbbdba5cf9U,
  0x3cb81b23bd0702d5U, 0xbe196bf2bd965a6dU, 0x3e00dfcb3d25b206U, 0x3d196bf2bdb1f819U,
  0x3dd3b8cebd196bf2U, 0x3cc46136be273ac8U, 0x3d8a145abb9348e8U, 0xbe2a4c4d3e1f8efcU,
  0xbd4a84403e2d5dd2U, 0xbe1037643e0eaea1U, 0xbcf57984be11c026U, 0xbde933703c5ced5dU,
  0x3cb81b23U, 0xbde93370be1f8efcU, 0x3da5b2063c446136U, 0xbd00dfcb3dd0a749U,
  0xbcd0a749be35099eU, 0x3e00dfcbbdb1f819U, 0xbd8a145abd1f8efcU, 0x3d7579843d83f150U,
  0x3d9f8efc3df88b08U, 0xbe103764bd9f8efcU, 0xbe1c7d77bd3e3e2cU, 0x3b4461363d631066U,
  0xbdec44f53dbe3e2cU, 0xbc757984bd7b9c8dU, 0xbd1f8efcbd31f819U, 0xbd8702d5be0a145aU,
  0xbd8702d5bdf267ffU, 0x3dd6ca53be31f819U, 0xbe14d1ab3d9348e8U, 0x3e0d25dfbe057a13U,
  0x3e0eaea1be2bd50fU, 0xbd6933703db81b23U, 0xbde310663e1348e8U, 0xbd4a84403e11c026U,
  0xbd2bd50f3e0702d5U, 0xbdc461363d903764U, 0x3d80dfcb3d6f567aU, 0x3e11c0263e2117beU,
  0x3e057a133d25b206U, 0xbe0a145a3dd0a749U, 0xbdf57984be1f8efcU, 0x3dd3b8ce3e00dfcbU,
  0xbdbb2ca73ac46136U, 0xbe3fc6efbe1c7d77U, 0x3e11c026be1c7d77U, 0x3e1348e8bdd0a749U,
  0x3d8702d500000000U, 0xbde933703dd9dbd8U, 0xbdef567a3d00dfcbU, 0xbde621ebbd196bf2U,
  0x3e165a6d3e14d1abU, 0xbdb5099ebe0b9d1cU, 0x3cb81b23be1348e8U, 0x3e1e0639be42d874U,
  0x3dfeae123d50a749U, 0xbe1c7d773e1c7d77U, 0xbe31f8193def567aU, 0xbde621ebbe2117beU,
  0xbc5ced5dbe3fc6efU, 0xbe2117be3def567aU, 0xbc1348e8be03f150U, 0xbcd0a749be3380dbU,
  0x3cc4bef73d219cddU, 0x3ae0da3f3e332deaU, 0xbdeee7e33ae0da3fU, 0xbc9a960bbddd56d6U,
  0xbe252046bdafaa81U, 0x3d4bc5c93e5f188bU, 0xbdc4bef73da19cddU, 0xbc7cf58700000000U,
  0x3d9a960b3d219cddU, 0xbc0c8867bce0da3fU, 0xbe0c88673e2de8cdU, 0x3dc84260bd8c8867U,
  0xbc0c88673e2c2718U, 0x3dafaa81bce0da3fU, 0xbcb6b153be5b9522U, 0xbc60da3f3de0da3fU,
  0xbd8581953e18d457U, 0x3dc4bef7bde7e111U, 0xbdd650043e2faa81U, 0xbd058195bdcf4932U,
  0xbe484260bcd2cc9bU, 0xbde7e1113e1c57c0U, 0x3da8a3afbdafaa81U, 0xbde0da3f3e3db825U,
  0xbdba34bcbdf26b4cU, 0x3e59d36d3d36b153U, 0x3be0da3fbd8904feU, 0xbcc4bef73c44bef7U,
  0xbe2de8cd3dc84260U, 0xbdf9721ebe003c78U, 0x3e413b8ebdf26b4cU, 0x3d9a960bbd058195U,
  0xbe138f39be565004U, 0x3deb647abe138f39U, 0x3ce0da3fbd219cddU, 0x3ceee7e33e1550eeU,
  0xbe18d4573b60da3fU, 0x3cc4bef7bdeb647aU, 0x3c28a3afbba8a3afU, 0x3e138f39bd058195U,
  0xbcb6b1533c0c8867U, 0x3dc4bef73c7cf587U, 0xbda520463cfcf587U, 0xbd8904fe3d9e1974U,
  0x3e2de8cdbdf26b4cU, 0xbde0da3f3d59d36dU, 0xbae0da3f3e4680acU, 0xbe5b95223de45da8U,
  0x3e1a960bbdcbc5c9U, 0x3dd650043d219cddU, 0x3db32deabdeee7e3U, 0xbd1a960b3e03bfe1U,
  0x3e0581953c9a960bU, 0xbe1fdb29be07434aU, 0x3ae0da3fbe058195U, 0xbcd2cc9bbae0da3fU,
  0xbddd56d63da8a3afU, 0xbdb6b1533e100bd0U, 0x3ba8a3af3ce0da3fU, 0xbdd9d36d3ddd56d6U,
  0x3dd9d36d3d44bef7U, 0xbe0ac6b33d52cc9bU, 0x3d138f39bd75eeb5U, 0xbdc84260be44bef7U,
  0x3e4f8ed3bdad3cc0U, 0xbe3bf2363e4762e7U, 0xbdee9c20bceb575cU, 0x3ddaff833cd13135U,
  0xbd29f7fbbd3d9498U, 0xbdfef3f93d64cdd2U, 0x3e060386bc513135U, 0xbe0603863e011c5fU,
  0xbceb575c3b513135U, 0x3ad13135bd0fd1d4U, 0xbe1174373e2b9a5dU, 0x3e33c64abde81297U,
  0xbda9f7fb3c513135U, 0xbe19a023bc6b575cU, 0x3e14b8fcbdd475faU, 0xbe3568acbbd13135U,
  0x3dee9c20bd99a023U, 0xbe19a023bb9ce4e8U, 0xbd786a6f3d513135U, 0x3dd475fa3db08185U,
  0x3deb575c3c02bec1U, 0xbe3568ac3e490549U, 0x3e33c64a3dd13135U, 0x3e3bf2363e1ce4e8U,
  0x3e427bbfbdb70b0eU, 0x3cf86a6f3c513135U, 0x3c1ce4e8bd71e0e5U, 0x3ca9f7fb3dfef3f9U,
  0xbb5131353d5e4448U, 0xbca9f7fb3c370b0eU, 0x3d0fd1d43e165b5eU, 0x3dc0d95d3df525aaU,
  0xbd6b575cbde81297U, 0x3da029adbd860386U, 0x3ceb575c3ddaff83U, 0xbc82bec13da36e71U,
  0xbe3081853e2d3cc0U, 0x3d09484b3d441e22U, 0x3d4aa7abbc8fd1d4U, 0xbad131353d965b5eU,
  0xbde81297bd57babfU, 0xbd370b0e3dfef3f9U, 0xbd8c8d103ceb575cU, 0x3e21cc0f3d0fd1d4U,
  0x3e2029ad3df86a6fU, 0x3dba4fd3be011c5fU, 0x3d09484b3d965b5eU, 0x3da36e713e2d3cc0U,
  0xbe29f7fbbe14b8fcU, 0xbd860386bd82bec1U, 0xbdde4448be09484bU, 0xbd786a6f3dc0d95dU,
  0x3d6b575c3dfef3f9U, 0xbceb575cbcf86a6fU, 0xbe0603863ca9f7fbU, 0x3e1e874a3e490549U,
  0xbe29f7fbbd7ef3f9U, 0xbd8603863d71e0e5U, 0x3d8603863d02bec1U, 0xbe17fdc13d9ce4e8U,
  0x3b5131353dc41e22U, 0xbc9ce4e8bc370b0eU, 0xbd4aa7ab3dee9c20U, 0x3d965b5e3dd475faU,
  0xbe07bd7cbe04821dU, 0x3c9b21b2be2ce839U, 0xbc68b28bbdbeaec0U, 0x3cb4fca53e095b2bU,
  0x3c68b28bbc0146bfU, 0x3e07bd7cbd68b28bU, 0x3db4fca53d75a004U, 0x3e383803bdf5a004U,
  0xbb9b21b2bddf0070U, 0xbb4ed7983d3b7362U, 0xbe1e5d103d0146bfU, 0xbe3eaec03dd212f6U,
  0x3d21986f3dcb9c3aU, 0xbc4ed798bdbb7362U, 0x3dced7983da4d3cdU, 0x3e45257d3e1b21b2U,
  0xbd554e553cb4fca5U, 0x3b9b21b23e198403U, 0x3e302397bdc1ea1eU, 0xbc4ed798be14aaf5U,
  0xbd9b21b23c9b21b2U, 0xbd97e654be1e5d10U, 0xbd9b21b23da80f2cU, 0x3b4ed798bdef2948U,
  0x3d280f2cbdab4a8aU, 0xbc4ed798bc8e3438U, 0x3d8e34383e0af8daU, 0xbdcb9c3a3d94aaf5U,
  0x3e0af8da3d6f2948U, 0x3d2e85e8bddbc512U, 0xbd07bd7cbbced798U, 0xbb9b21b2bd280f2cU,
  0x3dfc16c1bcc1ea1eU, 0x3e3d11113df8db63U, 0x3d34fca53d14aaf5U, 0xbc0146bf3d87bd7cU,
  0x3debede9bdc860dbU, 0xbdfc16c13ca80f2cU, 0xbdff5220bd8e3438U, 0xbe0e3438bc34fca5U,
  0x3e1e5d10be0e3438U, 0xbd4ed7983e130d46U, 0x3d280f2cbdf264a6U, 0x3c8e34383d14aaf5U,
  0xbd9e5d103ce8b28bU, 0xbe061fcdbd4860dbU, 0x3e095b2bbde5772dU, 0x3d75a0043d94aaf5U,
  0xbc68b28b3e061fcdU, 0x3cb4fca5bd8af8daU, 0x3e3b73623e369a54U, 0xbe116f97bd21986fU,
  0x3e2ce8393d916f97U, 0x3d68b28bbd2e85e8U, 0xbdcb9c3a3d2e85e8U, 0xbdf5a004bd84821dU,
  0xbd94aaf5bd87bd7cU, 0xbe1ffac0bdfc16c1U, 0x3db838033e4387ceU, 0x3e4d39e9bd9b21b2U,
  0x3de23bce3da1986fU, 0x3e1b21b2bca80f2cU, 0xbe07bd7cbdbb7362U, 0xbce8b28b3e1e5d10U,
  0x3e1ffb963b99955dU, 0xbd2661d0be14c8b2U, 0x3df992b8bc19955dU, 0x3d8cc8ebbe166241U,
  0xbe0662b23c7ff8f1U, 0x3e19955dbe132f24U, 0x3e0995cebb4cc727U, 0x3e44c75fbdecc645U,
  0xbd5ff9d3be2cc809U, 0xbdb9947b3e0662b2U, 0x3ddcc6b600000000U, 0x3d8662b2bc332e42U,
  0x3c7ff8f13e24c841U, 0xbdd993993c99955dU, 0x3c99955d3c99955dU, 0x3e4b2d993deff962U,
  0xbd4660ee3daffb26U, 0x3df992b8bdb6615fU, 0x3c332e423d4660eeU, 0x3d1ffb96be0e6279U,
  0x3e2661d03db32e42U, 0xbdc9940a3e332e42U, 0xbe2661d0bdaffb26U, 0x3accc7273d599399U,
  0xbe34c7d03d2cc809U, 0xbb4cc727bde6600cU, 0x3ddff9d3bd9ffb96U, 0xbdb32e423ca661d0U,
  0x3da661d0bdc660eeU, 0xbd5ff9d33cf32c7eU, 0xbd7ff8f13daffb26U, 0x3e49940a3dfff8f1U,
  0x3e19955d3e44c75fU, 0xbda661d0be0995ceU, 0x3e36615f3d2cc809U, 0x3bccc727be0662b2U,
  0xbda32eb3bdccc727U, 0xbe2e6197be032f95U, 0x3e1662413d6cc645U, 0x3de32cefbd2661d0U,
  0xbde32cefbdeff962U, 0x3ddcc6b63d2661d0U, 0x3e4b2d993e3e6126U, 0x3d0cc8eb3e2661d0U,
  0xbdb32e423d99955dU, 0xbd19955dbd0cc8ebU, 0xbdc9940a3df65f9bU, 0x3e4b2d99be04c923U,
  0xbddcc6b63dd6607dU, 0x3d9cc87a3d3ffab5U, 0xbcfff8f13d3ffab5U, 0x3e0662b2bc19955dU,
  0x3ddcc6b6be1e6208U, 0x3e2e61973ce6600cU, 0x3e39947b3d99955dU, 0xbd9ffb96be34c7d0U,
  0x3e2661d0bd132f24U, 0xbd332e423e0e6279U, 0x3dccc7273cbffab5U, 0x3daffb263b99955dU,
  0x3dd993993d0662b2U, 0xbdc32dd13d732c7eU, 0x3db6615f3e119596U, 0x3e49940abaccc727U,
  0x3dc585d13e3f26a9U, 0x3cf21fe83e10f4c9U, 0xbdeef0543ddbd2dcU, 0xbd5244213da27a76U,
  0xbddbd2dc3debc0c0U, 0x3e3a5f4cbc656198U, 0x3d98ebbb3d32685aU, 0xbdbbf716bc98ebbbU,
  0x3de561983e372fb8U, 0x3e28d99e3d128c93U, 0x3e05ce43bdb597eeU, 0x3e4a4d2fbd18ebbbU,
  0xbdd8a349bdfbaea3U, 0xbce56198bc98ebbbU, 0x3ccbe4f9bd25aa0aU, 0xbd128c933df87f0fU,
  0xbd2c0932be0dc535U, 0x3d9f4ae3be2da0fcU, 0xbd7ede373dfbaea3U, 0xbcfede373dd573b5U,
  0x3e30d090bd928c93U, 0x3c7ede37be18ebbbU, 0x3b98ebbbbca5aa0aU, 0x3dfbaea3bd0c2d6bU,
  0x3e28d99ebde23204U, 0x3e43ee0700000000U, 0x3e07660d3e3597eeU, 0x3e30d0903ccbe4f9U,
  0xbb98ebbb3daf38c6U, 0xbe043679bbfede37U, 0x3b4be4f9be38c782U, 0x3d18ebbbbe05ce43U,
  0x3d656198be25aa0aU, 0x3df21fe8bbcbe4f9U, 0x3e0f5cff3d32685aU, 0x3e08fdd7bd58a349U,
  0xbd5244213e0c2d6bU, 0x3d58a3493dbf26a9U, 0x3da27a763d787f0fU, 0x3e14245d3dbbf716U,
  0xbd1f4ae33d928c93U, 0xbe128c93bacbe4f9U, 0xbe340024bd3f26a9U, 0xbe14245d3d25aa0aU,
  0xbdc8b5653e10f4c9U, 0xbd928c93bd38c782U, 0x3da27a76bc18ebbbU, 0xbdb8c782bcbf26a9U,
  0xbe32685abd58a349U, 0x3d8f5cff3e48b565U, 0xbd8c2d6b3e3a5f4cU, 0x3e0436793e4a4d2fU,
  0x3e0f5cff3d2c0932U, 0xbd05ce43bdf54f7cU, 0xbd6561983cb2685aU, 0xbd787f0fbe0a95a1U,
  0xbc18ebbbbdc8b565U, 0x3e2da0fc3dcf148dU, 0xbd32685abdd8a349U, 0xbe227a763df21fe8U,
  0x3dc8b5653da5aa0aU, 0xbe0106e63dac0932U, 0xbe15bc273e05ce43U, 0x3e18ebbb3cd8a349U,
  0x3e12b7ab3dfc1b26U, 0xbd1d0cb73c94c8adU, 0xbe04409a3b04409aU, 0xbd77f9213de7710eU,
  0x3dd6e8fa3e3c0bdbU, 0xbe022f98bd4ea4f1U, 0xbda972c53c04409aU, 0xbd801e95bda972c5U,
  0xbd88629fbde34f09U, 0xbd56e8fa3e06519cU, 0xbdd2c6f5bde7710eU, 0x3d88629f3e6b9312U,
  0x3d98eab23bc660e7U, 0xbdb9fad9U, 0xbb84409a3da12ebcU, 0x3c2550c0bda550c0U,
  0xbd6fb5173cb5d8d4U, 0x3da550c03e423ee2U, 0xbdfc1b26bc4660e7U, 0x3e12b7abbd88629fU,
  0xbdb9fad93c84409aU, 0x3e12b7abbde7710eU, 0xbd3e1cdd3e0a73a1U, 0x3d90a6a8bdf3d71cU,
  0xbde34f09bbc660e7U, 0x3c2550c03e08629fU, 0x3da972c53df3d71cU, 0x3e35d8d43e022f98U,
  0xbc67710ebd67710eU, 0x3e212ebc3c94c8adU, 0xbd04409a3e12b7abU, 0x3e2550c03d35d8d4U,
  0x3e58f9fdbc4660e7U, 0x3e18eab2be18eab2U, 0x3c94c8adbe0e95a6U, 0x3d0c84a4be04409aU,
  0x3e3c0bdb3df7f921U, 0xbddf2d04bcd6e8faU, 0x3e1afbb4bd14c8adU, 0x3e04409abc84409aU,
  0xbe1d0cb7bd67710eU, 0x3e5f2d04be0c84a4U, 0xbdefb5173c67710eU, 0x3e2fa5cd3c04409aU,
  0xbd5f2d04bdf3d71cU, 0x3bc660e7bd77f921U, 0x3d3e1cdd3dca82ecU, 0xbbc660e7bd90a6a8U,
  0x3dad94ca3e4871e9U, 0x3d88629fU, 0x3e8338193cf7f921U, 0x3e001e95bc4660e7U,
  0xbdcea4f1bc2550c0U, 0x3d3e1cdd3e2550c0U, 0xbdd2c6f53c94c8adU, 0xbd90a6a8bd14c8adU,
  0x3c94c8adbdd2c6f5U, 0xbdb5d8d43e4a82ecU, 0x3d2550c03d3e1cddU, 0x3ddb0aff3c04409aU,
  0x3d8c84a4bce7710eU, 0xbb04409a3dfc1b26U, 0xbd98eab2bd14c8adU, 0x3e233fbe3c67710eU,
  0x3c9821043d1dfae7U, 0xbda6c1bbbb3b3c54U, 0x3d924722be03a66bU, 0xbe13bd9abe09804eU,
  0x3d9b0df6bd124722U, 0x3d00b97abdd590d0U, 0x3dde57a4bdaf888fU, 0xbdfb9911be03a66bU,
  0xbe10d0a93c3b3c54U, 0xbe356271be2f888fU, 0x3e0c6d3f3db56271U, 0x3ddb6ab23d643186U,
  0x3d52a3de3e0f5a30U, 0xbcd2a3de3dac9b9dU, 0xbd4cc9fc3df2d23dU, 0xbe182104be283833U,
  0x3c8c6d3fbe2b2525U, 0xbd00b97abb8c6d3fU, 0xbe283833babb3c54U, 0xbd9821043c8c6d3fU,
  0x3df5bf2ebc52a3deU, 0xbd6a0b693ca3d4caU, 0xbe153413be356271U, 0x3d5e57a4be20e7d8U,
  0xbdcfb6edbe13bd9aU, 0xbd2f888fbd29aeacU, 0xbd9821043d06935cU, 0x3dd590d0bcf5bf2eU,
  0x3d6a0b693dd590d0U, 0x3d80b97abe384f63U, 0x3d9821043dac9b9dU, 0xbd52a3debe051ce4U,
  0xbda6c1bb3c23d4caU, 0xbdb27580bdefe54cU, 0xbdb56271be1c846eU, 0xbe0de3b8be124722U,
  0x3dfb9911bc8c6d3fU, 0xbda6c1bb3dbb3c54U, 0x3daf888fbe10d0a9U, 0xbe254b42bdbe2945U,
  0xbd00b97a3cbb3c54U, 0x3d3b3c54bd4cc9fcU, 0x3d9dfae7bd86935cU, 0x3d411637be10d0a9U,
  0x3d9b0df6be20e7d8U, 0xbdcfb6edbde43186U, 0x3da6c1bb3e1b0df6U, 0xbd6a0b693db84f63U,
  0x3dc116373bbb3c54U, 0xbbea0b69be39c5dbU, 0xbd8c6d3fbdfb9911U, 0xbca3d4ca3e1f7160U,
  0xbd953413be30ff07U, 0xbd6fe54cbe327580U, 0xbc8c6d3f3d924722U, 0x3c8c6d3f3db27580U,
  0x3df2d23d3d356271U, 0xbe1dfae73c52a3deU, 0x3c3b3c543cd2a3deU, 0x3db275803e2b2525U,
  0x3dcfb6edbd8c6d3fU, 0x3da6c1bb3d587dc1U, 0xbabb3c54be254b42U, 0x3da3d4ca3d0c6d3fU,
  0xbe05bc573de78adcU, 0x3ccf96faU, 0xbd8bb9503d97b341U, 0xbbbf9f0e3e638ce1U,
  0xbe17b341bd9faf37U, 0xbdafa7233aff7ebeU, 0xbd2fa7233e19b23eU, 0xbd07bb55bd2fa723U,
  0x3bbf9f0e3c7f7ebeU, 0x3cbf9f0e3dff7ebeU, 0xbc7f7ebebdcf96faU, 0x3dd792f03e6f86d2U,
  0xbd87bb55bdaba928U, 0x3e27ab2dbd93b546U, 0x3e638ce13dff7ebeU, 0xbd1faf373e7d7fc1U,
  0x3df782c83de78adcU, 0x3e5d8fe9bd7782c8U, 0xbd5f8ee6be05bc57U, 0x3c9faf37be1faf37U,
  0xbc1faf37be1bb13cU, 0xbda7ab2d3e03bd5aU, 0x3c7f7ebe3d0fb74bU, 0xbd3f9f0ebdcb98ffU,
  0xbe35a41b3e33a51eU, 0xbd17b3413dfb80c3U, 0xbdafa7233da7ab2dU, 0x3c7f7ebe3e11b648U,
  0x3e4d97fd3d83bd5aU, 0xbd8bb9503e3ba114U, 0xbd7782c83df384cdU, 0xbda7ab2d3dbba114U,
  0x3df384cd3e15b443U, 0xbdaba928bd1faf37U, 0x3e0bb950bd7f7ebeU, 0xbd07bb553dc79b04U,
  0xbda7ab2dbc3f9f0eU, 0xbe23ad32be03bd5aU, 0x3e3ba1143e25ac2fU, 0x3b7f7ebebdef86d2U,
  0xbd9faf37bd07bb55U, 0x3dafa723be19b23eU, 0x3d83bd5abd9bb13cU, 0x3e2ba9283dcb98ffU,
  0x3cef86d2bdafa723U, 0x3e03bd5a3d9bb13cU, 0x3e5f8ee6be25ac2fU, 0x3df782c83d5f8ee6U,
  0x3cafa723bddf8ee6U, 0xbbbf9f0e3dc79b04U, 0x3de78adcbdbf9f0eU, 0x3cbf9f0e3def86d2U,
  0x3d7f7ebebd4f96faU, 0xbcff7ebe3cbf9f0eU, 0x3e05bc57be19b23eU, 0xbd83bd5a3e01be5cU,
  0xbdc79b04bde38ce1U, 0xbdbba1143df384cdU, 0xbdbba114bc1faf37U, 0xbcff7ebebdb3a51eU,
  0xbdafa7233d4f96faU, 0xbd8bb950be459c07U, 0x3e1bb13cbc9faf37U, 0x3bff7ebebddb90ebU,
  0x3deb0d753e0fa4abU, 0xbe1cb3a43d11181cU, 0xbc2281673d9f9a85U, 0x3d9f9a85bc8b4a58U,
  0x3be826943d8e313aU, 0x3cd0ef853da28167U, 0xbdb6d1943d5c8b0cU, 0xbc8b4a583dae1cefU,
  0xbbe82694bdae1cefU, 0x3d284f2bbe2b360dU, 0x3ca281673dc26d1cU, 0x3e15726f3e1b4033U,
  0xbce826943d39b876U, 0xbc39b876bdf6a8fdU, 0xbd6df4573e355e23U, 0xbde53fb2bd857c95U,
  0x3d6826943dc26d1cU, 0x3e284f2bbe040924U, 0x3d8295b33dc553fdU, 0x3d3f863a3e29c29cU,
  0x3d99ccc23e19ccc2U, 0x3e2e1cef3e012242U, 0x3e26dbba3d682694U, 0x3dc26d1c3c96e5e0U,
  0xbab9b8763e06f006U, 0x3d8295b33de53fb2U, 0xbe23f4d8bdeb0d75U, 0x3c7f5da2bd2e1cefU,
  0x3dc553fd3cae1cefU, 0x3dab360dbdd9a42aU, 0x3e25684900000000U, 0x3d8e313abd91181cU,
  0xbdd6bd483d857c95U, 0x3e0fa4ab00000000U, 0x3e2e1cef3cd0ef85U, 0x3d057c95be0e313aU,
  0x3e210df6bd8e313aU, 0xbd16e5e0bc8b4a58U, 0x3e3845053da56849U, 0xbddf71ee3dcb21c1U,
  0xbd9f9a853e256849U, 0xbdd9a42a3e1cb3a4U, 0xbdf0db39be086377U, 0x3e2ca97e3d886377U,
  0xbd284f2bbdc553fdU, 0xbc6826943db9b876U, 0x3d6df457bc96e5e0U, 0x3e1b40333da84f2bU,
  0x3df6a8fd3d6258d0U, 0xbdfc76c0bdbf863aU, 0x3c96e5e0bd1cb3a4U, 0x3e355e233e13fefeU,
  0x3c96e5e03dedf457U, 0x3e26dbbabdb6d194U, 0xbe1cb3a43d99ccc2U, 0x3d3f863abc96e5e0U,
  0x3e16e5e0bdab360dU, 0x3da28167bd9cb3a4U, 0x3dd9a42abd8295b3U, 0x3e040924bcff5da2U,
  0xbe33eab23ddf71eeU, 0xbcb9b8763d8b4a58U, 0xbd4b21c13b39b876U, 0x3c96e5e03e284f2bU,
  0x3dfb66d7bd5a9c36U, 0x3cda9c36be2222caU, 0x3c692f28bcda9c36U, 0x3e0e18bcbd2799e5U,
  0x3e0feb1bbce92f28U, 0xbe138fd7bc11bd79U, 0xbd86cf433d61e5afU, 0x3e015828bd9cabafU,
  0xbdb62cd7be0c465eU, 0x3e2799e5bd032a86U, 0xbd832a86bdc11b0dU, 0x3d3d76503c2ee35eU,
  0xbd9cabafbca0506cU, 0xbe015828bda3f528U, 0x3e362cd7bd0a7400U, 0x3e138fd73e55251bU,
  0xbdf078a1bd8e18bcU, 0xbdd6f7793d61e5afU, 0x3c91bd79U, 0x3d2799e5be1e7e0dU,
  0xbd7f0b9400000000U, 0x3e42ed6b3e04fce5U, 0x3be92f283d44bfcaU, 0x3e23f528bd5a9c36U,
  0xbccc09433d5a9c36U, 0x3d20506cbd86cf43U, 0x3c2ee35ebca0506cU, 0x3e04fce5bd692f28U,
  0x3d4c09433c4c0943U, 0xbd2ee35e3e20506cU, 0xbdf41d5e3db2881bU, 0x3d9562363e4c0943U,
  0xbdcfae003e61e5afU, 0x3cf7c21abe2799e5U, 0x3e4a36e53e0feb1bU, 0xbdda9c36be0c465eU,
  0xbe296c43be173494U, 0xbe11bd79bdb2881bU, 0xbe032a86bae92f28U, 0xbcaee35e3d9906f2U,
  0x3be92f283d956236U, 0x3d61e5afbe173494U, 0x3e30b5bc3e0e18bcU, 0x3e0feb1b3dbd7650U,
  0x3e1906f2bdb2881bU, 0x3c11bd79bc2ee35eU, 0x3e362cd7bb692f28U, 0x3d8a7400bdf078a1U,
  0x3e08a1a1bd86cf43U, 0x3c91bd793d20506cU, 0x3e51805ebdde40f2U, 0x3e032a86bd20506cU,
  0x3e2222cabe0e18bcU, 0x3e23f5283e1e7e0dU, 0xbcda9c363dde40f2U, 0x3e23f528bc91bd79U,
  0xbd91bd79be08a1a1U, 0x3e20506cbd9906f2U, 0x3d5352bcbdc4bfcaU, 0xbd1906f23e25c786U,
  0xbe32881bbd7f0b94U, 0x3e3d7650bdde40f2U, 0x3e675ccabe0a7400U, 0x3d7f0b94bc832a86U,
  0x3d9cba59bde787a6U, 0x3d920abbbdc05910U, 0x3dbcc9313e1e8248U, 0x3cb93952be1af269U,
  0xbe075b1e3da769f6U, 0x3dcb08ad3e4220ffU, 0xbdd5b84b3d393952U, 0xbc8e7adc3e159a9bU,
  0x3df237433e02034fU, 0xbc9cba59bdf5c723U, 0xbc4778ce3e321993U, 0x3e2212273dcb08adU,
  0x3d0e7adc3d4778ceU, 0xbe17628abd321993U, 0x3dd2286b3d723743U, 0xbd1cba59bd321993U,
  0x3d803b603d4e988cU, 0xbe192a7abd83cb3fU, 0x3e1042cc3d723743U, 0xbe3cc931bbaaf9d5U,
  0x3d003b60bd920abbU, 0x3d875b1ebdf95702U, 0xbc2af9d53cf23743U, 0x3e003b603d795702U,
  0xbcd5b84bbe075b1eU, 0x3d393952bd321993U, 0x3ce3f7c7bdeb1785U, 0xbda3da173d393952U,
  0xbe17628abd0e7adcU, 0x3dc05910bdc3e8efU, 0xbdd9482a3d83cb3fU, 0xbd4e988c3d875b1eU,
  0x3d393952be2931e6U, 0xbe05932fbe03cb3fU, 0xbdb939523df23743U, 0x3e2e89b4bd959a9bU,
  0x3dcb08ad3c63f7c7U, 0x3e17628a3de3f7c7U, 0xbe204a38bce3f7c7U, 0x3cd5b84b3cf23743U,
  0x3e23da17bd83cb3fU, 0x3e05932f3e159a9bU, 0xbdd9482a3e204a38U, 0xbddcd8093e204a38U,
  0x3dd2286b3e075b1eU, 0x3e204a383e1cba59U, 0xbdd2286b3d003b60U, 0xbd2af9d53e0e7adcU,
  0xbda04a38be221227U, 0x3e003b60bd8e7adcU, 0x3d405910bd8aeafdU, 0xbdbcc9313e5b1019U,
  0xbd4778cebd55b84bU, 0x3d075b1e3c9cba59U, 0xbe2931e63e622fd7U, 0x3deb17853e05932fU,
  0x3d55b84bbd803b60U, 0x3dae89b43ce3f7c7U, 0x3ae3f7c7bd2af9d5U, 0xbe321993bdc3e8efU,
  0xbe02034f3df23743U, 0xbc9cba59bd321993U, 0xbd9cba593d003b60U, 0xbdc05910bcd5b84bU,
  0xbd8d36e2be0eaf74U, 0x3e31fd2dbc8d36e2U, 0x3e075498bd5f96e5U, 0xbbeb5b783e05dc06U,
  0x3e2929bebe21cee3U, 0x3e27b12cbdcafee5U, 0xbdd3d2533d6b5b78U, 0xbdd3d253bc24c007U,
  0x3d8a45bdbd875498U, 0xbe2f0c08be1eddbeU, 0xbe3ad09b3de5792fU, 0x3cb0849abd960a50U,
  0xbda4c0073d30849aU, 0xbdd3d253bc0d36e2U, 0x3dd3d253bdd6c377U, 0x3dfd0254bd9eddbeU,
  0x3d81724fbe1a7407U, 0xbe31fd2d3db375bfU, 0x3df7200b3da1cee3U, 0xbd93192b3c8d36e2U,
  0x3de86a543c53d253U, 0xbd93192b3e1d652cU, 0x3d3666e4bd875498U, 0xbdb0849a3d960a50U,
  0xbdb958083d0d36e2U, 0xbdad9375bde86a54U, 0xbd18fb75be1491beU, 0xbd2aa2513dc51c9bU,
  0x3c0d36e23dc22b76U, 0xbe160a503ceb5b78U, 0xbdaaa251bc81724fU, 0xbe30849abd13192bU,
  0x3c81724fbdad9375U, 0x3d77200bbd902806U, 0xbe08cd2b3e2aa251U, 0xbd13192b3d9eddbeU,
  0x3e24c0073e205650U, 0x3cbc492d3dfd0254U, 0x3da4c0073d13192bU, 0x3de86a543d30849aU,
  0xbdaaa251be02eae1U, 0xbd8463743e075498U, 0x3dc51c9bbdfd0254U, 0x3e0a45bdbca4c007U,
  0xbda4c007bdf13dc2U, 0xbdd3d2533d3c492dU, 0x3cd3d2533e30849aU, 0x3e11a0993dfff379U,
  0xbd24c007be11a099U, 0xbe2347753d075498U, 0x3deb5b78bbbc492dU, 0x3e13192bbd6b5b78U,
  0xbcb0849abdeb5b78U, 0xbe18fb75bcb0849aU, 0x3ddf96e53e0eaf74U, 0x3cbc492dbde2880aU,
  0x3d18fb75be205650U, 0xbc53d2533d3c492dU, 0x3d01724f3d3c492dU, 0x3da4c0073db666e4U,
  0x3d7d02543cbc492dU, 0x3e2aa2513da4c007U, 0xbe1d652cbe0a45bdU, 0x3daaa2513c81724fU,
  0xbd8d629bbe0b9292U, 0xbe1102acbbe80446U, 0x3c2e03343e26c312U, 0x3d1f82f0bde46435U,
  0xbcf6848abdcea3ceU, 0xbe028267bddd2413U, 0xbdeba457be2e0334U, 0xbd26c3123dcea3ceU,
  0xbd0282673de80446U, 0xbcae0334bd862278U, 0x3e4593a4bc680446U, 0x3cf6848a3e1102acU,
  0xbd5243df3d680446U, 0x3e2152f9bd60c424U, 0x3e4b03bdbde46435U, 0xbdae03343e062278U,
  0xbdc763acbdaa6323U, 0xbd94a2bd3d60c424U, 0x3e3c83793d1f82f0U, 0x3e62942c3de46435U,
  0xbd028267bd2e0334U, 0x3d8d629bbe31a346U, 0xbd6804463e2a6323U, 0x3ddd24133cd98402U,
  0x3e0282673c9f82f0U, 0x3cd98402bd354357U, 0x3cbc83793da32301U, 0xbe07f2813db54357U,
  0x3dd98402be1672c5U, 0xbdaa63233de0c424U, 0xbc9102acbd828267U, 0x3e354357bd1842ceU,
  0xbda323013db1a346U, 0x3e4cd3c6be1842ceU, 0xbc1102ac3e07f281U, 0xbd76848a3e1a12d6U,
  0x3def4468bcae0334U, 0xbe1a12d6bd028267U, 0x3dcea3ce3d9842ceU, 0x3d76848abe43c39bU,
  0x3cae0334be24f30aU, 0xbd3c83793db54357U, 0xbd1842cebe12d2b4U, 0x3c8282673c9f82f0U,
  0xbdcb03bdbe1be2dfU, 0x3e0452703d2e0334U, 0xbe14a2bd3e1be2dfU, 0x3e5243dfbc828267U,
  0x3d26c3123de46435U, 0x3deba4573d76848aU, 0x3d0282673d862278U, 0x3e3ab370bdb1a346U,
  0xbe0d629bbc1102acU, 0xbd9f82f03dd98402U, 0x3e5073d7be07f281U, 0xbd3543573e045270U,
  0xbcd98402be045270U, 0xbe3543573daa6323U, 0x3c8282673e3ab370U, 0xbdd984023e66343dU,
  0xbe232301bd4b03bdU, 0x3d09c28a3c1102acU, 0xbe0b9292be28931bU, 0xbccb03bd3e40238aU,
  0x3d699cf0bd26ddd0U, 0xbd198463be162e08U, 0x3e53eb9f3d88d49bU, 0x3d62f03abcd596cdU,
  0xbe34373dbd34373dU, 0x3e0f81523d198463U, 0x3ba0311abcad8a87U, 0x3db4373d3cbae3f3U,
  0x3e03d313bdfa4cb8U, 0x3de99cf03e4190aaU, 0xbe1b2f91be0dd624U, 0x3dd8ed28bd2d8a87U,
  0x3da387753d92d7adU, 0xbbd596cdbd699cf0U, 0xbdceea173e0a7fc9U, 0x3e3c8f213da0311aU,
  0xbe2387753dc190aaU, 0xbd8227e5bdbae3f3U, 0xbdbae3f3be057e40U, 0x3c857e403dd8ed28U,
  0xbc3ae3f33d8c2af7U, 0x3e2a342bbe112c7fU, 0xbe3938c63e3e3a4fU, 0x3d26ddd0be328c0fU,
  0xbe238775bdecf34bU, 0xbb5596cd3e35e26bU, 0xbe1482db3dd8ed28U, 0x3e198463bdb0e0e2U,
  0xbd0c2af7bad596cdU, 0x3d7049a7be03d313U, 0xbda38775be17d936U, 0xbdbe3a4fbe007cb7U,
  0xbe057e403e483d60U, 0xbdb78d983df049a7U, 0x3d4eea17bcd596cdU, 0x3e35e26b3db0e0e2U,
  0x3decf34b3e08d49bU, 0x3d4eea173c3ae3f3U, 0x3b5596cdbda6ddd0U, 0xbc057e403cf049a7U,
  0xbdad8a87bdaa342bU, 0x3dcb93bbbe1482dbU, 0xbcad8a873da0311aU, 0x3decf34b3db0e0e2U,
  0x3e12d7ad3de99cf0U, 0xbd4eea173df049a7U, 0x3dcb93bbbddf99dfU, 0xbca0311a3e3fe57cU,
  0xbca0311a3e1cdabfU, 0x3e4b93bbbde64695U, 0x3e08d49bbe21dc47U, 0xbd7da313be328c0fU,
  0xbdf049a73de64695U, 0x3de2f03a3dfda313U, 0x3e2f35b4bd962e08U, 0x3e21dc47bd8c2af7U,
  0xbde99cf0be17d936U, 0xbe1b2f913cfda313U, 0xbe0a7fc93de64695U, 0x3de646953c92d7adU,
  0xbd962e083e4190aaU, 0xbde646953e112c7fU, 0x3d0c2af73ca0311aU, 0xbcd596cd3c92d7adU,
  0xbcbc7e153cbc7e15U, 0x3dacc8e8bceec1d6U, 0xbd1082cc00000000U, 0x3e29a4ac3e36359dU,
  0xbdb959d93df82e8aU, 0xbcfb52c63d8a3a53U, 0xbda9a4ac3e34a37eU, 0x3ac90f053d6ec1d6U,
  0x3e2b36cabe1082ccU, 0x3d559ff53e1214eaU, 0x3dafed24bdd27bb9U, 0xbd4f577d3e025fbdU,
  0x3d3c7e15bdd27bb9U, 0xbdeec1d6bdc5eac9U, 0x3d6230e6be03f1dbU, 0xbe00cd9f3d750a4eU,
  0xbca35c34be3959d9U, 0xbe29a4acbca35c34U, 0xbe2e5b06U, 0xbcc90f053db31160U,
  0x3d6230e6bc7b52c6U, 0x3da037f8be36359dU, 0x3e025fbd3e28128eU, 0xbdafed243d93a708U,
  0xbe477ce73d99ef80U, 0x3c7b52c63e331160U, 0x3dc2c68dbe0583f9U, 0xbdc90f05be3fa251U,
  0xbd4f577d3e1082ccU, 0xbdeb9d9abd7b52c6U, 0x3c2fed243e3c7e15U, 0x3d16cb443dd59ff5U,
  0x3cfb52c63e37c7bbU, 0x3d559ff53df1e612U, 0x3d16cb44bcfb52c6U, 0xbe29a4ac3db959d9U,
  0xbe1082ccbe16cb44U, 0xbdfb52c6bd9082ccU, 0xbd99ef80bd36359dU, 0xbc490f053e0d5e90U,
  0x3dfb52c6be0d5e90U, 0xbcfb52c63e1214eaU, 0xbe1ea5da3c490f05U, 0xbe36359dbe0bcc71U,
  0xbb490f05be21ca16U, 0x3de230e63dacc8e8U, 0xbdbfa2513e1214eaU, 0xbde55522bdb31160U,
  0x3e03f1dbbd559ff5U, 0x3e29a4acbdc5eac9U, 0xbc96cb443e34a37eU, 0x3d83f1dbbe071617U,
  0x3d83f1db3d9082ccU, 0x3e1539263e185d62U, 0x3e3aebf7bde230e6U, 0x3ac90f05bdb959d9U,
  0xbd8a3a533e1b819eU, 0xbd750a4ebdeb9d9aU, 0x3d6230e6bdeec1d6U, 0x3cafed243d3c7e15U,
  0xbe3c7e15bdfe7702U, 0x3d8a3a533d4f577dU, 0x3d68795e3ac90f05U, 0xbdeb9d9abd6ec1d6U,
  0xbda63b6e3dc83bf3U, 0x3dcfca49bddee6f6U, 0xbe025753bdcc031eU, 0xbe3374853de6754cU,
  0x3d8802143c171ec1U, 0xbe0073bdbe2dc9c4U, 0xbd971ec1bd2dc9c4U, 0x3e263b6ebe227442U,
  0x3e2be62e3e263b6eU, 0xbe2090adbe1cc982U, 0x3d62ae213d35581aU, 0xbe0f906abe190256U,
  0x3c171ec1bdc0ad9cU, 0x3e3eca07be373bb0U, 0xbdd7589fbdaa0299U, 0xbda63b6e3dcc031eU,
  0xbd8073bd3bb5581aU, 0x3e09e5a9be227442U, 0xbca63b6ebaf1caceU, 0xbdf591f9bcd39174U,
  0x3d539174bdd7589fU, 0x3dadc9c4bde2ae21U, 0xbe4474c73ddee6f6U, 0xbe153b2b3e3190efU,
  0xbe2090ad3e3ce671U, 0xbe3b02dbbe0dacd5U, 0xbd795924be227442U, 0xbb71cace3e1cc982U,
  0x3e4474c7bdd39174U, 0xbdd7589fbe2dc9c4U, 0x3dd7589fbc880214U, 0x3d62ae21bce2ae21U,
  0x3d71cacebaf1caceU, 0x3d9ead173e0f906aU, 0xbd880214bd1ead17U, 0xbc880214bc539174U,
  0xbd9ae5ec3e025753U, 0xbdf959243e0f906aU, 0x3df959243dea3c78U, 0xbd4c031e3da27442U,
  0xbcf1cacebe4de6b3U, 0x3e281f033e2457d8U, 0x3ddee6f6be135796U, 0x3dea3c783d71caceU,
  0x3e1902563e227442U, 0x3ca63b6ebd8bc93fU, 0xbca63b6e3db190efU, 0x3e1ead173cf1caceU,
  0x3dcfca49bd62ae21U, 0xbdd7589f3d0073bdU, 0x3e6fe738bce2ae21U, 0xbd0073bdbde6754cU,
  0x3e35581abd0073bdU, 0xbe281f033dd7589fU, 0x3b71cacebce2ae21U, 0xbd971ec13d9ead17U,
  0xbe061e7e3ce2ae21U, 0xbca63b6e3e190256U, 0xbe117400bcb5581aU, 0xbd795924bd880214U,
  0xbc971ec1be0bc93fU, 0xbd7959243dd39174U, 0x3c71cacebdcc031eU, 0xbe2fad5a3e2a0299U,
  0xbe3c984d3dfa5121U, 0xbd7dbef4be4c0682U, 0xbd2b732fbdd12b3eU, 0x3e4006203dbc984dU,
  0x3d5b74b7bd7dbef4U, 0x3de5be30be46e1c6U, 0x3cc00620bd9a4e11U, 0x3e4006203ddee28aU,
  0x3ca49789be28055cU, 0xbd8c96c5U, 0x3df6e34ebdcdbd6cU, 0xbd2497893cb24ed5U,
  0xbd2b732fbe040436U, 0xbd2b732f3dfa5121U, 0x3ddb74b7bd16e03eU, 0x3ce92c02bd400620U,
  0x3d9dbbe4be1dbbe4U, 0xbadb74b73d249789U, 0x3e452adcbc8928f2U, 0xbd85bb20be189727U,
  0xbe0928f23e16e03eU, 0xbdc373f3be264e73U, 0xbe1f72cdbd8928f2U, 0x3ddb74b7bd549911U,
  0x3dfa51213da8055cU, 0xbd024d4d3e189727U, 0xbdc373f3bda49789U, 0xbdd806e4bd9a4e11U,
  0x3e2ee1023e3e4f37U, 0x3e2b732f3dbc984dU, 0xbdc00620bde2505dU, 0x3d7dbef43d1dbbe4U,
  0x3e4006203e3e4f37U, 0x3e152954bbdb74b7U, 0xbd7007a83dca4f99U, 0x3d2b732f3de5be30U,
  0x3d4dbd6c3e3ae164U, 0xbe05bb20be1c04faU, 0x3dc373f3be1dbbe4U, 0x3d46e1c63daee102U,
  0x3e1c04fa3adb74b7U, 0x3da8055cbdcdbd6cU, 0x3e59bdcebdb5bca8U, 0x3d2b732f3dc00620U,
  0x3db5bca800000000U, 0x3adb74b7be29bc46U, 0xbdf3757bbddee28aU, 0xbc96e03ebe189727U,
  0x3e0928f23e100498U, 0x3e5499113e152954U, 0x3df3757bbd9dbbe4U, 0x3db92a7a3da8055cU,
  0xbe05bb203ba49789U, 0x3e1a4e11be2b732fU, 0x3e3405be3d4dbd6cU, 0xbe264e733da49789U,
  0xbcc00620bd324ed5U, 0xbe2129b6bc0928f2U, 0xbe4a4f993e3e4f37U, 0x3e4dbd6c3e249789U,
