/**
  ******************************************************************************
  * @file    model_data_params.c
  * @author  AST Embedded Analytics Research Platform
  * @date    2025-09-17T22:04:00+0800
  * @brief   AI Tool Automatic Code Generator for Embedded NN computing
  ******************************************************************************
  * Copyright (c) 2025 STMicroelectronics.
  * All rights reserved.
  *
  * This software is licensed under terms that can be found in the LICENSE file
  * in the root directory of this software component.
  * If no LICENSE file comes with this software, it is provided AS-IS.
  ******************************************************************************
  */

#include "model_data_params.h"


/**  Activations Section  ****************************************************/
ai_handle g_model_activations_table[1 + 2] = {
  AI_HANDLE_PTR(AI_MAGIC_MARKER),
  AI_HANDLE_PTR(NULL),
  AI_HANDLE_PTR(AI_MAGIC_MARKER),
};




/**  Weights Section  ********************************************************/
AI_ALIGNED(32)
const ai_u64 s_model_weights_array_u64[9671] = {
  0x3f6d3992bf248d02U, 0xba7fb085bd92d32dU, 0xbf24c0b1beebdd3dU, 0xbf32a9f33ec98f53U,
  0xbe52a8a13f027807U, 0xbf1554d43eb753a7U, 0xbe89e834bee6eb7fU, 0xbe75a3b6be8efc7eU,
  0xbee071d23f55a16cU, 0xbe83b5dbbf6907abU, 0x3e81cb003f6d5fbbU, 0xbf11f3f9bf679039U,
  0x3f1762203f0af733U, 0x3e3b5c69bf0f3be5U, 0x3f015371bceabe02U, 0xbed0e7abbeae0c88U,
  0xbe3d01b03f263d17U, 0x3e82c209bf6558efU, 0x3eda50d73ec69105U, 0x3e2cbad33d83db61U,
  0xbec9bbd73e8b09e0U, 0x3e5b0b40bec75a31U, 0xbf4bdb4dbe73102bU, 0x3f59f97cbf6b4738U,
  0x3f13702dbdddb28cU, 0x3e83fac13ed61687U, 0xbec75763bedf17f8U, 0x3f0ce053bf0ad1d6U,
  0xbe4ea4073e0c0d97U, 0xbe69b743be76215cU, 0xbdec11d6be8d3236U, 0xbf0513bfbedbdb52U,
  0x3efd260abf5ab386U, 0x3f2b461c3e7e1afaU, 0xbd369a33bf11498aU, 0xbe028f6cbe9d18d5U,
  0x3e2d2871bf089af9U, 0xbef0076ebe5e284dU, 0x3e7a6675be77e008U, 0x3c523d513e40d45eU,
  0x3ec65fb9bf05bf77U, 0x3dfe69e23f3449faU, 0xbf8051c2bee4b61cU, 0xbe4e864cbf768001U,
  0x3f13821d3e9faf2fU, 0xbe094c663e7af419U, 0xbdd09e8a3e3a213bU, 0xbe3bf615beaf69eaU,
  0xbee2eb06bd8d6648U, 0x3f370ec9bea1ed3dU, 0xbf0f36dcbec41b16U, 0xbe2645a23f3fa07bU,
  0xbe648254bf1b4f51U, 0x3f3c3593bf5d9ea4U, 0x3ebd1f613e26690dU, 0x3ca716283e4d85caU,
  0x3d755390bebab275U, 0x3e64d2303eacb2ecU, 0xbd0be95c3f137526U, 0x3e46b3cc3ed93cf7U,
  0xbe4aa906bd33a9fcU, 0x3e37bb0b3d17f595U, 0xbe216442bd0f3d1fU, 0xbe24b4183ddd615cU,
  0x3da242623c7f71e7U, 0xbe34ff6f3dc970beU, 0xbe56066d3da7d568U, 0x3e1d61f83c980447U,
  0x3e0f032dbd02ebd6U, 0xbdfcf7653d9b4ec0U, 0x39a12486bd634b21U, 0xbe2b8a993e0549ccU,
  0x3dfaa575bcf7c693U, 0xbb969333bdc199a3U, 0x3d3dee733d20f462U, 0x3e29ee693c7bb4fbU,
  0x3de75f06be04d1c8U, 0x3dfe88ea3dd69271U, 0x3db55d13bde22737U, 0xbd60f1a13e6a259dU,
  0xbe09e80dbe66d762U, 0xbd4918cdbe434cf9U, 0xbd3c10b8be079cafU, 0xbdabd0c6be17aa8bU,
  0x3e51863cbb95b0d3U, 0xbdb54fdabda33a85U, 0x3d014eb8bdb1fd2dU, 0x3e14d17a3d7ed0adU,
  0x3e2dea90bdb7c6d6U, 0xbbeb12843de37840U, 0x3e4d72063d715d29U, 0xbdee81d5bd361957U,
  0xbd42972fbd965e2eU, 0xbbcbb60fbd0bc1bbU, 0xbe4e671cbd29195cU, 0x3db00b073d4fcf71U,
  0xbdada0883c7e5aefU, 0x3d2958f7bc820bf5U, 0xbe134e26bd97526eU, 0x3c8239af3d346b13U,
  0x3ceaa58bbc744ffeU, 0x3d02d17d3c2af83fU, 0xbdc1d4b93df692a7U, 0x3e0f793dbddfc42cU,
  0xbd0fbb2b3c9f0a82U, 0xbe5dd5213d8efbfdU, 0xbe06c92bbd9c1b92U, 0x3d662c60be187e8aU,
  0xbe051bb8be201301U, 0xbdce569fbdd26745U, 0x3e419a863e0778b2U, 0xbc3fe682bc882076U,
  0xbe0b4d88bd5cffbeU, 0x3c72d66b3987d293U, 0x3b94150dbe225041U, 0x3db66b4c3daa2834U,
  0x3ccf05f33e414412U, 0xbe5c4fe13ce06f14U, 0x3a4b319fbdd1597cU, 0x3de98316bc9dd8b7U,
  0xbd8cff42bdda5da2U, 0xbe0726033cb86ed4U, 0x3dfc6d0f3dc57443U, 0xbd35ae34bcb19105U,
  0xbde173903cd295b6U, 0x3e10ee2ebdaa1acbU, 0xbdc27a64bcbf42eaU, 0xbdede43a3d1393c9U,
  0x3ce384f8bcbdfc45U, 0x3d6d53073d15392cU, 0x3d0a1530bdc6fdd9U, 0x3d972e493d909112U,
  0x3dc02080bdd4d046U, 0x3de8dfd13d319c85U, 0xbd03c4c73df6d618U, 0x3cf42cf2be149038U,
  0x3d4a22323e00f424U, 0x3d4e7a173c73bda4U, 0xbe38336cbd548759U, 0x3d9c1729bd0d097dU,
  0xbdc33c3bbd44d2d8U, 0x3d8192953c9821c6U, 0x3d167a73bda6746aU, 0x3d82c3e2bdb423dfU,
  0x3c885977bd50cfa3U, 0x3c89fd283b7f6cd4U, 0xbe05d1ab3dae97c0U, 0xbd3634073dec8e44U,
  0x3bed78efbd7c7a6eU, 0xbdd7eba7bcb7e03aU, 0x3d7e647f3e037854U, 0xbdadc074bdc4a5c3U,
  0xbe1601c63d67101cU, 0xbd8179943dcf2c42U, 0x3e0064793dd7a98fU, 0x3df83ee33b7ad392U,
  0xbd99b64ebe2a26f7U, 0x3d73b7e83dc94a88U, 0xbd2732183d4e81c2U, 0xbd058ae23c9e49e6U,
  0xbdd08a6fbccc19d8U, 0x3d05df9c3e13a428U, 0xbd06c3fbbdde7502U, 0xbe7b2f85bbd0c71cU,
  0xbe8d2d79bd906260U, 0x3d911b513dea3618U, 0xbe451e773e4adb70U, 0x3dfb8db53dda04d5U,
  0xbdabbb58bbb38336U, 0x3e15b43cbddacc59U, 0x3c4e069cbc904abaU, 0xbe14cfa7bd65feecU,
  0x3e270257be3c6c03U, 0xbc9cb1263e499df0U, 0xbe59cba0be00d002U, 0x3da2132fbe71702bU,
  0x3d9599d83da5b263U, 0xbc87eecdbbf62f20U, 0x3dd839a8bea9971fU, 0xbcbaf926bb97129dU,
  0x3e3132a63bc7ceafU, 0x3dc8a35bbd59b9a6U, 0xbe3de7bc3d983b94U, 0x3d941845bd1498f5U,
  0x3e191284bde35193U, 0xbd57cb4cbd24501dU, 0x3d99d5a7bdcf978bU, 0x3c973fe13d94ad24U,
  0x3d34ecbfbc033486U, 0xbdbfe5083d73abf8U, 0x3e5ac99c3c071b66U, 0xbe4bc045bcbc7485U,
  0x3cab4fca3de5ad63U, 0xbe044e19be15e0cbU, 0xbe0079093cb1013cU, 0x3d7404c2bcae92cdU,
  0xbc7508babdd08ce1U, 0xbddacc8f3b67f948U, 0x3d9153223d0e8c5dU, 0x3d012cb5be02984eU,
  0x3d459464bce28f38U, 0x3d9be14cbde782aeU, 0xbd9f18e73dc6288eU, 0xbdb94900bdbe1c9bU,
  0x3dc1ab523e3f6bd2U, 0x3b523db2ba4600daU, 0x3d3f13753d822498U, 0xbe10798dbc845bd5U,
  0xbe434c013e0a6c98U, 0x3a358374bdad47aeU, 0xbd8921bbbd96fc89U, 0x3d0f936ebd6473e4U,
  0x3e28003bbd484a18U, 0xbb465401bc51d0a1U, 0xbc3d29ecbd9eafddU, 0x3d934669bd07f25cU,
  0x3ca9d37b3dbdffbcU, 0x3e1fa607bd3cd92fU, 0x3e0bafe6bcb57c04U, 0x3d4313ed3da4bb36U,
  0xbd615e6bbdd9329eU, 0xbcf0cf05bdc0b555U, 0x3de72b293d7301d4U, 0xbc8e1b10bdd00d59U,
  0x3c5960033e085485U, 0xbda995bcba0e381dU, 0x3de8ccf3be897411U, 0x3db64a5ebd6143b6U,
  0xbde6c53b3d0e568cU, 0xbd884700be5dc472U, 0x3c749c1a3e33b5deU, 0xbd86b4ddbc2556adU,
  0x3d0fabebbe6fe153U, 0x3d812e26bd5c62d8U, 0xbd931474bddf6eebU, 0xbcceab1fbc16d5feU,
  0xbe1116a9bd01b19fU, 0xbc83978ebe8860c5U, 0xbe85ac41be10752fU, 0xbc768940bdb9c1c3U,
  0xbdc6e5f8bd177877U, 0xbc9131acbe4a3c28U, 0x3dcc7e9d3c111561U, 0x3e04f0873d9dceedU,
  0xbd8f3f593d80454dU, 0xbd37f97f3d9dde4bU, 0xbc08b3683de796ccU, 0xbc13e42e3be20792U,
  0x3ca3e896bcbc4045U, 0xbd86f3df3b0a6015U, 0x3de44a303de50998U, 0x3d06a0203db545fcU,
  0xbc6e763c3d9351feU, 0xbd9c1423bdb55bc7U, 0x3cce7e403c82b10fU, 0x3db09d93bd1d8a9cU,
  0xbbe6ff2c3d52b2bbU, 0x3d48293dbdd0fcd6U, 0x3d9f24b3bbe14770U, 0x3dbbaa833d1a4f53U,
  0x3cffb033bda063a5U, 0xbe1e97f4be43003cU, 0x3cfe6afdbd961c8aU, 0xbd7bc4a9bd87673aU,
  0xbdb9b4803e170a7bU, 0xbe477fd63dfda63cU, 0xbdb114b13da83bc4U, 0x3dd5439fbd4b2208U,
  0xbd5a02b93dabad68U, 0x3d8db42abdeb5443U, 0xbd84a850bdb4943bU, 0x3d0340b83d31d961U,
  0x3ca0c0403e0f0234U, 0xbc08a9d0bcfb6871U, 0xbd942da8bc79a230U, 0xbd6baaf63d8a9f73U,
  0xbe557b33bd3bdc2aU, 0xbde67a47bded554dU, 0xbe3e2993be147721U, 0x3d3f7645bd9408b3U,
  0xbd29174dbd384043U, 0xbe1b37993e049b65U, 0x3d6b220f3de96210U, 0xbe166cbfbde08775U,
  0xbe2a6d1fbe55a86aU, 0xbe2a50f83e0fcfd8U, 0x3dcee7a93cf9b6e3U, 0xbd23d55fbcf15c6aU,
  0x3b8a16983de5b5d7U, 0xbe10c3bc3b111332U, 0x3d82c859be06d2d1U, 0xbdea18d33e4ad4b2U,
  0xbd1497fb3de2c2faU, 0x3cdd76d13e3ff270U, 0xbda815933dcf3a36U, 0x3d4f943f3d998b45U,
  0xbd94eac9bde3b488U, 0xbde07088bdee77e5U, 0x3dc7d821bb025552U, 0x3dd84a27bdd37b64U,
  0x3c6445edbd81c93dU, 0xbd96e98f3dc880feU, 0xbaffbf743d921746U, 0x3ddd6709bd8462e2U,
  0x3d835b2abd2d0bbbU, 0x3c0f0ec2be46e8f5U, 0xbe4777983e14794cU, 0x3cfb4ae2bdc9acc1U,
  0x3d35792b3daf8b46U, 0xbc5bdaa7be267d21U, 0x3c3c2f433d1ab6c3U, 0xbdc80954bdc001ccU,
  0x3d89d810be04f5daU, 0x3d06b3c53e04c47cU, 0x3d920cba3d545d88U, 0xbd5b59efbdf240e5U,
  0xbd9595acbdf855f2U, 0x3d52e60bbd29c259U, 0xbe1a2f5fbe097fb1U, 0x3cc0dc94bc6e170dU,
  0xbba533023d1458b2U, 0xbca379d1be4abc1aU, 0x3d271c42bd4415bdU, 0x3d149fdfbe080050U,
  0xbe5332f2bd83c33bU, 0x3d9eded63d84a9e1U, 0x3d59951339e80c29U, 0x3d89b0743d97378fU,
  0x3df6e8a1be149c1aU, 0xbdfb3604bcdaa96fU, 0xbd7ac2d3bd0c01a3U, 0x3c99878cbe2b32cdU,
  0x3d4c753d3ce163a5U, 0x3c81903b3d985336U, 0xbe00d6bf3e2bac91U, 0x3d8f97fa3e35cbe1U,
  0x3c4e5b7abd24fbdeU, 0xbd6001853d501f7cU, 0x3d964bc23c17dd62U, 0xbcb18c8f3dc9eac1U,
  0x3df25081be056921U, 0xbda7680c3e004ef5U, 0xbde289073cd78692U, 0xbc020c9bbde85d15U,
  0xbc157f493d84b214U, 0x3d9366833d2c4974U, 0x3dc17a58bd97f675U, 0x3d4876203c7f72c3U,
  0x3cb542b53b8f4c48U, 0x3cfb8b56bc40dff8U, 0xbe354cdfbd87ac26U, 0x3b8d7d87bb3f2174U,
  0xbd148c4b3d94f0b6U, 0x3d3c3846bdd10a18U, 0x3d097dd03d61686dU, 0x3d2ccb7fbd6f6346U,
  0xbddf1cf83d402426U, 0x3d5aa9c93cdded61U, 0xbda5c5163e59be1eU, 0xbe43f27a3df93b32U,
  0x3dbe5e66bc8bd9b2U, 0xbdbab8a8bdbcd4fbU, 0xbe02a81c3c1547aeU, 0xbd7e36c73d4eaab9U,
  0x3e4678d2bd6715b2U, 0xbd27398a3b421b99U, 0xbde8dde83c81aaacU, 0xbc2174033e24dc63U,
  0xbdbbc4393dd8ab33U, 0x3d4f17353e62a025U, 0x3d7f5beebb70dcf6U, 0x3d2f5172bd21e79bU,
  0xbd90458b3ce9e1fcU, 0x3b672330bd0aa052U, 0x3cc96ff5bd513f75U, 0xbddde27b3cc449e4U,
  0x3b8a381ebc0f410dU, 0x3b4fcf79be1a34edU, 0xbd9d3f433d46f4bcU, 0xbdf2fc223c1b981aU,
  0x3e2260ee3dac610aU, 0x3d1d8bf2bdeb7c06U, 0x3dc838363de3f081U, 0xbd244d283bc621d1U,
  0xbd01c4903de33884U, 0xbecc76253e194fd2U, 0xbe1d5016bd771b49U, 0xbe333a223bf18c39U,
  0xbc913e903e493e0cU, 0xbdbba44abd9f1563U, 0xbde03ba33e52885aU, 0xbe8f2f663d6ef657U,
  0xbd8667b7be7df40aU, 0xbe5a9a80bdb11097U, 0xbcdd126dbe188400U, 0xbdad7745be60c239U,
  0x3e3aaf0b3daacc7cU, 0xbe086affbd502c77U, 0xbdd165f8bdd93c91U, 0xbe39972fbd680ed2U,
  0xbd2dc54c3c12edeeU, 0xbe503465bc47d41bU, 0x3c40c5b8be01e269U, 0xbd54f382bdf0602cU,
  0xbdcc02a63d9d5203U, 0xbd98fc30be1a74e6U, 0xbe2f34f43d71d9fbU, 0x3c35b70c3c360c93U,
  0xbc60f61abe148b69U, 0xbe182c213a9de361U, 0x3dc25884bc17e401U, 0x3da1123f3d258732U,
  0xbdf47379bbe9ff00U, 0xbdc2ef14be893fc8U, 0xbdf696e33d6c85ebU, 0xbe23a5ddbd0d445fU,
  0xbd90e105bca36de8U, 0x3e405e8fbcf4566bU, 0x3cb47e08be615e76U, 0x3dec798cbe92ce48U,
  0xbe0cdd14bcd08dd2U, 0x3dd9653ebd9e1c49U, 0x3d4cdcd6bd34733bU, 0x3d3421cd3e42cc23U,
  0x3d8100e2bd184925U, 0xbc2a54833d78cba4U, 0x3e1b21ea3cf756d7U, 0x3d68edf63d95357fU,
  0x3c4dc3d53e14c07bU, 0xbe2c7380bda2cdcaU, 0xbd9289f43c456758U, 0xbe1a0fa8be27f4d2U,
  0xbe399fbe3e240c02U, 0x3d365f553d112baaU, 0x3d1dd77b3c4fb5b2U, 0x3d01d855bd4f5706U,
  0x3e26ca03bd5cf8b8U, 0xbd96ad463dce409dU, 0x3d954d373cb5ce1cU, 0xbdd18cae3e1449cdU,
  0x3c61dff7be2bbcc7U, 0xbb999688bce0938aU, 0x3dac8c2fbcde1089U, 0x3dfb920bbd8ef68eU,
  0x3d91a27a3e4fc17eU, 0xbdc22e22bd909e10U, 0xbe2d7301be2c742aU, 0xbd8dfb39bdb59388U,
  0xbd98dd10bd38850dU, 0xbe0217e03c9dd52eU, 0x3cb921cd3db32651U, 0x3d1658ebbe108e6cU,
  0x3d0a61763d82ff41U, 0x3de857603dd47437U, 0xbc7bb35dbd7e753cU, 0xbe06545a3aeb0636U,
  0x3d25b19c3badf4a2U, 0x3dd0a9df3c24b1a0U, 0xbd0f7c683d8dc23dU, 0xbd7a64ddbd990511U,
  0x3bd563d3bce78ffcU, 0x3d42ee43bdcc7566U, 0x3dcb654d3d96ba04U, 0xbc09891db7c3271bU,
  0x3d63ca8bbdaad31dU, 0x3cb05dd5bdb0eaa3U, 0x3cf4a6c13b874115U, 0x3d2289afbcdcec5eU,
  0xbc71ddf63d552e2bU, 0x3d4cc5ccbd41efc9U, 0x3c8ea9f8bc029c93U, 0x38dfc6613c3a8cfeU,
  0xbe072cbc3dd1b920U, 0xbe015a0abd21acdeU, 0x3dadd4603ad2b33eU, 0x3e070e3d3d918869U,
  0x3c7437773c405a27U, 0xbd53cf5bbdc7437eU, 0x3df3e3e0bd8d2b12U, 0xbe0fb9593d547879U,
  0xbda37b73bcd67c31U, 0x3d8f67c23dac552eU, 0xbc9a99a2bd25fa16U, 0xbd99a36dbdd45b7eU,
  0x3af54045bdf14791U, 0x3c7b32e6be211bc2U, 0xbd2692e93d85cfa2U, 0xbe5c56c0bceea486U,
  0xbe31556cbd15b88aU, 0x3caef485bdef61d7U, 0xbe2113eebd15f168U, 0x3d60e2b33cef49a5U,
  0x3a62d67d3c9ba75dU, 0xbbd41801bd172557U, 0x3e0f633fbb1b17d8U, 0x3e2a2a2ebd5dcc31U,
  0x3c4214f43b9fe092U, 0x3d3feaeabe0a6414U, 0x3d4592e3bdd8fa1fU, 0x3cfa4b8ebd848a62U,
  0xbd42c60bb8fe96a5U, 0x3ccd3235be46c91dU, 0xbbf9bf1cbdf4308cU, 0xbcbd653d3d82a3a5U,
  0x3cda90cebdcfdba4U, 0x3d567feebe12dc13U, 0x3dc811143d8b9b25U, 0xbd8886d13e0ced99U,
  0x3c6ad661bd5be8f5U, 0xbd94b2c33d1c6c9dU, 0xbe47513bbdfabf08U, 0x3ca7b8e53dfcfa3eU,
  0x3d91f8533e17b574U, 0x3da55721bdf350e8U, 0xbe007a703cdc9123U, 0xbd172e6bbc21772eU,
  0x3e210d433e0964e2U, 0x3ca486ca3c23b5f7U, 0x3c495a603ce615a2U, 0xbd425cc43e0d527bU,
  0xbcb9f68f3cc34927U, 0x3dcc748b3df6042bU, 0xbd02c00b3d43a0d7U, 0x3d90810fbe0a8948U,
  0xbd6299a5bd66d751U, 0xbd8b8cf43d45b58cU, 0x3dc3746f3d8a675cU, 0xbd741635bd8988acU,
  0x3c78f1313e2266c1U, 0xbd2da9b53c6cecdbU, 0xbd4cc5e8bd24d34aU, 0xbdace4f93dbbaef7U,
  0x3d72a673bb8bf403U, 0xbc844833bd21932fU, 0xbdeef2553ccc3176U, 0xbd639cc7bdb386d7U,
  0xbdff418abd258635U, 0xbc8af805bc0569b7U, 0xbd6b9a063c9142fbU, 0xbcd70e883e0ad3d6U,
  0xbd7e6248bd2b1e91U, 0xbd39a733bd5675d0U, 0xbe14d620be7a7743U, 0xbd10a4c3bdbfec4bU,
  0xbd05f6593d74d1c4U, 0xbe14af4d3dcf5b26U, 0x3e0a431cbe0b5406U, 0x3d875f00be0f1707U,
  0xbdb66d71bcb3d790U, 0x3d8ef4f5bd2e7dc5U, 0xbc0e17223dab022cU, 0x3ddba2a6bdc27e3bU,
  0xbe3e6e9c3d84ab7bU, 0xbe019bf73d49f60fU, 0x3dc12a533d94cc92U, 0x3cca4a633cccddfaU,
  0xbe587a523db057cbU, 0xbc66f272bd1c9f98U, 0xbc630aadbdcd9f1aU, 0xbe165709be0488b5U,
  0xbd941fcabdc421c9U, 0xbe10a9b4bd8fd87dU, 0xbda793893d11568aU, 0x3e6695373d8bd1d0U,
  0x3d5478e8be230690U, 0x3e2291dfbc0369a6U, 0xbd0dc451bdc1774bU, 0x3d344dbfbe37517fU,
  0xbdb7c518bda37a7dU, 0x3dafcac73d3d521bU, 0x3d91f4dc3d3305f8U, 0xbdb017a8be6414bfU,
  0xbb8ef36a3da6ac0eU, 0xbd433b303d2d537dU, 0xbda12a0e3caf99b7U, 0xbe7cfe6f3dc48c75U,
  0x3d30912c3d7c9146U, 0x3e1f12533d83f684U, 0x3dd24b093cf194dfU, 0x3c9a2f4d3c2e4dc4U,
  0xbdc3354c3c0cd567U, 0xbb53db483e084063U, 0x3e12ddc33dac825aU, 0x3c2c88b33d608d87U,
  0x3e1338e33d9602baU, 0x3dab329bbb9ac207U, 0xbe072542bd06b5f8U, 0x3e18a28dbe49d7a5U,
  0x3d59c82a3dc9a58dU, 0x3e02a1073dbb312bU, 0xbe08a2e4bdeabea6U, 0xbcbabd67bcc5df0bU,
  0xbd81b0a53d40ca77U, 0x3d03380bbd3b0654U, 0x3e35cc10bd5499dfU, 0xbcd81ded3e2350f3U,
  0x3d1fb0f5bd5b4533U, 0xbd41eb493dc93093U, 0xbcfec1963e04fb3bU, 0xbd0d3a563d91e126U,
  0xbd035c253e13420eU, 0x3c9d7d66bc87f00dU, 0xbda1794abda7f9c3U, 0x3e2b0fe43dd143c5U,
  0x3d5b6d603b09f455U, 0x3c5ba8053cb7ee21U, 0xbdf23294bc1a7ad7U, 0x3e089c03bd00a150U,
  0x3d8becdfbe0eed53U, 0x3d9f6dc23d3024acU, 0xbce135993e086704U, 0x3bc2a7e33d623df3U,
  0x3cd03b2e3dfa3030U, 0xbe09caa0bcf202aeU, 0xbde7b31e3ccf330bU, 0xbc9d51a63de3a7c0U,
  0x3df847a6bddfaa1aU, 0x3d3d0505bde5dc1eU, 0xbd994a97bdf440e3U, 0xbdac1b02be5ada01U,
  0x3cafb1633c2bf24bU, 0xbcb666da3bea94aeU, 0x3d0837fa3dddbebeU, 0x3e12e42e3d9e0f63U,
  0x3c9551c0be47c6bcU, 0x3d946c3a3dc89deaU, 0x3e138c4ebe156dfaU, 0x3d9f6cc03dc09f23U,
  0xbdfaf30ebc851079U, 0xbdec6fbbbbb26d61U, 0xbe0b3a6a3df1d687U, 0x3da7020abd67b178U,
  0x3dc58cc5bbf58ae2U, 0x3e05bf6b3ccda22dU, 0x3d4ea429bddb9214U, 0xbdc91bb4bd5292bbU,
  0x3cefebfabd0ec6ceU, 0x3db6ee16bdf77742U, 0x3d1e26cdbc7b610fU, 0xbc94c930bdb5da25U,
  0xbdb57ff4bb06a775U, 0x3cd07393bcd4c0abU, 0x3e07ae6a3c9f8152U, 0xbd8654093d90ba3bU,
  0xbd2cf0543d584beeU, 0x3d92eb6ebdfbb79dU, 0xbe419c3bbdbe39d1U, 0x3ccb294fbdb1aa58U,
  0x3d23ca503d6dffa9U, 0xbdb24d6b3d0178f4U, 0x3cd9132c3d538405U, 0xbc9bbbdb3dc70cc5U,
  0xbbab2d593e1dcb96U, 0xbd08c802bd9157faU, 0xbaa7e7f43dcfaec6U, 0x3e3812473b8869bdU,
  0xbcc74808bce0ba92U, 0x3dbc4b863d4f366aU, 0x3c81dfff3d972032U, 0xbc814d42bc270082U,
  0xbe1a88bf3e5f1406U, 0xbd20841dbd6a42d2U, 0xbe11ad173c661b0aU, 0xbd8405743d1f27d7U,
  0x3e1ec7ae3d5dcd62U, 0x3db1416b3cf6ec03U, 0x3d2e8f7abdf2b8deU, 0x3db9511cbc809bc0U,
  0xbd9be0d8bba1fe13U, 0xbd91f6603d3c271dU, 0x3d7cd5a03ca4b510U, 0xbc51efa1bd3f2c97U,
  0xbdb93e69be032de9U, 0x3e04d1973e11186cU, 0x3b72e4f0be2d3ac9U, 0x3e0acf7f3db2d4f4U,
  0xbe0bf1a63df1a102U, 0x3d53a080bdf622caU, 0xbcd539353dfef311U, 0x3dad50753d88985eU,
  0x3d5d0ea23db99bdbU, 0x3dfff1a1bdd47af9U, 0x3cc45e80bdf9802dU, 0xbd5c7c74bc9d883eU,
  0xbcdd96b13c9b79ceU, 0xbc06c1a3be045b8aU, 0x3e2025a83d8c214aU, 0x3cd07227bd8ad54fU,
  0x3d95bebebe000935U, 0xbe1d89433d5e441bU, 0xbd43c048bdafe912U, 0x3e530313bdf89e3bU,
  0x3e0acacebd6eec21U, 0x3d0b830ebc670ccfU, 0xbc59d82ebcd123c5U, 0xbe63f981bc149b6bU,
  0x3ddf044dbda4c3ecU, 0xbd46a342bdbc4b10U, 0x3d7702353da18af2U, 0xbdc6ec40bd7aa457U,
  0xbd88fe97be050a9bU, 0xbda793fdbe08b9d4U, 0xbe1f80293c818fa9U, 0x3cee41863d769401U,
  0x3dca93e3bd5bd80bU, 0xbe0328673bda1672U, 0xbe0505e2bde07c83U, 0xbdab80d0bd6f00d0U,
  0xbde04b593df071aeU, 0xbb54e44abe1817aaU, 0x3dc8fd6ebdb54ff5U, 0x3c5a1a22bcceed6bU,
  0x3da1cac4be5957c4U, 0x3c7d98593bb39c48U, 0x3db0f6f53d9df53eU, 0xbdf1a85dbdc3e862U,
  0xbdd5ef96bcedaa36U, 0x3d221e74bdcad471U, 0x3e0b4eb03cd127afU, 0xbe124d05bcdf8408U,
  0x3d3a18cfbdd371efU, 0x3de6ef873e5c7475U, 0x3c37d28fba0bce7dU, 0x3de1fee8be523e6cU,
  0xbd89586e3b20312cU, 0x3da971adbe0586efU, 0x3cbece773d423327U, 0x3e2150e9be06d7c8U,
  0x3c0c9ee8bc05e3ceU, 0x3d84150b3db01c65U, 0x3dfdd7a63c82ddbfU, 0x3c8fd0f23d665235U,
  0xbe8967dbbc4a7c97U, 0x3db481abbdc21ef3U, 0xbdacfc993e0e5075U, 0xbdbf072a3c263a17U,
  0xbb5ea038bdd36c5cU, 0x3dc8be873dae3951U, 0x3c817a5a3df6eb2bU, 0x3e0ddc6bbe323bd9U,
  0xbd65bd8b3d2d66b0U, 0x3d0e3828be35e542U, 0x3cfe7936bda0c42cU, 0xbb96270bbd8dd5e6U,
  0x3c39572ebd38b2bdU, 0xbdfb6b503d98df49U, 0xbd261ccc3d4566b0U, 0xbe5795703e196f62U,
  0x3e5de158bd787879U, 0xbcef2e8dbc2f110fU, 0x3a626b743daa02f5U, 0xbd2ec2a53e306efaU,
  0x3db9ba4d3d278da0U, 0x3c880caf3d514ff2U, 0x3d41b50bb8fdbbe8U, 0xbdd43fc33c90eacfU,
  0x3c69937dbdd42a94U, 0xbccc6dbcbc67231dU, 0x3aa4f57239c918c2U, 0x3d9dc31b3dc11d53U,
  0x3c9c358bbd7df544U, 0xbdc037683aced056U, 0xbe0099ad3e1faf22U, 0x3dc9e6f8be4d528aU,
  0x3ce069843d755177U, 0x3d0f12d23d952d47U, 0x3dcf2ffe3c679e6eU, 0xbda9283ebd8095f8U,
  0xbe13e44cbdc2ac5fU, 0x3def5631bdcb54b4U, 0x3e1ca2a7be1bffc1U, 0x3d4232b1bcbf9cb1U,
  0x3d5ad87abe32f04dU, 0x3e04aea4bafef6beU, 0x3e58af553d1af028U, 0x3adabad23de2457cU,
  0x3ddeaed93d32179bU, 0x3cb350253d908e8dU, 0x3dd75207be12b7f6U, 0xbbfebccebe300a1dU,
  0x3d5843d8be22ab32U, 0xbda9df9bbcb66d8cU, 0xbd357e443ccbe7a9U, 0xbd98199fbd650686U,
  0xbdcb3ed8bc275d53U, 0xbe87e4c13e122ceeU, 0xbdb4e191bd894d55U, 0xbaffd7f0bd405deeU,
  0x3db105ecbda8e881U, 0xbc818dcc3d9e818bU, 0xbda1438cbd10e8d1U, 0xbc2e72323b465e55U,
  0xbc09d9063d05a8b2U, 0x3d1299a93d2a8a1eU, 0x3d5f82a1bdb939dcU, 0xbd980919bc093a87U,
  0xbb8dfe593cbd0d76U, 0x3cacf616bd1edef2U, 0x3c6bd4eb3da6b88fU, 0x3d66a003bdb78919U,
  0x3d82332b3d1f5438U, 0x3dae69b7bbfbaa53U, 0x3e0b7cef3e316b75U, 0xbbc55faa3e1ecc9eU,
  0x3c91be4cbda45fe4U, 0xbc851aadbe6ff402U, 0xbe41577fbd5af90eU, 0xbe2977d6bd8d3f7cU,
  0xbdb5e70c3dc2dd18U, 0x3debe6bb3d17bb5aU, 0x3d2fe3943dba3fdfU, 0xbc712df2bd8d6346U,
  0x3b6089a43d4905bbU, 0x3e1fa2e7bd4e15c5U, 0x3d067694bde8bebcU, 0xbd5760ef3d8a7103U,
  0xbd752be53d8e0e95U, 0x3defc7383e6b9d5bU, 0x3da7df5bbca25d11U, 0x3dbe28cc3dc8ce75U,
  0x3e1bbb04bd947d01U, 0xbe4a8abc3e2b05e9U, 0xbe151fa33bc09fb4U, 0x3e220ea7be549e2aU,
  0x3d5213f1bd019a94U, 0x3d8966313df65750U, 0x3e23c42b3d16b947U, 0xbe09a8a83dced29aU,
  0xbdf3ca65be1dd31aU, 0xbdaa37ce3dd2753cU, 0xbd075a203c03482cU, 0xbe13de0d3cc8028aU,
  0xbde360e2be052c05U, 0x3e0e2ba0bcea7ab7U, 0xbd64c3d83c5d8883U, 0xbe0ced063dd8743bU,
  0xbdfd7736bd8eeb5aU, 0x3d98f18a3e4a2f25U, 0x3dafe764bbcdc420U, 0x3d93ee7c3de5399aU,
  0xba4aa4d93defb5a4U, 0xbe0010d53c4a390eU, 0x3c9e1ce1bd84b0e7U, 0xbdfe232abdbbdfd9U,
  0x3da62fe8bc853a6dU, 0xbcda2f953d3f92e4U, 0xbcf1205ebe702b8bU, 0xbe02503f3dd75d5cU,
  0xbde7e756baf7bc34U, 0x3d8feed4be203458U, 0xbda06c183d2027d5U, 0xbd967f4f3d072aeaU,
  0x3c32c72cbd6cc762U, 0xbd794ba83e06d575U, 0xbd220ff1bd75c6adU, 0x3de7b2debdf6a841U,
  0xbd22728e3df2e10eU, 0xbc9d33f33de9e108U, 0x3cfac7b53daf3d6aU, 0x3e3c8c043d3b0a0dU,
  0x3dd16cd13d4e5bb3U, 0xbd4005ce3de1466cU, 0xbdcc5490bd2974e5U, 0xbcfb13f13cec8e14U,
  0xbe327ab53c3db599U, 0xbd2a91dabe0c1e24U, 0xbd9a65e43d8456d0U, 0xbe20a091bc6d3ed7U,
  0x3d82fab1be0d2311U, 0xbcb151043ddc81f7U, 0x3d1f6c9ebdb34189U, 0x3ca94eb7bdc48842U,
  0xbd5b985d3d81ed0eU, 0x3d8aa1e7bdc6d49bU, 0xbcde00ba3d8dad24U, 0x3dcf31b3bc8fa6ecU,
  0x3df243bd3da5afa4U, 0xbd4c5cff3cb1712eU, 0x3cad91b1bdb76e25U, 0x3d3097453cf21e96U,
  0x3d3ce4c3bddc3fd2U, 0x3e203e23bd8c7876U, 0xbceafc6b3d9627d2U, 0x3e3777033ce472ceU,
  0xbdb2cdc53d744c7cU, 0xbe23874d3e1297feU, 0x3dabf92a3df2bb20U, 0xbe3887de3e056aa5U,
  0x3cd80081be07cc92U, 0x3ca359833dab9f1eU, 0x3ba3f972bc326945U, 0x3d1904523e307c9cU,
  0xbe1e70cb3da8d429U, 0xbd6d5ca2baf1d63eU, 0xbe2524a03d93e17dU, 0xbc24bf543d91b3b6U,
  0x3d1334eb3a0a1884U, 0xbdaf1b80bc34158cU, 0xbd481687bd9a300aU, 0xbd61c9a73d013108U,
  0xbdd8d4f13da4db5cU, 0xbca191de3d733a18U, 0x3dd2412abdc70cddU, 0x3d4ee3a5bd92be90U,
  0x3df2deff3ccde44bU, 0x3da6b10b3c81dddeU, 0x3e418d5a3dd18ce2U, 0x3e1381fdbde98e77U,
  0xbd3905fdbc43f5deU, 0x3df6f4e63d9ff563U, 0x3c01079fbcd80095U, 0xbc9e007cbb1a7c3cU,
  0xbe0468373d70298bU, 0xbcb70217bdfa3ea2U, 0xbe3dfd86bd939457U, 0xbe04b65ebe1dbc30U,
  0x3cce7bbfbd96942dU, 0x3c5cba0e3d69027cU, 0xbd4bfc023e179613U, 0xbe0845d33d7e8607U,
  0xbd839b8dbe066528U, 0xbd5483e1bd086bd7U, 0xbdd260d93d9660cdU, 0xbe40d5cebcf4f194U,
  0xbd528fd83d507a02U, 0x3d908afc3df83559U, 0x3db6233c3ae91c64U, 0x3e225d80bd4d8904U,
  0x3dc48bab3dd3fb54U, 0x3e086a20be507d94U, 0x3dc144393c7bbe9cU, 0x3dd25baebb6bc711U,
  0xbda859083b28ae02U, 0xbe0d9740be4b5b35U, 0xbd115ee53d970d60U, 0xbdea8a293cf65c58U,
  0xbd70b5713e1f3c5dU, 0xbceaf9ed3d7017ddU, 0x3ca504fabce6da52U, 0xbd72e9ebbe403d1bU,
  0xbda760703d00a27fU, 0x3e1dfec7bcaaf28fU, 0xbcb2f942bcd22ea5U, 0x3cccc971bdadd70bU,
  0xbd503c9fbdc77014U, 0xbd520b91bc865e29U, 0xbd6d8c133d154bf9U, 0xbe04faa23cd61cfbU,
  0xbd55f72abdde61b1U, 0xbc28ac313c8fa515U, 0xbd6e4f163d07f913U, 0xbd2e84493dd92128U,
  0x3d39bf48be0ceb63U, 0xbdf9c9bf3db84bd2U, 0x3d738f2cbdb8dbe2U, 0xbc06078fbe4b75a5U,
  0xbd41f5893cb47f86U, 0xbcfb6bb5bdb7a473U, 0x3db0ecc8bdc5059eU, 0x3e2365a03e195322U,
  0xbc9bcce23c36233fU, 0x3dff9c02bd80abb8U, 0xbe4144763dc337b6U, 0xbc4938cf3dea56c8U,
  0x3cc2a295bc87926bU, 0xbdabcc51bcae577eU, 0x3e189bb2bd87cdeaU, 0x3e1301603d5f5d4cU,
  0xbde8c6973c7a5676U, 0xbc990b493c8a2711U, 0xbd94b2743e2258ccU, 0x3d133619be0fb9feU,
  0xbc7c26e6bbe25c08U, 0x3e1f4d3dbdad7c1fU, 0xbc9bcbdfbd4b2452U, 0x3c955021bd9080a9U,
  0xbe2aa8f8bc961b9fU, 0xbd8dda993dfd4a48U, 0xbcfbb0433a24fe08U, 0x3e130ef43dc14b13U,
  0x3e41c5d6bd8df9a8U, 0xbc5d5b043d317669U, 0x3d0464f5bdb15cf1U, 0xbe5b4bb33e183424U,
  0x3d8ee5363dcfcd3dU, 0x3daa07253d751cceU, 0xbdd05911bda80b3bU, 0xbdf297943ddf4658U,
  0x3dca068c3cb1b1dcU, 0x3d366b8b3db80352U, 0x3dabfd5fbe12256dU, 0x3e3aba4fbdf334e2U,
  0xbd3dc2ff3d142ecaU, 0xbe9a5b82be1db646U, 0x3d8008acbe0886feU, 0x3d381bc2ba9cd9d8U,
  0x3cb541073d33114bU, 0xbdd800ad3d8b15e8U, 0x3c9c163ebdf3d685U, 0xbd401856bdb89078U,
  0xbe198b533c65e404U, 0x3dc5048dbd372cc9U, 0xbe1618803d5e350eU, 0x3df960543d21c7d4U,
  0x3ce3d5c6bddfa49cU, 0xbc59f7133d924be5U, 0xbd4962a63dc2bca0U, 0xbd76a133bdde14f5U,
  0x3d3176db3e544e5aU, 0xbdc7c88a3dfd52edU, 0x3c7e2e5ebc3a6ac8U, 0x3dda29cb3e0f7d40U,
  0x3e44f6b8bceaa114U, 0x3d96820d3cddb22aU, 0xbd2c501abcd1ad76U, 0xbe289dafbdb534f6U,
  0xbd9df3863db57c11U, 0xbdc3383abcb37654U, 0xbd999b8dbd07a32cU, 0x3d8557a4bcd1a9e5U,
  0x3d7205e9bd990c79U, 0xbd16a88ebd6439e6U, 0xbc07e7d7be08bb8aU, 0xbe0fd0363d3612b1U,
  0x3c7ecf85bcfecd4bU, 0xbc895e0abd3f628dU, 0xbe9b61283ca6c2afU, 0xbd36c9adbca1b94eU,
  0x3e0621ba3d8ccec0U, 0x3e3168d2bdc2e517U, 0xbd96c9b5be7cd8b4U, 0xbe689b23be3792f1U,
  0xbe1e01e4bb19ff04U, 0x3df26898be353cd7U, 0x3d1a48b1bda2e5a5U, 0x3d86fe4e3c9ee3e1U,
  0xbc8026193b533688U, 0x3d8c31e53e19c696U, 0xbd54d475bd2f4af0U, 0x3d0b77713c25a644U,
  0x3df5e9dabd9a0850U, 0xbdea39dcbca3e3e9U, 0x3e3270a23e1418cfU, 0xbd8f523dbe2f2465U,
  0xbe0bcdca3dd73ac5U, 0x3d67bab4bdc88e6dU, 0x3cd73aaabd9d7790U, 0x3d88a24bbddb9109U,
  0xbe08ebb73d3d95aeU, 0x3ca6c9b5bdbeda25U, 0x3dabd964bd0c1a19U, 0xbd0099c33d7a0f50U,
  0x3dc7f58cbde1de56U, 0xbd9fecb0be21319dU, 0xbca7ed223b5dcf7eU, 0xbcf007ab3d3afc8dU,
  0xbd207d69bd699121U, 0xbdeca59f3c1635aaU, 0x3dc778c8bd4e4823U, 0x3e1d6b4f3dc6012bU,
  0x3d1aac47bd038805U, 0x3c1df13a3ce26315U, 0xbcd1655dbd649c91U, 0x3d6580633dddb9ebU,
  0xbdc9a84fbd840c1cU, 0xbdeb8158bd60eb61U, 0xbd734925bd9f2957U, 0xbc04ed0bbdc0d9b1U,
  0x3d2b69a8bd13486fU, 0xbc8bf5e0bdd67cd9U, 0x3e1788aabc37bb27U, 0x3e25c6a6bddf7c39U,
  0xbdafd48f3e1103a1U, 0xbdf34b2f3dfbb611U, 0x3d431419bd920124U, 0x3d73fc8c3d87a5faU,
  0x3d2688fcbd965ae0U, 0xbdd43f73bdbcff48U, 0x3d4df0b4bd841665U, 0xbcaa95833e1e1d07U,
  0xbe3d59ea3df68190U, 0x3d4c1bf7be29de12U, 0x3b02bc153d03e5f9U, 0xbcd91c913d3add9aU,
  0xbdeb8343bd6e315eU, 0x3e07c9c5bc132cb7U, 0xbd9386d3be20f78aU, 0xbb6f0628bd0f093eU,
  0x3c9b728dbcb07620U, 0xbc541a003cda6e4fU, 0xbe7a207cbda5efd7U, 0x3de0e06bbe4f2618U,
  0xbd14e48cbd278991U, 0x3d940d0cbddd86c7U, 0xbe5848073c3d3fdaU, 0xbc873a04bd9778a9U,
  0xbda3ad7bbd8e86cfU, 0x3d9cbb773ccebed6U, 0x3df895393d71de40U, 0xbda6b9243d8e542dU,
  0x3df20b99bdf46b0cU, 0x3cffd6ab3d11e0c5U, 0xbdba9fd23df91874U, 0x3d46bceabdae183fU,
  0x3db015813a9f2718U, 0xbd93b2d43d64af6dU, 0xbc82f60f3d898f65U, 0x3e19cfc6bcc46432U,
  0x3e2413143d81abbdU, 0x3d75e1523c46453aU, 0xbe22d3d1bd68d99bU, 0x3e1f7574bd888fdbU,
  0xbd25ea953d74e6d4U, 0xbe02ce33bcbb919dU, 0x3e28d7e2bdb2f929U, 0xbdd1caf63d21da22U,
  0x3e0ab53dbe057ef5U, 0x3db42cd33d768515U, 0xbce536a13db56736U, 0x3dabc108be44c3eaU,
  0xbe1e2e183daa747dU, 0x3df4d6483cb7b92eU, 0x3c3a3d3f3db39d90U, 0x3df13045bd9ae1b8U,
  0x3d8cfae8bcb278f0U, 0x3d03a02c3d3bf9dcU, 0xbd554361bd9a578cU, 0xbe3537d63d26032bU,
  0xbd11b2abbdcb7bfcU, 0x3d94400ebcffa158U, 0xbcdf9b65bd00759dU, 0xbe11f672bccb2863U,
  0xbe1c4f97bda0817fU, 0xbd4e0f4dbdc8bc35U, 0x3cc5041ebb9ebccaU, 0x3d15c2e63d802324U,
  0xbe3079cabc36a8c5U, 0x3d9375c13e2b4e6dU, 0x3d4309543d840acfU, 0x3d1f0ed43da8adf2U,
  0xbdf3df873c620275U, 0xbdc8049c3dd66bdcU, 0x3d732218bc1cd0d6U, 0x3ca34dbcbe1802f3U,
  0xbde506f63d9625cfU, 0xbc5b94283ccd8324U, 0x3d3a93fdbd8150a1U, 0xbd4ad10ebcdbed89U,
  0x3c4af2883daca252U, 0x3e2020a63e1185cbU, 0x3daafc143dbc3250U, 0x3d91452e3b5afadeU,
  0xbbada7c2be02917dU, 0xbddc5a8abdd76ffbU, 0xbe8381a4bd564034U, 0xbdf9c8ff3dbc4710U,
  0x3d841934bce1ce05U, 0x3cc3df0abcdd76c3U, 0x3e1d0c793d96b4f3U, 0xbce1231fbcfe82e3U,
  0xbd5feecb3dbf00a6U, 0x3e16f8193d88c031U, 0xbd721a38bd80f51fU, 0x3df2e6be3dd904a5U,
  0xbcf159bc3e0954f6U, 0x3da41ff73cf831faU, 0xbd4032c03d9b3014U, 0x3ca240fe3db11c39U,
  0x3d8f4e09bd1ebc1aU, 0x3e3986bdbdd21a7aU, 0x3d1c8ba93e01edbcU, 0xbd1602d9bd63159dU,
  0x3df0077ebcabc572U, 0xbde61ef83d5a36a5U, 0x3d5a6c3c3def9e6aU, 0x3ce54c293c5c2639U,
  0xbdc07ac03d44da62U, 0x3dc1f537be9974d4U, 0xbe0fc6d4bdb7fc4bU, 0xbe24b1fc3de86c85U,
  0xbe0576723d24eecdU, 0x3dbf511abd0554a8U, 0xbdb40a1a3d97cf0bU, 0xbd8e786c3e0b8b45U,
  0x3d807b41bd23c7eeU, 0x3c919b063afbc528U, 0x3b980cc1bd57c8e4U, 0xbe2130f1be0f5064U,
  0xbe2b59e8bc6d5482U, 0x3c783ca9bda5794cU, 0x3de78c0cbda06047U, 0xbc155b31bcec9d1eU,
  0xbdd62bc1bd6b71e0U, 0x3d86ca51be1ac181U, 0xbbd9c0453dbbb973U, 0x3dad7d2dbdd291c4U,
  0xbc725c0ebc5379d2U, 0xbe17e4e5bdaf35c5U, 0x3ddb4c173cc97899U, 0xbdd02725bdbb57d0U,
  0xbd4e653ebd39bbb3U, 0xbd31c863bcb11441U, 0x3cd641aabd3fd8f2U, 0x3c193544bd91114dU,
  0x3e841ea03d75d12cU, 0xbe492d0dbda6b575U, 0x3dd50a963d819b31U, 0xbdfd83713d9929bbU,
  0x3d80624bbdceaafdU, 0x3e656dd93cc4c1edU, 0xbe347aa83c9b2331U, 0x3d89c4fc3e0b032bU,
  0x3e54e80ebdd0b067U, 0xbd9301bd3e167470U, 0x3e095e95bcdb96abU, 0x3daa7c6dbdde5b48U,
  0xbd186e47bd5855fcU, 0x3e254043bdeda4a5U, 0xbddae31fbe5ef8eeU, 0xbd241fadbc9c02e8U,
  0x3d2d31f73d7ff011U, 0xbd1a5453be206035U, 0x3dea9736bdff635fU, 0xbc7eeab63e167687U,
  0xbd4d1eda3c5239eeU, 0x3d47fe31bc48130dU, 0xbe1492fb3dc30528U, 0xbc660115bdeb397bU,
  0x3d5efc04bca66f5eU, 0x3ddc27763dec90eeU, 0x3daab49f3ca39e27U, 0x3d42db4fbcd2d3c9U,
  0xbbd65c433d6ca587U, 0xbd75e23c3c399b81U, 0xbe098d083e4fe922U, 0xbe0a5d1dbca04299U,
  0x3d0a0c563d8e94b2U, 0x3bd9fb133d1373ccU, 0x3d3a4d49bc9d531fU, 0xbdc0f8123dc1baf9U,
  0xbd3841933e1ffb98U, 0x3db3e8d83dc657daU, 0x3bc816d23e16ba8aU, 0xbcd9c96fbe3201a0U,
  0xbd1b76b6bd17bf3fU, 0x3dbb02943cb820fcU, 0xbcbe03cf3d862bddU, 0xbca34b213dd43045U,
  0x3d9349f83dc1f8f9U, 0x3de8971fbd01cdaaU, 0x3b607a5abd804914U, 0x3d405c70be0e67c9U,
  0x3cb0652bbdc2ef49U, 0xbde921dcbe204acdU, 0x3dab2a2dbd1afa0aU, 0x3e327619bdc5cc55U,
  0x3e2e42a33d73fbebU, 0xbdcca2babe01d88dU, 0x3d339c3cbe26f015U, 0xbeab740f3dae5e4cU,
  0x3dbbd0a5be80eb3aU, 0xbe09b86ebdb74e25U, 0xbd410d463d843744U, 0xbddab1523bb0df45U,
  0xbe1ae1743c4f261fU, 0xbd2ce2f8bbf19a2fU, 0x3c4839f63d80128aU, 0xbe1eb9e63c3fd37fU,
  0xbd8090cebd9c03e5U, 0x3d8b59fbbd930f21U, 0x3e1ac81a3d97e1b6U, 0x3de68e59bd3e216cU,
  0xbdd69e4b3dc3a7e0U, 0x3e0ef2f5be2f475eU, 0xbd74adcd3d0c5d46U, 0xbd3258d43d12c1c8U,
  0xbdda8794be0c1026U, 0xbd5b98b7bda4b494U, 0xbd81b01bbe532b14U, 0xbea9f6c4bcdf575cU,
  0xbdcf543ebd7f8ff2U, 0xbd74816abdbb7679U, 0x3c0cbe87be2bc1abU, 0x3d9bad55bd68a239U,
  0x3dacd9573b542cb1U, 0xbd7b2e4cbd1afde9U, 0xbe56f6cdbd18aa6fU, 0x3dc04b513d906e8bU,
  0x3d0d680a3d57e3c8U, 0xbdad0e173da45961U, 0x3d41d4c2bdc74510U, 0x3d97c47ebdb125eeU,
  0x3d9621a63cafb301U, 0xbe1b1b523e52ed9bU, 0x3d001a643dc0b9a7U, 0xbd8241373d9898baU,
  0xbea5ba2f3d9566bdU, 0xbe290f0dbc53a82dU, 0x3dc08b273dc0392fU, 0xbc378dd9bd43d913U,
  0xbdc797e3be8d94e4U, 0xbdab56c1bd7ce061U, 0x3d4f52ec3d275606U, 0x3e62474f3e18c105U,
  0x3b995d773d847863U, 0x3e0310adbdce9bfaU, 0x3c1b0f913e3d9977U, 0xbdd9f257bcfcfa66U,
  0xbc5a0e3b3c4dbcc3U, 0xbd88e6303c667a79U, 0xbc24afd7bd6d8419U, 0x3ba054edbb48675fU,
  0xbcad58d43e17d2acU, 0xbd8eab27bd2a01a0U, 0xbd24be1bbcf8462cU, 0xbc828d6bbbcf347eU,
  0xbe7bb691bcca0212U, 0xbe694716bc8f7c46U, 0xbe07df01bcf017bdU, 0x3d0ff3a03da3fd75U,
  0x3e501585bda2c131U, 0x3dff086b3df449fbU, 0xbe0d11723d8607e8U, 0xbe1077aebc80279bU,
  0xbab4bec1bdac60dcU, 0xbdaf7023bdc1a332U, 0xbdb39937bd81f39fU, 0x3d877655bcfde36bU,
  0x3e07a8f6bd8fe640U, 0x3e0e45cdbdea7fdeU, 0xbddb5c35bb8fc0a3U, 0xbdd4c1f7bbb8ea04U,
  0xbd87702ebc9bb7d8U, 0xbdbc3558be5d8b3aU, 0xbd4527393db3390eU, 0xbdd6d7b7bd80d4d2U,
  0xbd203935bdcb0fe8U, 0xbe90b637be0fa2e5U, 0xbd086b5a3d549c3aU, 0x3c94493bbe6c049dU,
  0x3e202e7e3df72565U, 0xbdf7c4d1bdf6c6e7U, 0x3c8af07bbc398087U, 0x3df15bda3dba54b3U,
  0x3d4290183d234d31U, 0x3c5256833dfe50bfU, 0xbdc623ea3cf575d5U, 0x3da55704bd82f515U,
  0x3d80f5023d618036U, 0x3d13479b3d34f1a6U, 0xbe0d4e11bdd28f5aU, 0x3b0d3a003c4a4a4bU,
  0xbd8f3e7f3d0c517eU, 0xbdaa8f52bd9c689eU, 0x3d6cd9b63e082239U, 0xbe3f3d273ba08688U,
  0x3d0eaed13c8e58ceU, 0x3d970e58bcbf118eU, 0xbd516d8d3d0e3eefU, 0xbce655b7bc88d694U,
  0x3db63290bc85e33aU, 0x3cf55a2e3d3636c4U, 0x3d92b8173d9f6e87U, 0xb9b107d2bca4cb64U,
  0x3c74ae753d8c1ed6U, 0x3d4edf8cbc83e899U, 0x3dec51ad3d84b7b5U, 0x3c9f28283d58f079U,
  0xbcfb68253caaa0fcU, 0xbe8fdaf23e200ea7U, 0xbdf248aabd9dd6e8U, 0xbe03c48d3ec2d67fU,
  0x3f0612c6be75b59fU, 0x3dcc04293ea27350U, 0xbe1aedddbe46bd23U, 0xbe9ea9873b5d8b02U,
  0x3e876f89bf03b85bU, 0x3e292bb1bdf8aacdU, 0xbe6e483dbe413238U, 0x3e5a64753d9d0a35U,
  0x3e0ae521bee21d29U, 0xbeba51abbf02e2fbU, 0xbe14bdb83e74a501U, 0xbe833bfbbdfd3bb1U,
  0x3d2fc6003e8e1359U, 0x3e9cd6ad3b8289caU, 0x3e7df4c3be46dd04U, 0x3e926485be302d1eU,
  0x3e6c65ccbdaf6788U, 0xbc1404283de2daaaU, 0xbd181e0f3e6b7a50U, 0x3cf3bcdabe0856c2U,
  0xbc16a7dbbed893d0U, 0x3c332dcdbeed81a4U, 0xbe913df0be09638aU, 0x3ca3313b3d56461fU,
  0xbe4571773e27c63cU, 0xbebf224fbe625864U, 0xbe07149c3e1ee1f3U, 0xbdcbf9813e70ba5eU,
  0xbe8d66b3bcf13d5aU, 0xbece28953c75aaf8U, 0x3e27b92bbdd12f6cU, 0x3db2158e3e8fcd24U,
  0xbe88766cbecbfba7U, 0xbd250bedbe8c7c13U, 0x3e3f067cbd916ce0U, 0xbda849c9be23a5e6U,
  0x3d82daaabe86c4e8U, 0xbec065cabe8a4df6U, 0xbe5d1609be97ed08U, 0xbe24babe3d2fc950U,
  0x3e207d7e3bae608fU, 0x3e93babcbec99a00U, 0xbe8aa8533e78e61fU, 0x3ed2d90a3de5a90aU,
  0x3e046f1e3e8c8f89U, 0xbe4f09b5be9da550U, 0xbdbe2f7f3e5e6dbdU, 0x3e9180063e9fcfa2U,
  0x3e3ecb84bdf54730U, 0x3d88be2abef0096fU, 0x3e15587d3bcd2e95U, 0x3ea5165b3d69f2d0U,
  0xbdfc2185be1cc22aU, 0x3e0ce222bea11894U, 0xbe7e470d3d6d0c61U, 0xbddd7c5a3e3fdc81U,
  0xbe1d94873c55abe3U, 0xbe2d2691be547bdaU, 0x3e63a8f93d201f71U, 0xbe72d7e5bdb60fdeU,
  0xbef3d973bce20a84U, 0xbe10a021be55857cU, 0xbb927b47be93fa7bU, 0x3dc288133ed816adU,
  0xbd395505bec08374U, 0x3dafa4e63e7bec01U, 0x3ed575be3cf60f81U, 0xbe13e0413e75403eU,
  0x3e971fb8bd2103b8U, 0xbe7fe1263dc851eeU, 0xbe1d0da93e6434d2U, 0x3d87deba3e91902fU,
  0x3e43126cbc322021U, 0x3e99b534be8d1f47U, 0xbeac8aa0bee1d2d3U, 0xbcc6e37a3ebe0d00U,
  0xbdc4d2823ed84faaU, 0x3c0c32483e5a6c0aU, 0x3da869ea3e046b97U, 0x3e648fa53eab07e1U,
  0xbe21c15ebda28568U, 0xbe63fd98bcee3dadU, 0xbcc0d5d8bdabe3ccU, 0xbdec2c443e0299dfU,
  0xbd265c2c3c324586U, 0x3dff09973cb24a2eU, 0x3e03f36ebe4bed79U, 0x3e6db4d53e54cbbfU,
  0x3d0b08673e843aefU, 0x3e2760bb3eb1edc2U, 0x3f005153be947b3fU, 0x3cd677edbe432824U,
  0x3e43f1e0bf1dceb2U, 0x3ea31428be8742a3U, 0xbe33a145bd9f3299U, 0x3de35c11be8d6cb7U,
  0xbf2100973e3e9286U, 0xbeb911873d0255a4U, 0x3d8bb3db3d8689cfU, 0xbe7c7c63be44f955U,
  0xbd79ebe43dfe03bdU, 0xbefbc923bdaf77fcU, 0x3df9da5fbe11a2f3U, 0xbe3efe00be2ca3c5U,
  0x3d3331eabe3db3d0U, 0xbdb717ca3e8ea293U, 0xbe390af6bec8c159U, 0x3eac902b3e156867U,
  0x3eb885a4be523624U, 0x3c00f7b6bd42aad9U, 0x3d8e87713e9d9b12U, 0xbe31b3233edbfcaaU,
  0x3e54cde83ef2a2a2U, 0xbe0c135cbe1582c3U, 0x3ee12a0d3db0a93aU, 0xbe54afab3b28bb42U,
  0xbdd028ba3f09df24U, 0xbe5aaaeebdf0b84bU, 0x3e98dc1f3d1ba5a5U, 0x3dd55441bf293b30U,
  0x3e11edbd3cf9225eU, 0xbe81535c3dcd6333U, 0x3e56c33bbdd30b29U, 0x3d857a223e330ad9U,
  0xbcc07a3dbe024c83U, 0xbe3579a43e832b29U, 0xbe44ec4abec3fc13U, 0xbdb07c733adb875dU,
  0xbf00429ebf3a6c8bU, 0xbebf7ade3da9b242U, 0x3c3b0c2bbdfd6466U, 0xbd8c08293ec1f638U,
  0xbee60b74be4d8288U, 0xbeb5455cbd1e339bU, 0x3ee992a03eb8d2fdU, 0xbd088e293d83ad2eU,
  0xbef008333cf23641U, 0xbd538a30be32cf83U, 0xbe809840bf15b2a4U, 0xbf13c6f8be07a68eU,
  0x3e85364c3df0b946U, 0x3d7b5680be0a5d13U, 0x3c92f8973ded387aU, 0xbe80c8ddbd52ae43U,
  0x3d2d631f3d951384U, 0xbe8562303e4623c0U, 0xbf150a053d6a535eU, 0xbd03e2f8be208b5bU,
  0x3e27faad3d273e3bU, 0x3c15f6bfbf07649aU, 0xbe95d15cbd9c25f9U, 0xbe39389a3e06f661U,
  0xbe4fed11bd5ca4b7U, 0x3da409cc3ea83804U, 0x3ebef735be13951fU, 0x3dbe9e30be3e508bU,
  0x3e8031a7bee6781eU, 0xbd0e8b0abd0f72dfU, 0xbeade9cbbe0f26dbU, 0xbdbbb3553e99a550U,
  0x3df68ac6bdf85b58U, 0xbe83f342be88c826U, 0x3e520cf43da7d6b5U, 0xbc45b22a3f243c89U,
  0xbd8f60753e13cc49U, 0x3dfbe70f3eaa5ccbU, 0x3dff8138bd3a4bcbU, 0xbe54e9b2bef632b5U,
  0xbd82a96dbe4c66e5U, 0xbe782573bc8b0174U, 0xbe3a04d83eb80e03U, 0xbf1b3a17be9529e7U,
  0xbd495dd43d28af3dU, 0xbcc7b1f73dde7915U, 0xbe3c272d3e13353bU, 0x3ebc96cc3e0d5100U,
  0xbe8e85b63ea69053U, 0x3d33715b3d93fabcU, 0x3e5d70cabdba227eU, 0x3cb9079fbdfa11c2U,
  0xbe7a18163ebd4f57U, 0x3d93096bbdef0c0aU, 0x3e71071c3ea2f667U, 0xbe2b54733e377ebaU,
  0xbdfd27183ed5e9ffU, 0xbeb7c02d3ee83346U, 0x3d31b06f3cfd5f63U, 0xbd9df2133da0d1e5U,
  0xbb4669fdbe2edd03U, 0x3e06cc393e252e96U, 0x3dacb841bde1da36U, 0x3d51cc20be81f6bcU,
  0xbe17e431be810f32U, 0x3db93df6be8d4cb2U, 0xbe789420be9a54c4U, 0x3e0c53eb3e29d6ffU,
  0xbe9dfab43e26a7f4U, 0xbe99bbc03e027d99U, 0xbd9214fabf011d91U, 0x3e02ce34bd46171fU,
  0xbdf8d1adbd0d29c6U, 0xbe933e95bdae402aU, 0x3eac7566bc970995U, 0x3cf64f53bde5fa0cU,
  0xbd9d5fc1bee3539aU, 0xbe8098653f0925c7U, 0x3e1cb274be3922dbU, 0x3d98da21bc277782U,
  0xbdfb1ef9bdffcc6fU, 0x3df79e3f3e24ce57U, 0x3e1e527fbe903a7dU, 0x3edfe5bbbd8f82bfU,
  0x3e99bcde3c0c0502U, 0xbdad8ae13e1669efU, 0x3ef453c9bd17bf30U, 0xbdba6b563d33cf17U,
  0xbd229ffe3e9b70ddU, 0xbd88656ebe1610e8U, 0x3d854ab23e55e35cU, 0xbde385223ea346f4U,
  0x3e39188bbeba3335U, 0xbe4f12433e2db7f9U, 0x3d7587143f10ceebU, 0x3e0275b6be49fae3U,
  0xbe29d61f3cf7edb0U, 0x3d5be26cbe106a1bU, 0x3eb6db153d4eeb61U, 0x3de653863e728bb2U,
  0x3e3f8164be88a3d4U, 0x3d6bcf8cbe11701bU, 0x3e27de57be24c43aU, 0xbdda832e3e0216e6U,
  0x3eb7487c3e266c3bU, 0xbe264633bdc0a8e1U, 0xbe99ef9f3ed8d1cdU, 0x3e625b393e1c1390U,
  0xbe9da3933d1c0c70U, 0xbce8bc823d6c6387U, 0xbc6402efbd42e4a2U, 0xbe6fe5a73eb53dffU,
  0x3d313511bdf3398eU, 0x3eb19f3bbe617337U, 0x3dd8db073e330e74U, 0xbe990d643e83698bU,
  0x3e8fc599bc3bd995U, 0xbe65ade03df915a6U, 0xbd9895e33e09436eU, 0xbe2ace5cbe2b3207U,
  0xbe10aab2bcb66b5aU, 0x3cfd0a8dbcad485cU, 0x3e45e3b93ebce577U, 0x3e8399953b8106c1U,
  0x3d348c2e3c831b96U, 0x3de459c23ee27f97U, 0xbdc69e98beadec8dU, 0xbdbcd239beb0fbd5U,
  0xbdc0af71be89e7d7U, 0x3e95061bbe04da46U, 0xbe82ada53ea7f4e5U, 0x39f51a29bea32b74U,
  0xbd00edd53e25fd70U, 0xbd09df253da93429U, 0x3e0bd4173de4be0eU, 0x3d26d1cbbe21bfafU,
  0x3e1bc96f3e71d665U, 0xbdb19cb13d591df3U, 0x3d9072c13e1e80f2U, 0x3df6e90b3e49031bU,
  0x3f31e6d3bf0eb5fbU, 0x3dc67eabbeba7f83U, 0xbc198abf3e99b327U, 0xbdd3f9da3d0ddfa1U,
  0xbe34b8bcbd84613cU, 0xbc1a5bf63e76c613U, 0xbef0e6e5be6047cdU, 0x3e7748fbbd447473U,
  0xbe0d2ef63e808371U, 0xbe23cd523db51184U, 0xbe174a6ebdba3f78U, 0xba96a8de3dd58b8cU,
  0x3e7f29d13eaabc26U, 0xbf121b46be899f95U, 0xbdb083fcbe4ceb8eU, 0xbe6397bc3e8da6c5U,
  0x3e9a8321be9eaed1U, 0x3eb543263e13f892U, 0xbdcf207a3def7bf8U, 0x3e82615d3e9d25c6U,
  0xba7a38aebe4da337U, 0xbdd2cbc93ea36d5cU, 0x3eadceb8be62e6f5U, 0x39c13bce3ebe00f4U,
  0x3e280d1abd97cc56U, 0xbe23b4aebd4b8004U, 0x3e5717a8bdb1fdd7U, 0x3e20bafcbf0d7764U,
  0x3e43da6abd45c10eU, 0x3de6c1dabe068e19U, 0x3eb64b263e64b192U, 0xbe9d00073e72cbb8U,
  0x3e0020cd3ea9e465U, 0x3e0b805f3e49c028U, 0x3e41ad0c3bddeb3cU, 0x3d7e3eddbe6d7f54U,
  0x3db711e73e06f3a4U, 0x3e0a98ec3bb854e3U, 0x3bb1499cbe46ff07U, 0x3e42df413e9e637bU,
  0xbd87530f3ecbaa9cU, 0xbe81ea643e977e1cU, 0x3e6c4ffe3e6211e8U, 0xbd9e8502bc7a448fU,
  0xbe921cc33df4c0b6U, 0x3c0e95e0be88f7aaU, 0x3db8dd86be823d59U, 0x3e87188bbe710504U,
  0x3d857e043e4cd06bU, 0x3e271f033d3e684eU, 0x3e22aa34be56f37fU, 0x3e8524403ebef521U,
  0x3e2d78dabeb14a81U, 0xbebb2c64be1d02f5U, 0x3e9b05d83f0be0a8U, 0x3cfa5a753e524f25U,
  0x3ea8eab1bcef9ac3U, 0xbeb262f63d3c9ccaU, 0x3eda93403e5b9a53U, 0xbee96eda3e0961aeU,
  0xbb0ddbde3eea5588U, 0xbd8c2d6f3c836f8eU, 0xbd9b85443dce9b32U, 0xbe35fc813dba07baU,
  0x3d89f6debe492323U, 0x3e30baf0bc60be8aU, 0xbe9930e23e3e1ccdU, 0x3e86053d3e551d6fU,
  0x3ee931a53ebbe0acU, 0xbe37a6783e51d1beU, 0x3ccd4eccbe07365fU, 0xbe36c503be91a2feU,
  0x3eb43f34bd3c6b03U, 0x3edb96fd3eb7bc17U, 0x3e6e54e6be1e9b0dU, 0x3ea90cb7be6e982fU,
  0x3ed5cfd2bdd90755U, 0xbe52f95abe801d4aU, 0xbec302e9beabb3a3U, 0x3d6cfcc8be33d96bU,
  0xbdbc5b1abe9a1ecbU, 0x3e0e56c8be48c81eU, 0x3d2072653e59eb43U, 0x3e380418be603649U,
  0x3efe5105bf03633fU, 0x3e27727cbe0ee29cU, 0xbe2d99d93cfa2f09U, 0x3e05263ebe8df72eU,
  0x3dce83d2bdbce3dbU, 0x3dc4df163e695762U, 0xbe077b313dbde50fU, 0x3d6e042a3ecbc6ddU,
  0x3d64492d3d9b4f55U, 0xbe5aab99bb9335b9U, 0xbe1c14f8bcd8fc58U, 0x3d9c96dbbe018b7aU,
  0x3e293fa93e5a0b9bU, 0x3db2f2063d82bdb0U, 0x3d7eef1bbe4089f0U, 0xbe9c8816beb5fd0cU,
  0xbe886870bf278619U, 0x3eba28a8befc9ff9U, 0xbda36820be7a16daU, 0xbdf9de22beafd086U,
  0xbe8199a0be26f7b4U, 0xbd80d048be4381f6U, 0x3d99e3313ebe6994U, 0x3db192503cda4c13U,
  0xbb05f3273e786f2cU, 0x3e3d2c2b3e93d631U, 0x3d9fa6513e48ca9aU, 0x3d626bd9be5ce76dU,
  0x3e1e3b1dbe95dc37U, 0xbe0ed5c2bc9c860bU, 0x3e4bc694be0571aeU, 0x3e6634fc3e85666aU,
  0xbd0605ab3e8b0efeU, 0x3ccc49b33c84fe8bU, 0xbe6acceabd116838U, 0xbe64954dbeb86f03U,
  0xbdcb106abc8e685cU, 0x3ef4d3233deffd2bU, 0x3e14d6d9bedc9937U, 0x3e83e7fdbed01d1cU,
  0xbd06bd35bed70e64U, 0xbdc4cc943e7ae2d4U, 0xbb9c4f0abdbd04e1U, 0x3ebfe821beb55d6fU,
  0xbe869a443ddc2b07U, 0x3eee599fbde3dd0dU, 0x3ebc028e3ebc3622U, 0x3eace5b13d4d148dU,
  0xbdb718f7bde938a4U, 0xbe8c4cfc3debac2bU, 0xbe95db22bdeecc06U, 0xbd35c8773e513d74U,
  0xbe629c003d9e7327U, 0xbe462d85be660f64U, 0xbe72fb29be2003b3U, 0xbdff5052bd76cc83U,
  0xbd7f6fdb3e2ab247U, 0xbed29327be61bcdfU, 0x3e6ac6c1be3c479cU, 0xbe4b83a3be2ebdf9U,
  0xbe7f35c13e3ff246U, 0xbdb0ed8f3e9fd52eU, 0xbe87a70b3e619ba9U, 0xbeabddd23df40b55U,
  0xbedc8443bf135661U, 0xbe9e5537bc41591aU, 0xbe64a79abe5bb7ddU, 0x3e63ffe7bddd639cU,
  0xbda610e2beb7f223U, 0xbeaf7068be6923d6U, 0xbe99f984bddae7dcU, 0xbe8fa0fcbf3327f7U,
  0xbd406cfc3d053ad7U, 0xbd9a257fbd8f1283U, 0x3de1fc70bea326b4U, 0x3dfba9bebdfcbdf6U,
  0x3ed4ba78be9af77eU, 0x3df73014be54bbf5U, 0x3e8d8d41bee24c64U, 0x3d291d12be214305U,
  0xbe0849ab3e067b69U, 0x3dd9b1b8be830881U, 0xbe995226bd92aafaU, 0x3ea2f7163e1d95b2U,
  0x3eafcd92bdf9159bU, 0x3e02e5d83c63055bU, 0xbe7f61d1bddac0ddU, 0x3e9558b73e6fcb2fU,
  0x3e1de2703e0c94a4U, 0xbda45e24be93720bU, 0x3d538a03beac4e69U, 0xbe743fdb3ebb8bfdU,
  0xbeaaa1bd3cf65806U, 0xbdf28096becd538eU, 0xbd31b6bb3ce04607U, 0x3e559f8f3d0987cdU,
  0x3e2da8953ea67fe9U, 0x3e9fe3f0bdc59d79U, 0x3e8c3a593ebe29ddU, 0x3b9fe8e13ea81e98U,
  0xbf03bdb4be43fcbfU, 0xbed6a068be105727U, 0xbe8eaf52bcdbc079U, 0x3ee06d753eda5d26U,
  0x3c04316ebe12aee0U, 0x3e80aa52bed61ae5U, 0xbe73f28abe076cffU, 0x3eba6d2c3dbb333cU,
  0xbca6df66bdccaeaaU, 0xbd25c122beca10bcU, 0xbd8013dbbe88d2a7U, 0xbdeba896bf16f233U,
  0x3bc229cbbde6df26U, 0x3e8de418be3d3bd2U, 0x3e593218bec3385aU, 0x3e2dcadf3e33bc05U,
  0x3ebf00e73d8bb39bU, 0xbd994d21be802352U, 0x3de45cf13c0d92b4U, 0xbe3cb857bbef6d80U,
  0x3dc0b97dbc291ce7U, 0x3de93668bbd58222U, 0x3e18f62a3c3e2994U, 0x3ea56dfc3e98fb5aU,
  0x3e1ba30d3f17bc5eU, 0xbd5185c63dbeb11fU, 0x3dd3f1923e99daedU, 0xbe4e79efbf0622a4U,
  0xbc1df86a3dceaa4eU, 0x3eef4c0ebe30a88fU, 0x3e292cd03f0434f5U, 0xbe59878a3efb6bdaU,
  0x3e813b8dbd7ab537U, 0xbe5ab125be35d250U, 0xbc63035fbdb16dc2U, 0x3e3b957e3d8c045dU,
  0xbdb17691bdfecb62U, 0xbeb7953a3e1d5341U, 0xbd66407f3d598e45U, 0xbd1e719fbec08d01U,
  0xbeba42eb3e2cb1a6U, 0xbd337ca2be501c9bU, 0x3e8d54473e12654dU, 0xbd2108d0be885c25U,
  0xbd5babcb3e16318dU, 0x3e8577cfbe147735U, 0xbdd94c60be238493U, 0x3e48dbe33c934d91U,
  0xbde8fa6dbe883932U, 0xbe50cb34bcff6d03U, 0x3e19cb57bee2963aU, 0xbe034992be497d0bU,
  0x3cdba7293c468967U, 0xbee374fdbe899875U, 0xbeb183c3bd16f903U, 0x3e0c30de3d8dae1aU,
  0xbe2774603d9f5716U, 0xbd18c72a3e9041d0U, 0x3e921a023e80a0c1U, 0xbe074f283e2c0505U,
  0x3d5776c93dcd12abU, 0xbe8c75acbe819bf6U, 0xbcee46b4bdab9c10U, 0x3e1bce59be58460dU,
  0xbf0240b83e6d37b9U, 0x3e32671b3d23329cU, 0x3cf5867e3ec7a8b1U, 0xbe24d4cb3e1dd807U,
  0x3c967cf73d0fb7bfU, 0x3dfc8866be11e37fU, 0x3a4c37743e486ff4U, 0x3cbd96713e79122fU,
  0x3e93c086be9ba756U, 0xbe25dac5bd60a387U, 0xbe1cb74cbd241edfU, 0x3e7ddfb73ed2c621U,
  0xbee7f6d43d84ab09U, 0x3e17e6e0ba9867d8U, 0x3dff621f3e0aacfdU, 0xbdd3a41c3d8d9f09U,
  0xbee00a363d206d3dU, 0x3d4cc844be9295b7U, 0x3e7bbabcbe714515U, 0x3bae7996be20b5f5U,
  0x3e0e5b4d3f4124ebU, 0xbe5abe3cbe07c9d6U, 0x3ebc1889be217506U, 0xbe5382bbbe57c055U,
  0xbdbebcd6be06d436U, 0x3d4da99a3e9db334U, 0xbe82620c3ccc6467U, 0xbe491adc3e382d80U,
  0x3e99409c3e7ac1aeU, 0xbe39d76fbe99329bU, 0xbd99ebe73da0cf89U, 0x3e63e3343dd9886aU,
  0xbe7c16993e940d41U, 0x3e212de13e8bd1a4U, 0x3ddd763a3d1d7890U, 0xbeada29dbe996fb7U,
  0x3d2f63573e9e8af5U, 0xbe745b933d2b23b0U, 0x3d725659be0207feU, 0xbe381d8b3ecc2443U,
  0xbeb53f5c3e81666cU, 0x3bd2b10e3e5168e6U, 0x3dc1f2abbe850ff5U, 0xbd76ebe43f040f83U,
  0xbe294bdcbde6a613U, 0xbe23bee73e994533U, 0xbe7278b1bdc1e817U, 0x3e0f6e57be06e866U,
  0xbd8b3a5a3dc8c293U, 0xbe3e21e43e75c9f4U, 0x3e03b279bddd890bU, 0x3eec05bc3b722b1bU,
  0xbe1e82bbbd68d316U, 0x3e1ad8f7be0cd062U, 0xbe5e8044be59b576U, 0x3e1b886d3d35650cU,
  0xbcfac14d3e9b7577U, 0xbe7d3606ba6858c9U, 0x3ec2da7d3d537a80U, 0x3d376e8cbde25cd9U,
  0xbe9b8e413c81c043U, 0xbe84a9e6bd38c168U, 0xbed6f5483df97302U, 0xbe1da9413d0f95e7U,
  0x3e13381abe4ec263U, 0xbe7875403e92cd5cU, 0x3e16d4363dd5558aU, 0x3b1458b43e8a821bU,
  0xbe289bd4bea6ce43U, 0xbdca5c31bec0e5f8U, 0xbc0a4ed9bda81df0U, 0x3e4071e73e25ffbbU,
  0xbde5727b3de637f5U, 0x3eac690fbce2750cU, 0xbe082db8bdc98ee7U, 0x3db96c75bdeff699U,
  0xbef0baf63e5dd20bU, 0xbc2cd003be2e439cU, 0xbdc12fb23e11238fU, 0xbe79c97f3e3a4e30U,
  0xbed270f5bedc9446U, 0xbea1636dbed7ae5cU, 0xbdfc8525bd6ee0a2U, 0x3de5eb453e23b6f9U,
  0xbdee3e01be48bdf8U, 0xbb392ce7bdf489bdU, 0x3e3aad403e0a6393U, 0x3d3273c8be1776a9U,
  0xbda4441abc951ae3U, 0x3d35c98fbe4de9e5U, 0x3ea36558be9a252bU, 0xbdcf02a7be2d58cdU,
  0x3e8b51e23ecd0859U, 0x3dedf486be7e93ecU, 0x3ea0d698bc18ff3dU, 0xbeb5853d3e76e84dU,
  0xbd964e93bd8ba2ddU, 0xbde68d46be044f38U, 0xbebe82373dedca3fU, 0xbe50f2663e5712daU,
  0x3dcf4dbc3e9eb437U, 0xbd6a8f47bdf886ecU, 0xbe2b14383cc134d9U, 0xbe1d7a1b3d325933U,
  0xbdc5fd48bd6d34d7U, 0x3e502cbf3e75ee7dU, 0xbd0c192cbe559b7cU, 0xbeaeebb4bd98a732U,
  0xbd3f2eaa3dbd9bdfU, 0xbe9ec2253c6b6203U, 0xbd6512483e598648U, 0xbe4ed1153eaf6428U,
  0xbe7e59e53e3b32abU, 0xbe8392fabd98bd36U, 0xbe2c0f133de3e953U, 0xbbc6b17abe931a99U,
  0x3dc098a7bee02fa4U, 0x3e353befbcaef548U, 0x3d305a373e8103d0U, 0xbea136253ca3de46U,
  0xbe5e8f843e9ee8dcU, 0xbebfc82d3e001146U, 0xbe685dd2be138999U, 0x3e378510bdd71ba9U,
  0xbf03ddf538c1f2d9U, 0x3c62aca6bdbf8d4aU, 0x3e34b6623e55639cU, 0xbef650043e2e88f4U,
  0x3e819bedbde3223eU, 0x3b9cc1a5be911642U, 0xbe3796c83e1ad4b9U, 0x3d2f22ccbe951f5dU,
  0x3e28cec23e7ecba0U, 0xbe059b2a3e1b0efdU, 0x3deb43dfbeca0918U, 0xbe93a1703e72b9acU,
  0x3e5888c2bd5dfa6fU, 0xbe6df3f6bd9f03f1U, 0xbe5ac0fe3e01d5edU, 0x3e28c22e3e052df8U,
  0x3e43c8613dae54e3U, 0xbe222878bd65dfc7U, 0xbe76b90e3e4cd5c7U, 0xbe4d6c1bbe893dc9U,
  0x3e3fb614be3b24bdU, 0xbe5b54f1be0ddbb0U, 0xbd901454bce7da0cU, 0xbed03cccbd65ad14U,
  0x3d7f779c3e851619U, 0xbd4b10253dc36af8U, 0x3d9933963e935566U, 0x3e6824c3bdbae3e7U,
  0xbe82b8f8be343868U, 0xbdd9175fbee22a01U, 0x3e5872413e906889U, 0xbe917d643e98860eU,
  0x3d07a156be34d311U, 0x3d6a70d6be436e6cU, 0xbd27c7033e1abd98U, 0x3eb2b00abd915833U,
  0x3d769684bd415c07U, 0x3d861c3f3df16aceU, 0xbe8d62763ddba0cdU, 0x3daecede3d891f5dU,
  0xbd8b3593be6a3a2bU, 0xbe2e313bbe65699bU, 0xbe24d738bc05d3ecU, 0xbe5f3dfc3e642372U,
  0x3d4d88583d24ca64U, 0x3ea1351abe7d5a6dU, 0x3cd1af0fbeb139c0U, 0x3d04c53e3dd57f28U,
  0x3d9aa6be3cf340adU, 0xbe443edfbd5c4c5fU, 0xbd54a42e3e962166U, 0x3e1dd44cbee08f9bU,
  0xbe08c8c0bede4183U, 0xbe591c86be1e64ccU, 0xbe4a6be73f0547b0U, 0x3e0a9e913ebca9a2U,
  0xbd76db4fbe0e4baeU, 0x3e7216e3bc968bebU, 0xbe80cbe4be48c6eeU, 0x3d9fbb64bee24edaU,
  0x3ea56bea3d87847eU, 0x3de02512be4f17b3U, 0xbe9426373b32c772U, 0xbe0f2b633d810934U,
  0x3d7d9260be4ac606U, 0x3d0e58aa3d126c43U, 0x3e1a4d8d3d4fa022U, 0x3d5887f8bea19508U,
  0xbc31119cbd950699U, 0x3d0acc54be4e0291U, 0xbd8f6f98bd554980U, 0xbe5f54c1beb06441U,
  0xbd2898c23cd3171fU, 0xbebb5ff43df60286U, 0x3e2487d4be83c875U, 0xbe8c44cc3e99bc10U,
  0xbe4ef9ed3d3bfcccU, 0x3cc1f6cf3cbafd14U, 0xbdfa3a963e45b379U, 0x3dcefbb33e49f214U,
  0x3c8fcfe6bea164dbU, 0x3ca8accf3e35f0d1U, 0x3e0486023deaf89bU, 0x3d7e434e3cf75fb5U,
  0xbe69ef30be88393eU, 0x3ea94b063e9e8128U, 0x3dd92210bd9d7a40U, 0x3d3bd23abeb1c558U,
  0x3c4c1746befe11b2U, 0xbe640fa2be696423U, 0x3c2006023d20621fU, 0x3d28f0e23db10d97U,
  0x3d5c1fe83e161137U, 0x3ddb9d6c3df330e5U, 0x3d77f704be7823dbU, 0xbcd78e17bea2da23U,
  0xbd1b776ebde2fb4eU, 0x3e65d4e0be2c28b2U, 0x3ea11ce6bcdba9e6U, 0xbd86f6b03ba4314bU,
  0xbd6ceb66be3549d9U, 0xbd9553ef3d7152faU, 0x3c94547fbe4afe83U, 0x3c5d06963d3f655cU,
  0x3d4d0ed3bd73b295U, 0xbe5e6af5be063956U, 0x3e9153d2bd23f327U, 0xbdd2a257be583180U,
  0x3e069e2abdd138a4U, 0xbe9317a0bd574581U, 0xbe161db6bd04b3eeU, 0xbe5a2745be79b71aU,
  0x3ed9c353bec9247eU, 0xbec7cf39be079e8cU, 0xbda734d9be3db31dU, 0xbe83ba60be97e5c0U,
  0xbe4bef73be91abceU, 0xbe8e32473d0a7432U, 0xbddb90e5bdd3e913U, 0xbafd1991bf694d78U,
  0x3c363141be3d2d40U, 0x3dd30172beee5f6cU, 0xbf08a4a6be149a70U, 0xbe221c01beb4b1acU,
  0x3eecc4bd3e27cd55U, 0xbccc0a093d56ed35U, 0x3eb2935b3ccc36b8U, 0x3e4045fe3daf82afU,
  0x3d8897393e7a0f11U, 0x3efc89123d8a39c9U, 0x3dfda1a83d24990dU, 0x3ec7ccd23e362231U,
  0x3df7acb5be7f8c60U, 0xbea5a4463d5e5bffU, 0xbed156623da3ed56U, 0xbc9e5e81bde6dc77U,
  0xbe50e368be974e98U, 0x3e68a05b3f11ec17U, 0x3ebde5d9bf02b6a6U, 0xbea34dbdbecc7a34U,
  0xbcb91762bd7171e9U, 0x3e6705f23daff1c8U, 0x3c72509d3b07d7f9U, 0xbe5ef7b13e3de39cU,
  0x3e695af03e518aa4U, 0xbe63ce82be625ba4U, 0x3e0d16febe640ac9U, 0xbf1f963fbd06684fU,
  0x3df8de20be4ebcccU, 0xbebb3fd6bee4e21aU, 0x3d7a5e723eb53728U, 0x3ce388763ed2781dU,
  0x3e5aeafe3d114b75U, 0x3e324e043d2b58ebU, 0x3e66ff73bf3f07b5U, 0xbe27a59abf21fc86U,
  0x3f0892073e6f2ba5U, 0x3ed653613dd7edd3U, 0x3e23c78bbe319c27U, 0x3e85eb633da09dfaU,
  0x3e8ecf7abe8aa0deU, 0xbe2df1183d925fa2U, 0xbf00172d3e45de74U, 0xbe9af8163e5d3bb4U,
  0xbe93ecd93e5611abU, 0x3eb43b28bdcf3aaeU, 0xbe8c8bf1bdd3f81fU, 0xbdd8e70ebdea5a59U,
  0x3e164a8b3ea8d505U, 0xbed32a8b3e6f9b9dU, 0x3d4d87173ecf5e9dU, 0x3eb69448bde773e2U,
  0x3dd4da50bcf675f1U, 0x3d41ddbf3cc64a8bU, 0x3e549e7a3e966393U, 0x3e6721253f31a0f1U,
  0x3db79a7a3ebc4ecfU, 0x3e21a9f3be23ccefU, 0xbc04e9263e1a9b15U, 0x3e9ada3ebe184a22U,
  0x3d78519ebf33b280U, 0xbf18ce8bbe41c888U, 0xbe9868f3bd6c3c7cU, 0x3c820b44be0ce90bU,
  0xbe4c71c23edba896U, 0x3dc93b423d286a36U, 0x3e2c2c343ea5a7c8U, 0xbce84d98bea63682U,
  0x3ea7f463bdaf127dU, 0xbe61f0f13ea108a8U, 0x3df29ecebe2f32beU, 0xbe3b1b77bea28503U,
  0x3ea165923eadafb1U, 0x3d802a5b3e7c0269U, 0x3e8d09a03e9673a7U, 0xbf0987e73e8f70e0U,
  0x3cfaa4173eb527a2U, 0xbe4d89ac3e296ac9U, 0x3de9235d3e7c2092U, 0xbea115583eb92accU,
  0xbe5e2dfb3e86444aU, 0x3e91baf93dfdcf1aU, 0x3d712ab5bebeb23cU, 0x3f06f97e3e8be55bU,
  0x3ea5c5f9bd10196fU, 0x3e3353cd3b48640aU, 0x3e996bc33e0ab78bU, 0x3d6a337ebe0078ceU,
  0x3d9506503ecf013eU, 0x3ee74b34bcf502c2U, 0xbaa5f4e43e968b2cU, 0xbe246d37be380f68U,
  0x3c55cf1b3e68ac17U, 0x3e6615bb3e14d459U, 0xbc34093bbd6e7edaU, 0xbeb433c03d70561eU,
  0xbec613c03dd8e312U, 0x3d81afa73e6ed9eeU, 0x3ea90b193cbd2109U, 0x3dbfffd3bea7e76cU,
  0x3d2dc8f6be59cd9dU, 0xbd78184e3e169a78U, 0x3dcc3c20be39952cU, 0x3d135a59be082e88U,
  0xbe1ca15b3cbd481cU, 0x3decc33bbe291949U, 0xbdb5b4d23e3d4509U, 0x3e2c82f5bd0de201U,
  0xbe33f2a13e0bc83dU, 0x3c676f0a3e95999dU, 0x3e9d5ba83dd431bdU, 0x3e361c65bc2865c7U,
  0xbdb9c98abe6b98d2U, 0xbd983a4bbe98bdacU, 0xbed3f65f3d28bbc0U, 0x3cdd5963bee7ae53U,
  0xbe535642bd89cfc0U, 0xbe3f7c2abcd48079U, 0xbe7edbfa3c2c97c4U, 0x3e9cd3483da203ceU,
  0xbe4a072d3e8b1524U, 0xbe44a8623e13c94dU, 0x3d26055abe55583eU, 0xbe09289f3e535cc5U,
  0xbeb19daa3d951756U, 0xbbcc1dbd3be1130fU, 0xbd73962e3e0e2fd3U, 0x3e5158afbd2fd37bU,
  0xbd16fe13beb5f250U, 0xbef1f45b3f0f9296U, 0x3ee06a74bea74c08U, 0xbe346a9dbe83cff5U,
  0xbebbb1fabb6bb839U, 0xbe2f6e68bdf09af7U, 0xbea165573e6ae3caU, 0x3e864b17bc7cf442U,
  0x3cdac9f9be0a9f59U, 0x3eab1a2d3eb18880U, 0x3e426483bec60eeaU, 0xbe82d5e73e46f523U,
  0x3e3ee8273eba4f17U, 0xbdc9c1083eb2c544U, 0xbe5b82c73c6d5895U, 0xbe03a94b3e82028aU,
  0x3eb0be63bec75139U, 0xbe3fc457bdd682a8U, 0xbd70da1b3ebc8d21U, 0xbe25721ebc319f61U,
  0xbe48e55dbe0bd814U, 0x3ee519d73e90c12eU, 0xbedceaa9bda3fac4U, 0xbeaaf9543d8aed99U,
  0xbe23ac52be381038U, 0x3bd201d03d73fc3dU, 0x3da9984d3e38cbe0U, 0x3da5fe9b3d1eb65bU,
  0xbe15c378be17e3faU, 0xbe55d900be606414U, 0xbe16877e3dd8c219U, 0x3b8ed334bc69784bU,
  0x3d419e83bd85dd72U, 0x3db2e615be71593fU, 0x3d6b84823e34b1b5U, 0x3c912c4b3e06257eU,
  0x3e8ed9a3be88a3d4U, 0xbe33ee5d3cab579bU, 0x3c359cb23db410c7U, 0x3e3a0651bca3e9aaU,
  0xbc4219f6bc55f094U, 0x3b90e8523e4109ccU, 0xbe33bde53e7d77f7U, 0xbe2d69fa3e98585fU,
  0xbe2ca0e83e9515ecU, 0x3e508a63be744508U, 0x3e709bcbbeb42ab5U, 0xbd9b32783aa0ac8fU,
  0x3e65862d3d614f7eU, 0xbd7c9dc13e65b3d2U, 0x3da16babbe5c2d64U, 0xbc01e9cf3e719089U,
  0xbdef524f3d69eb1cU, 0xbdcfae6e3e39d0eeU, 0x3e07a07a3c678878U, 0x3eaeadb13ecb8222U,
  0x3d44e7af3d8e041dU, 0x3ddaacb0be027778U, 0xbcd54725be0e4423U, 0x3ca43f57bea119feU,
  0xbe1d11f03e2aad77U, 0x3b9923f7be8213d6U, 0x3ee7ce73be8f777aU, 0xbe03dd573e6236b8U,
  0xbea7ea32bd284129U, 0xbe8314973dc964dcU, 0x3df0378cbe80dc05U, 0x3edb76a0be75260cU,
  0x3e078ec9bd39ddceU, 0xbe8628043ef7784bU, 0xbe6ade96be34ecabU, 0xbeedeff7bdd34587U,
  0xbda92e7b3e270a31U, 0xbeac1526bd46017cU, 0xbde9116dbe83d262U, 0xbddac60cb9662a05U,
  0x3d8c838abe90f88aU, 0x3cf0dc5fbe9b43e9U, 0xbeb544f3be5ce4c0U, 0xbd3382b23d88704eU,
  0x3eb3b1d53d22d59fU, 0xbe52f3ca3edbd9a2U, 0xbf0170a2bec0ced1U, 0xbf0708f1be26c10aU,
  0xbdc1266b3e00f4d1U, 0x3ea9d9293eda4dfbU, 0x3ec4c2e33e76ce82U, 0xbdafdce9bf388c4fU,
  0xbe4baecebf01e2c2U, 0x3daf17583e1dbf62U, 0xbcf3d3ca3e6b5084U, 0xbeb76ccb3db614e5U,
  0x3d431a97bbf15325U, 0xbe27a622be7c005dU, 0x3d1fc5113dfdf67dU, 0x3ead2ccb3e809372U,
  0x3e83d73a3ee266a2U, 0x3e8dd7e2be024b5bU, 0xbdff6c69bc74041fU, 0x3ea09c3fbd8f1fbaU,
  0x3f13bbb2bdbe3a92U, 0xbea9c6a2bd9d54b9U, 0xbc0bc3243e17cce1U, 0xbe6ce158be5eac49U,
  0xbdf5b7353e86b1f3U, 0x3e0a8058bebb2a7cU, 0xbea40f283dbe1cc1U, 0xbe9fc16e3d8b1f6eU,
  0x3e8cd8863e462382U, 0x3e9f893fbdf57120U, 0x3e7f5155bd31cb54U, 0xbda1aaaabef6d541U,
  0xbeebadd93d87f783U, 0x3dc56d1bbe3252c1U, 0x3e0137fe3e210954U, 0xbef9f3763e6475e4U,
  0x3eb1fcb6bee82169U, 0xbf22ef87bf2d0bcbU, 0xbda541b73e353b47U, 0xbe4ca40e3e842837U,
  0xbe779de4be765a02U, 0xbcb6cf9b3e35b63bU, 0x3c7c88f23db3df22U, 0x3e329a7cbd81b9a1U,
  0xbd76eaadbe5b4780U, 0xbe6c1f55beb25fb9U, 0xbe9d17b83ebd6f37U, 0xbe0fcc373e803fa6U,
  0xbd4d0eb1be475655U, 0xbef97937bebdaea1U, 0xbdfe2bc0bdbdc1ebU, 0xbe7bbf88be322f6fU,
  0xbe9ec8b13d0ad598U, 0xbe71fb73bde7f845U, 0x3da0458d3d1969b0U, 0xbe469231bcf11625U,
  0xbe3921b0bedc79bfU, 0xbe1068e03d8974b2U, 0x3d9184663e1c3fd5U, 0x3d006db2be814c22U,
  0xbe4967883e11c3a0U, 0xbf0da8273cd0099bU, 0xbe856c683cd97644U, 0xbd7578aebee64ec6U,
  0xbe3ce6eebd1bd317U, 0x3d8bcb93bedc47b2U, 0xbe9ac6723d58a515U, 0xbc2476ecbe09b10aU,
  0x3eb0a36c3e782eafU, 0xbbe0f7f3bd5ac796U, 0xbd8318b13dd5e51fU, 0xbeb259a83ec60775U,
  0x3e71a6abbe82656aU, 0x3e3c69c43d7e6bd5U, 0x3e3d90e2bdcf871fU, 0xbe2989e43edeede2U,
  0x3e22da81bd156136U, 0x3c04b2eabddfd36eU, 0x3edcfc48bf169a1aU, 0xbd773f05bf09090dU,
  0x3d92fb10beb03a8bU, 0x3ea38e6fbda5e935U, 0x3ee3376fbda6fe8aU, 0xbe6d4924bdf5c3baU,
  0xbddb68efbea92afbU, 0xbea15cb0bea7aeddU, 0xbe2cee9c3da47a12U, 0x3b3b269e3ed6ba64U,
  0x3e9d7899bed8d577U, 0xbe425441bba36928U, 0x3e8e3404beba0172U, 0xbe07fee43c1e7b4cU,
  0x3e8c0a3dbe5471c5U, 0xbdf9f9a2bde0bb49U, 0xbe63bd993d9ca30eU, 0x3ea9f5653d80c47aU,
  0x3e85f015be9e6d58U, 0xbe9889933eb255aeU, 0xbecf0c293d6b6c67U, 0x3df9c45a3e6beb2eU,
  0xbe07d9cb3de5ab79U, 0xbdc370bc3ece8c86U, 0xbe0c7411bdd495b8U, 0xba2676fcbe34b5dfU,
  0xbddc14863e54bf39U, 0xbde0a458bea92ef1U, 0x3d8ab363be0718ceU, 0xbec382e43e861994U,
  0xbe5fb4aabde299c8U, 0x3e80f3753edb1f59U, 0xbe39f2e0bd95a254U, 0x3cc5ead0be334719U,
  0xbe5adc1ebe418819U, 0xbe967c8bbefc7056U, 0x3ecc9a2fbd97e55bU, 0x3d5816423d0870c1U,
  0x3d767ce4be6dd70dU, 0x3f1313c2bd1d61aaU, 0x3e10c10ebf09af46U, 0xbea9b2893eda5de9U,
  0x3ef675863e906588U, 0x3f003178be71cf8dU, 0xbefc1412beb848f9U, 0xbdd2723abdedbbf2U,
  0x3eca3874bea96f67U, 0x3e49f0713d9cfd64U, 0x3e727bf63d2f1de0U, 0xbe18c5f03f019e42U,
  0xbe8c64703edf33e3U, 0xbc893cebbd61ab41U, 0xbef3595abe703ae2U, 0x3f1d476f3ef5b9d6U,
  0x3ca7af07bf13bceeU, 0xbea6276bbdca3ed5U, 0xbd04b59d3d8152a5U, 0x3efe95ad3e0fdb21U,
  0x3f1d749d3eacf1f7U, 0x3ddb25323d85acc3U, 0x3c02712cbecb9f47U, 0x3ee1a6b5bf074585U,
  0x3df1c800bdf20646U, 0x3dc0a6fd3e00b4c8U, 0xbea4216a3e6be150U, 0x3ea5fc4f3e9718d8U,
  0xbc3c98303f19a5cbU, 0x3d8e21f039aede8bU, 0x3e9ed6163db4fdffU, 0x3ddf0721be49f0ccU,
  0x3e945d9ebd095965U, 0xbdeb14543eb92a9aU, 0xbefaf2283f0c1956U, 0x3d5071293e907e16U,
  0xbea32a503ce25538U, 0x3d89a6963e3c7802U, 0x3ebe1f48bd66bd51U, 0xbea8853a3ec64caeU,
  0x3b8514053d1557b5U, 0x3e8a398d3df87574U, 0xbea2fd8abe50d48cU, 0x3ef49866bf0bc825U,
  0xbdb4a3c83e77aa3cU, 0x3ed29579be94a423U, 0x3ecb2e25bedf2cc3U, 0xbec1137bbdc84480U,
  0x3ce1bdd8be1aa4b3U, 0xbd2e80453d4df217U, 0xbe28e9efbdab2dcdU, 0x3df38e33bc915ef4U,
  0x3d93e7acbdcb797bU, 0x3e185c6c3d8d96afU, 0xbd9fa9633ef23443U, 0x3eb03fe1bec3793fU,
  0xbcb70c14bdf8bbb3U, 0xbe9b7329bec39b4aU, 0x3dfe1b1f3ed87bdaU, 0xbe9c9bfabdd7a94eU,
  0xbe98faa8bcb1eb7eU, 0x3e9bfd9d3e5524e8U, 0xbec3dd0d3ee02c55U, 0xbdb58c5b3eec3df9U,
  0xbe2a5fc33eb03c16U, 0xbe19d0eb3ea6576bU, 0xbe5350a53e9cae93U, 0xbd8c4a8dbf01d044U,
  0xbe3793343e71d5e3U, 0x3e83c6bf3e0d96d1U, 0x3ec4ee883ead3708U, 0x3d4a623b3d8e526dU,
  0xbe9adc243e09ca77U, 0xbe97f2c43e7b2e98U, 0x3e96955dbea449cbU, 0x3e1f45723e5f13c6U,
  0x3cfa2af43e65bb2eU, 0x3d729afb3e66550dU, 0x3e04027ebecf39f3U, 0x3b54259ebeb42899U,
  0xbd10584fbe686811U, 0xbe3403353ec8b541U, 0xbe224b8a3acef702U, 0x3c40c13e3d9a0a1bU,
  0xbef0a896bf117edbU, 0x3e5a0f3abd47d026U, 0x3b5c2f4b3e2c14f6U, 0xbd5c9e6dbe3f9e45U,
  0xbebdb2ccbca0592bU, 0xbe042c48be76f34aU, 0xbe21b978bedc2826U, 0xbe9ddeaa3e113eadU,
  0x3daa7edbbee88933U, 0x3e92f5da3d9c94c9U, 0xbe698377be894117U, 0xbea315f9bc895880U,
  0x3e1af882be170331U, 0xbece604b3e00cd72U, 0xbd2b7762be9f75c0U, 0x3eb08416be6fb428U,
  0xbea2825f3e4f7a32U, 0xbd8533963e893a5eU, 0xbbeb1ecfbd420082U, 0xbd1fc8a8be1d8b7bU,
  0x3e06f6143e291404U, 0x3e272fdcbd33e8efU, 0x3e80d76f3ceb8006U, 0xbe6046f83a9d38f6U,
  0xbd0e4c273ddc829fU, 0x3e12407f3d3ce00bU, 0xbe448f5fbeb5b679U, 0xbe2730003e8630f7U,
  0xbde25378be89b925U, 0xbc91e7ea3e0fe5b1U, 0x3db7d93cbe49efd9U, 0xbe4531e5bef658a0U,
  0xbdc23f5cbeb62a2bU, 0xbea830513ee9f6a3U, 0x3e0764563c9b90f8U, 0xbda1acae3e87d246U,
  0xbd2d274c3e2ec47eU, 0xbee487d9bebd4bb7U, 0xbea0bf1ebeab3da9U, 0x3ea37710be3eab85U,
  0xbd860a163ece1465U, 0x3df2e39f3dd46674U, 0xbd5b7ee73db8bdc8U, 0xbed86304bf12a829U,
  0x3d4abe2b3e2e175aU, 0x3e76ddfdbe48073aU, 0x3e20916abaae944bU, 0xbd460216bcd663e8U,
  0x3de6d9cabe349792U, 0xbea9cc053ecffedfU, 0xbe891f123e652c20U, 0x3ec128973d5db9abU,
  0xbd9574163dad0548U, 0x3e5c21d0bdf19eaeU, 0xbe00d31a3d7c6904U, 0xbe8bbcaebd7fd6d3U,
  0x3c373f6dbeb1b810U, 0xbeb575fc3df3659bU, 0x3e1870473c85c6a1U, 0xbe2b98e33e1564d8U,
  0xbe78602f3dd5a119U, 0xbe152726bd5724aaU, 0x3e990f61be830a38U, 0xbe75ada23dfe509bU,
  0xbe9ad9d3be0b9f0cU, 0xbe1bb054becb968aU, 0x3e5e0b91bd96996dU, 0xbe375e523d771679U,
  0xbd69a235bcad95c3U, 0x3dde13253d1addcdU, 0xbd76799a3dc926f8U, 0x3d8834b23d65f5a9U,
  0xbe06676abd9f0212U, 0xbc8fcfecbeba6fb3U, 0xbe21cdbbbe19993bU, 0x3d39cb5dbe8be470U,
  0x3e22a6cb3dc9d61cU, 0xbe42d80bbc89efd3U, 0xbd4206853db0ac0bU, 0x3da623213da8aa69U,
  0xbeb21e8abe361decU, 0x3ddf8d24be90b89eU, 0xbcc1b695bde64e2cU, 0x3dd61a44bd931facU,
  0x3e5cb3af3e29c42dU, 0xbe90d54d3e57c8c5U, 0x3e25c9533ecc4060U, 0x3dd746b33d325c93U,
  0xbe0db0e83e8ae061U, 0x3dd289b8be6252f7U, 0x3e4a8468bd958d6eU, 0x3e6f60103dae5910U,
  0xbe6fb2c93e7259d9U, 0xbe4a436c3dc6db48U, 0xbc8cf0b8bd1458f2U, 0xbe4842bb3e54be15U,
  0xbe4aef76bd137c6cU, 0xbe898761bdf4a372U, 0x3c8a2a34be9efa66U, 0xbe210508be1ae04aU,
  0x3e2ed8dfbe831ff7U, 0xbed07f293e19e856U, 0x3d80af4dbed5c330U, 0x3e2af4e5bf079fd2U,
  0xbee3778ebe2cbb51U, 0xbcfd35f1bd83970aU, 0x3e5cfcc7bcde5800U, 0x3e1ca962be82bf45U,
  0x3d62203cbe70a2b1U, 0x3e5cd7303d407cb4U, 0xbddb0dc73e09ca58U, 0x3c88f94dbc47bd95U,
  0xbeadb507be808161U, 0xbdd66e4fbeaef099U, 0x3e84ff183d810b36U, 0xbd849d9e3dc8c9d2U,
  0xbddba0e0be6c111bU, 0xbe036a83be742093U, 0xbe0708143d3af22cU, 0x3ce77b183d6f9fa3U,
  0x3be6d47c3e1bb423U, 0xbe4a392abd6199f2U, 0x3d95b27fbd4e78cdU, 0x3e4ced6ebef1f15cU,
  0xbdef2cc3bdb748b9U, 0x3dadb23f3e9030afU, 0xbe26949cbdfa0320U, 0x3e9f91e2be6c1349U,
  0x3ca4438dbec5168aU, 0xbe1450083d86ea71U, 0xbe8cf2d0be570558U, 0x3e83ad5e3e66ecdfU,
  0xbec9e3e33e821986U, 0x3ed4b8e73e805a28U, 0x3e7fa967be30b066U, 0x3db09f49bda1ebc7U,
  0xbde2e39d3e0b3de4U, 0xbd0d45d43ebac31fU, 0x3e212d213c20c373U, 0x3e19447cbed1abceU,
  0x3de09190bdcf3b3bU, 0xbe2604eebba7f81dU, 0x3d9a531a3e9c04e6U, 0x3deed984be6b8aeeU,
  0xbf1c94993e9c7e59U, 0x3e8ea634bdd156fbU, 0xbe7af8b7bee9b554U, 0xbde635bb3ef7c2f9U,
  0xbe4fe751be765e8aU, 0xbd2ab94abd46f382U, 0x3d3ebe50be97b394U, 0xbc2803aebe7432b9U,
  0x3f15a4a4be0b36d6U, 0xbec5a35d3e93abebU, 0x3ec03ad6be0ca87dU, 0x3e6b0ec73e5d19f0U,
  0xbeff6555becc85abU, 0x3e03f076bedcb7dfU, 0xbe9c3d533e99f1e7U, 0x3db5dd9f3db7008fU,
  0x3df33e9a3ef19ad4U, 0x3ee76ea33e090908U, 0xbe50e4cebebad680U, 0xbcff45fa3e0546bdU,
  0x3da50f303c290fc7U, 0xbe3d2e07be8d7156U, 0x3c6ff7443eb16c71U, 0xbd79a964be63dd12U,
  0x3d39ef1c3e03bae1U, 0xbde59f7cbe0f3358U, 0x3e2b98963ea01907U, 0x3edd04453f1f38c7U,
  0xbea7a8103d334cefU, 0x3eb1b7c6bea6dc08U, 0xbe7aa8243d0256b7U, 0xbde681ce3deb9cfcU,
  0xbe29117b3d202170U, 0xbf10d7f8bd9c0c53U, 0xbe808a07bb04e6f6U, 0x3dfefb853e992b79U,
  0xbec834073e7c9e69U, 0xbd38db343d3bb4ebU, 0xbe995a79bedc6e23U, 0xbefa79233d9ca964U,
  0xbe16dfe8befc6b07U, 0xbda33340bec96d54U, 0x3d8fd2063d38539fU, 0x3ec56017bdd5157fU,
  0xbdeac119bd9b8b87U, 0x3d768c4bbeb1eb1eU, 0x3c7055bbbce4b886U, 0x3e8bd734be746c75U,
  0x3e102728beb89489U, 0xbe0576b23d8f8521U, 0xbecf66c83eb5d4caU, 0x3e59f34fbdd2cd67U,
  0x3b6a1bb53bc06fcfU, 0x3dc17dcf3e8f0fcdU, 0x3e242b92bebf9e4eU, 0x3e458a59bea5197fU,
  0x3c8cdb113e1a1f96U, 0x3cdee8c6be0bd55bU, 0xbe67ad12bd9bcf2cU, 0xbd8d92a43f0f3c8cU,
  0xbd8b0a413e2ffd35U, 0xbeaefcf8be298e39U, 0x3ea95e803e6b34ceU, 0x3eb6b45b3edb40c0U,
  0xbe279b5f3cc0a4edU, 0xbe51b1d03df96f8fU, 0x3befaa203e88a1c5U, 0xbe7f72d5bea59ff7U,
  0xbe90ffccbdae105eU, 0xbecb25f0be991c99U, 0x3ea464f4be3fd836U, 0x3dc399cd3e72a385U,
  0xbe1379403ded6960U, 0xbefff4003ddeb5edU, 0x3e8f935e3cd52d04U, 0x3e906483bd6c797bU,
  0xbedad10ebec447b9U, 0xbe4f90423e39bf3eU, 0xbe06478cbd0b63c8U, 0xbdb828fdbd79fa4cU,
  0xbda3ce1f3df7d0deU, 0xbeb20477bea5d43dU, 0x3e02282fbd18d7f4U, 0x3e9d3084bed15bd4U,
  0xbe72646ebe26a58eU, 0x3e9e67ee3da61be6U, 0xbe6c48ae3daed947U, 0xbe9019b1beaff044U,
  0xbdee438cbbe611a9U, 0x3dd01abfbe9d1d3cU, 0xbe0704e8be9c4308U, 0x3c79d4ee3d9243b0U,
  0xbe9d54b73c430bb0U, 0xbe75ee88bd04626dU, 0x3e680a923e10be2bU, 0xbb87625bbc59caa9U,
  0x3dc14c413ebde1fcU, 0x39ad7407beaf3934U, 0xba340e69be9ea3a3U, 0x3dfb928a3e8c3d82U,
  0xbe39ff81be6508e9U, 0xbe6af6c13dc4432dU, 0xbeb04dce3e047fc7U, 0x3e4bc354be250d34U,
  0x3dd4fcc2be1a2c57U, 0xbd3273213d3b1280U, 0x3eb5e8e73e260cb6U, 0x3dc33363be86cbb9U,
  0xbe11d99ebd1e955fU, 0x3d1c0eed3d2d26f1U, 0xbb33b718bed75632U, 0x3dc001773ddd6c97U,
  0x3e31e308bd3f5da2U, 0x3e1d8ab5bdd34ce6U, 0xbe9ef0a4be70782eU, 0x3e522604be1ec516U,
  0x3c84ea37bec1ffb9U, 0x3d91fad2beac9135U, 0xbee63a9f3da90198U, 0xbd07639ebe1fb18eU,
  0xbc309125bc9f8849U, 0x3d6f911bbdf4b959U, 0xbe170dc6bdd9838dU, 0x3e522eb73eb44cf7U,
  0xbe50e1ec3e757290U, 0x3e395d963e19a537U, 0xbd0b1158bcfa8573U, 0xbd649b3fbebb3518U,
  0x3dccc0f4bda1e595U, 0xbd83c69dbda6f8edU, 0x3d29b1d43e987767U, 0xbe844a35bd2d8009U,
  0xbe3231b03e4f3fddU, 0x3c93299cbe8e2512U, 0x3d8efccbbe708420U, 0xbe8d3e283eb6ad98U,
  0xbec6fe393e6dcfc1U, 0xbd8b137fbdcc95e2U, 0xbe0ae8a2bddf1ee5U, 0xbe1b7226bf02638eU,
  0xbecb5e40bc3e0a5fU, 0x3e09a3e1bd48d81eU, 0x3e74b9283dd641d8U, 0x3d2dbf743ecf4774U,
  0xbe8d1e82bec5bb1eU, 0x3e389ffe3ead4645U, 0x3e396b13bddb5f89U, 0x3de25b85be858e41U,
  0xbec4692dbe145edeU, 0x3e8c3fdabe386bedU, 0xbe919f7ebea32a07U, 0xbdfa7138bdcc4ff5U,
  0xbe337cd5be965308U, 0x3e15c9ccbf024b36U, 0xbd5822483dfda3e5U, 0xbe8e53bc3e8c7dbaU,
  0xbef95d503d60f5e3U, 0x3adac10c3e13ab4fU, 0x3d9f9245bd02ca4dU, 0x3e72c2683db1f37aU,
  0xbe613d523f125786U, 0xbe005c763d23dcd7U, 0x3d4905673df77f99U, 0xbdf1710fbedd7f29U,
  0x3d75f68b3d1da7d2U, 0x3e7e027e3e36de88U, 0xbe1d23733d8d417cU, 0x3ddf7b1e3e489661U,
  0xbdd20cbabe28e34aU, 0xbe2239903c76e263U, 0xbe2da627be9ff82bU, 0xbe3e48893e4c9facU,
  0xbed4bfe4be79424dU, 0xbddc0c8b3e6e05d0U, 0x3dd80671bf0efe29U, 0xbec99239bd3b5f41U,
  0xbd954038be76eb04U, 0xbe6854333ec697fdU, 0x3dc01e2bbdd62b80U, 0xbe7e06c93e225bbfU,
  0x3dcbb822be1feaf6U, 0xbe6018b23e49b80aU, 0x3e72290e3e8f2b5cU, 0x3d1b6a43be53f576U,
  0x3d448a703d9e2526U, 0xbec6bfcabe9fb5e1U, 0x3e43efb0bf01c99cU, 0xbeb53825bddb9b5aU,
  0x3cedcb1cbe65057aU, 0xbe105dfebef0aa16U, 0xbc5a32e8be1f0e8fU, 0x3e3ebb1b3ce58d52U,
  0xbe9d3501be3ad958U, 0xbef816793ebb8a67U, 0x3e015107bdc89ee6U, 0xbe5cd108bf046b2dU,
  0x3cab49d13e76277fU, 0xbe9c27ab3e1be3cfU, 0xbe4f93b6bdca47c0U, 0xb9f39d06be0988c6U,
  0xbe572b92be4e7680U, 0xbdbb436ebe3f4eabU, 0x3d9286423dfacd7eU, 0xbe6bad71bdaba062U,
  0xbea5912a3e8aea12U, 0xbdbeabc6be6d7901U, 0xbe52aff6be9fc5d5U, 0x3db047163eb49491U,
  0xbe587aaabddce4d0U, 0x3e3ac7673df667faU, 0xbe20b44d3c69ab6bU, 0x3e5b24073b62aff7U,
  0xbe779ab9be8fb55aU, 0x3da20eefbdc00849U, 0x3e69a9fd3e7797a7U, 0x3e6316683ca767deU,
  0xbd4aac433e51363cU, 0xbc3ad9ef3e96e931U, 0x3e8dae50be87b5efU, 0xbcca4312be5afb00U,
  0xbecd38c5bd43b772U, 0x3dac40d53e863a6fU, 0xbe4aceafbeb9200eU, 0xbebdffbabef7d36cU,
  0xbebcc1fa3e9f9b2eU, 0xbe7630ad3bedb997U, 0x3d196a70be847e45U, 0xbd8692fdbc7d9784U,
  0x3dd209c8be5ce597U, 0xbdfd58643e1477c3U, 0xbe72f78ebdf30ad3U, 0xbe3273193e14e030U,
  0x3d0e0a163d5fc1caU, 0x3e60cff6bd9408f6U, 0x3edcc36ebdb6bdabU, 0x3e10490cbe691b33U,
  0xbe434a233e914bacU, 0x3cf7892e3e011775U, 0xbe93d7be3dde8d30U, 0xbe1e49ca3e4d891dU,
  0x3ed7f9abbe41c53aU, 0xbdf34c413de9f050U, 0x3c8cb6a5be00e260U, 0xbdfb13933e9e3536U,
  0x3c55ebbfbddb7f57U, 0x3ecc7357bd04c54bU, 0xbba62c00be040f9dU, 0xbea06ada3e42d9b5U,
  0x3db98013be80224aU, 0xbdf44b5bbd8cce7cU, 0x3d531e0a3df779bdU, 0xbe54cde63ec3aeefU,
  0x3c83c1913e44af4dU, 0xbe672d31be42192bU, 0xbe6a0d7cbe59a78dU, 0x3dbcd7093d8f5759U,
  0xbedee85d3ceeafe4U, 0x3d95e5423e19e646U, 0xbbadc84cbecc0154U, 0xbd9bead4bebb204aU,
  0x3ca6384dbd584872U, 0x3e1bf608bf09a358U, 0xbead0450be6d5e4fU, 0x3e02eea33d6b0f1aU,
  0xba774af7bef208ecU, 0x3e8866d03e7eebd6U, 0xbe9adf60bd817219U, 0xbe703b81be4636cdU,
  0xbc8f105dbdc94b56U, 0x3e3349393d6853f9U, 0x3e2b1139bdbdc4c4U, 0xbd4f86e03e091a2dU,
  0xbef2a0cd3bbf15b4U, 0xbeb24b78be3a6b37U, 0xbea5494a3e75c41cU, 0x3e48da5f3ec9a83fU,
  0x3d99a2b0bdec4bbeU, 0x3d453571be57d391U, 0x3e7545983cd98784U, 0xbe3f121b3e97d052U,
  0xbda6d0a23e74861aU, 0xbe96c11d3df7ea11U, 0x3e475e72bda1adc7U, 0x3d19b427bdfc0b44U,
  0x3da2c792bd52620dU, 0xbd1917b03e215771U, 0x3ce3f9a3bdf8b307U, 0x3e3fdd1b3e7f948fU,
  0xbd0cb4e93e18c3ddU, 0xbe028a1fbe1507e4U, 0xbe45187bbd8d348bU, 0x3c899501be712a48U,
  0xbe7716e9bd0fcb5aU, 0xbe9721dc3e4d72afU, 0xbda217d33e75f390U, 0x3d3f4fdc3d8c6707U,
  0xbe4fb5613dd174e7U, 0x3d8c48a1beccfebeU, 0x3deb4fbdbeb64d23U, 0xbe6dbda23e1193f7U,
  0xbda121cebe887102U, 0x3e8d2acb3d1bc086U, 0x3de16679be0383a4U, 0xbd153ab1beaec76eU,
  0x3dd28b15bd3338aeU, 0x3d85cf71be375bdcU, 0x3e24cb6cbda1e5caU, 0xbd08d10d3db1339cU,
  0xbd147bd73da5d894U, 0xbc349b513d6e0aebU, 0xbe22a92dbe5813b0U, 0xbcea6f733df58a44U,
  0x3d922f3bbc031b2aU, 0xbd88f623be1bd3b3U, 0xbd4b094a3bce6beaU, 0xbe1207223d83ec3dU,
  0xbe2034333e01dee8U, 0x3c196787bdc7702fU, 0xbe2b7394be1fb096U, 0xba9a94763da9f569U,
  0x3dc9b770bd03c7baU, 0xbe45987fbe616388U, 0xbda196bdbe4a7650U, 0xbe19725f3e3f5f99U,
  0xbd6bcb73bdb9ad11U, 0x3e1fb497bd6fbf15U, 0xbe5a4713bd7eb667U, 0xbdfa2062bd9eab05U,
  0xbd9246693da6f8a7U, 0x3c84d1bd3caaebcaU, 0xbd4f9842bdc89433U, 0x3d9db771bd40b50fU,
  0xbd7230a3be6425baU, 0xbdc62e18bd7c9ae4U, 0xbcff7fa5be1ae55fU, 0x3c86f2e0bac099d1U,
  0x3d4c56aa3de7b141U, 0xbe0b71f03d59c16bU, 0x3ca20e74be02e974U, 0x3e19a398bd317ef6U,
  0x3d12e3ffbe116c86U, 0xbe44e6643d778b14U, 0x3dcf034d3b64eef1U, 0xbe253cacbdd715abU,
  0xbd43a942be572605U, 0xbdb4954f3d0551e2U, 0xbe0b82f0bd6bd386U, 0x3dce89603cacb40bU,
  0xbe0c2ed7be726346U, 0x3dc1ee2fbe40ac14U, 0xbe73b897be5f3d5bU, 0xbe2e3571bd38189dU,
  0xbe576492bda505e0U, 0xbe2f5c13bd8735edU, 0xbd9c023dbe109717U, 0x3d8775bbbe019cceU,
  0xbe1b81b8bdf18951U, 0x3d367e57be01c8d2U, 0xbd5b48183e27e262U, 0xbe08ae7dbe0490f6U,
  0xbe34388fbdd8954fU, 0x3da903e5bd0ade7bU, 0x3de7b4c73cc5326fU, 0xbdb7cfaabd94c9c7U,
  0xbc8b4f523d9098b3U, 0x3d1df12f3c6e234dU, 0x3d1cfce8bda9d3d3U, 0xbca4f19abdf309f4U,
  0xbd03857fbe3be4d5U, 0xbd0ef648be45f8bdU, 0xbc9504e73de0996fU, 0xbd76ea81be159c88U,
  0xbd17585dbcaeb66bU, 0x3c1aadf1bdf3b4d5U, 0xbdb131a53d3cbb78U, 0xbe69d3863e016f20U,
  0xbe74e55bbe5e8398U, 0xbc9eb226be09bd94U, 0xbac69035be1142bbU, 0xbdc346cd3c83cc75U,
  0xbdefe407bc9fdd1eU, 0xbd743c09bd52dcc6U, 0x3d0107eebceeacb8U, 0x3d749b03be390ff7U,
  0xbe7c339c3cee4328U, 0x3e204bc83d6b8795U, 0x3e3597bf3d7ce673U, 0x3d3cf41bbdbef709U,
  0xbe89a9f73d8bdefdU, 0xbe20de36bc4592c2U, 0x3e3ecd183d45502cU, 0x3d51f0f4bcffc2f8U,
  0xbe13d34cbe64cd38U, 0xbde49eed3e092987U, 0x3e0020463c4bd728U, 0x3de52b14bc9d6416U,
  0xbccf71463d5d853bU, 0xbd9e85a3bda6c6bcU, 0x3d4b9bf03d888187U, 0xbe0f7f06bc0aacacU,
  0xbe1f5a81bd262001U, 0x3d028488bc83ff5dU, 0xbd60d4e83db5dd2aU, 0xbdb6cb3abb507a4bU,
  0x3e04041c3d60be04U, 0xbd44132cbe207b80U, 0xbdd1b3fe3d94ef67U, 0xba1efb01bcabc608U,
  0x3e218137be03a121U, 0xbd15e99fbd84fee5U, 0x3dd392debe117802U, 0x3e27103c3d8c089bU,
  0x3e97e3f4be9ae329U, 0xbe2ee013bdd4e474U, 0x3e46294e3e05d621U, 0xbebcc626be25339eU,
  0x3e7972983e0f22fcU, 0x3e7eb5933df813aaU, 0xbcbf2abd3c306593U, 0x3e9b8822be7de7e4U,
  0xbe60c5aa3e1c0f6bU, 0xbe0acb04be30dde8U, 0x3de0fa16be4749beU, 0xbd171621bda20ca8U,
  0xbe8ad3c83e969920U, 0x3d9e83fb3f0fa02dU, 0x3e23ca05be1bd1b0U, 0x3d408718bd600031U,
  0xbdc8db9c3e6dec62U, 0x3eb89eef3c9a6562U, 0xbc57e5c8bb9af81dU, 0xbd710971be5f3f88U,
  0x3ef3df263f291c59U, 0xbee27b1bbe827f9aU, 0x3e7320bbbecf5105U, 0x3eb508b0be9609acU,
  0x3dc6748cbdec8b35U, 0x3ed74bf7bf10a7f0U, 0xbe77b937bcf8e5cfU, 0xbe2e98ee3ecbb903U,
  0x3e3fc46f3d8be166U, 0x3e350d94be8ab153U, 0xbe1b51983db290e1U, 0xbe873cda3e56d3a5U,
  0xbd5e2e31bde50642U, 0xbe894ccfbe5d3f28U, 0x3d24e35e3e37ebb2U, 0xbee4edd93e90fc13U,
  0x3d8331f9bedc8918U, 0xbda9b63dbef6d4c6U, 0x3c38f94e3ed054c4U, 0x3ebdcb0b3ea2a7acU,
  0xbe709dcb3da5cdb6U, 0x3e07fca4beb66cbeU, 0xbe1d31f3beb8bd14U, 0xbbb1697dbee63f71U,
  0x3e268cfd3d0b3f2eU, 0x3e7fd316bea2bcfcU, 0xbe891e3c3ccad7faU, 0x3daaa9c93e2a7e83U,
  0x3ea749143e01dff6U, 0xbbdf2871be461fe6U, 0xbeb3a09c3e9cf40aU, 0xbdae18bcbe84c62eU,
  0xbef1701b3d92e388U, 0x3e8a475a3e28ee1dU, 0xbe71e41bbf23e87fU, 0xbcd543e13e826a76U,
  0xbd0c3b303d7a6a3eU, 0xbede79c73d7f2893U, 0xbe0fb6123d2562e3U, 0xbe9bc98abe7e76e7U,
  0x3d709760be3eabb1U, 0xbe6fd016bd8af1f4U, 0xbde5072a3e26be1aU, 0x3d1605f8bdf64c4fU,
  0x3dd22f99be4ffba5U, 0xbeadf5393c98b5ceU, 0x3caeec57be223cb2U, 0x3d9d7725beb36430U,
  0xbea10cc8be63a2fdU, 0xbe911fa53e41c519U, 0xbde57696bea6b5ccU, 0xbe808fb33ebaa0afU,
  0x3e4a0ee43ce4797cU, 0xbee4850b3e05909fU, 0xbd489a92bd579655U, 0xbe5309513ee4dec4U,
  0x3e38e31cbeae70e6U, 0x3ee07c77bd235dddU, 0x3e1a30bd3d49c74aU, 0x3db475a4be99dfd8U,
  0xbd46177fbec0adf2U, 0x3ee9abb3bdb4057dU, 0xbdec02f9beffbdccU, 0x3c5229b13b9c8030U,
  0x3df01bbabe39d2dfU, 0x3df2a253bec10e39U, 0xbefa497f3e380c71U, 0xbe0509133cfcb4afU,
  0x3e05bb43be68a6c3U, 0x3e3f5a7cbe811ad9U, 0xbd16de59bdeee902U, 0xbe845b233e19df48U,
  0xbe058a763c017b01U, 0xbe58de723e17fdb8U, 0xbe1eff95be4b7a04U, 0x3e65324b3e2f49daU,
  0x3e435940bc457a52U, 0x3e1c39a43e99075eU, 0x3e14a5f43e65d2f4U, 0xbd36dac23dce0e6bU,
  0x3e12ff56bce3fffcU, 0x3d99f0d8be003914U, 0xbdfb8128beb604f5U, 0x3d1f81a9befaaee0U,
  0xbce756a23d0fbdb4U, 0xbdd3d99b3e329260U, 0x3dfd8f3c3decd928U, 0xbe7d6ed03d91bf2aU,
  0x3e695d93bd3c2ef7U, 0xbe0b8f473eeafff1U, 0xbe6ed702beec69adU, 0x3ee02b5bbed6abb8U,
  0xbe8eb2903e58c855U, 0xbda4260bbe82dea5U, 0x3b7ebdafbb9507afU, 0x3e2cddbebd6ec474U,
  0xbda324ed3f0a306dU, 0x3d5b4d963d7ce0edU, 0x3da9e5cdbf27aa92U, 0x3ed13e343e4040eaU,
  0xbe366791bf194ab1U, 0x3e72f3943e7bcaf8U, 0x3ce0af753d16e427U, 0x3e55018ebed64879U,
  0xbd7091c4be01b4e2U, 0xbcbbd8aa3edd5bdaU, 0x3d35b089bd45b2f6U, 0xbee7d4003db36458U,
  0xbeaf54a9b9e8e8f9U, 0xbe4bf5f93ecae49eU, 0xbe81a3513e51efc3U, 0x3e8e6eab3d8211ecU,
  0xbe9fa197bed2ac8aU, 0x3e95e9fbbed8c4deU, 0xbe9d649abe1e2b69U, 0xbc4f3870bda77aa3U,
  0xbec20889bc4e6cbeU, 0x3f0da61abf161a9bU, 0xbd19717abe9a131dU, 0x3e8cdd673e88cf08U,
  0x3e517019be54e3f3U, 0x3e9168083e9cefccU, 0x3ee5a9a5bdfa0272U, 0x3f06b6723e8bc26fU,
  0xbea8e17a3e927bc3U, 0xbedb793a3d314eaaU, 0x3e1f603bbd5ded7dU, 0xbd9298843ea77491U,
  0x3d8fe3753e3e8856U, 0xbe980a3c3e199ca2U, 0x3ec2bffe3e9f0db7U, 0xbd99d2403dd148b0U,
  0x3d8c7b793e9f4c3bU, 0xbdff74b9be998142U, 0x3f0e72e1bd51c733U, 0xbf2aa4dc3e4abab8U,
  0xbf4386693e4b027eU, 0xbd54cbccbefb51a6U, 0x3e8eb8ccbd8bb036U, 0xbdaf1447bf07d5e3U,
  0xbdce7929be22239bU, 0xbe669a8fbe2941b4U, 0xbe15bbd53ea78f19U, 0x3e1fb6b63e81c3dbU,
  0xbd803150be34390eU, 0xbee3d8143d9516deU, 0xbef53275be601d21U, 0xbe50822bbe18a625U,
  0xbdd8b9f5bdd87bc8U, 0x3dbd7453bda776d6U, 0xbe30a4f8be10e8f6U, 0x3e1aa9c6bdefa7dbU,
  0xbf020e11bd57a90eU, 0xbe386d39bec20215U, 0xbd82f71b3ec7a7d4U, 0x3cd270313d809933U,
  0x3e99cc46be50012aU, 0xbe73735e3c9bd449U, 0x3e8227e33d5458a7U, 0x3e613c7bbf2f909cU,
  0xbec5157d3ec559d3U, 0x3d579ac73ea6844eU, 0xbe1d9f2b3ea059afU, 0x3b165286bea13c65U,
  0x3eba2a143e6d80fcU, 0x3d83613d3d03f10eU, 0xbebacc34be00b3e6U, 0xbdb6e5f7bdc5733bU,
  0xbf0d8ca93ed071bfU, 0x3ecbb38e3ccb5832U, 0xbddf6b7e3e60d857U, 0x3eef98ee3ee3ab9fU,
  0x3de4348fbe0de92bU, 0x3e5b97903eca4f51U, 0x3e9f3fb13e729bc0U, 0x3e18b62cbf375d92U,
  0xbe5542b4be943c17U, 0x3f1257c63c35b8f3U, 0xbe4b3c77bde7cdecU, 0xbedd55883e3f0e21U,
  0xbe1cf3b0bdea18f2U, 0x3ec44114beef6358U, 0xbe8bb4543ede684aU, 0x3e4b103f3ed2875fU,
  0xbdcf273e3dee9132U, 0xbe928a743e151b0bU, 0x3e3db5263e72ff40U, 0xbeda0005be352785U,
  0x3efe9f803cf8185aU, 0xbe9848fcbee0562dU, 0x3dc872ffbde7cd08U, 0xbd7297253e961620U,
  0x3e42f4263d987425U, 0xbdb0d8c63ee96e7dU, 0x3e927bf4bf28548bU, 0xbedcb98f3e5dae20U,
  0x3d84860a3f1a6921U, 0x3e23225a3e67e68bU, 0x3e2ba9953e7f75b6U, 0x3e955436be85d330U,
  0xbe2e4f59bd77f68eU, 0x3e54ab39be6c1c3cU, 0x3cb26943bda66498U, 0xbe346ea33c1eca08U,
  0x3c4fc60d3dd0660fU, 0x3d9eae493d9e5615U, 0x3f189b0f3dc9d8ffU, 0xbdec8e913ce016cdU,
  0xbd0f0429be611ba6U, 0xbdde6be93e2d2b72U, 0x3d22e4c3bdb7d8baU, 0xbe7d0293be60ae72U,
  0xbdb8b2fabeb5b341U, 0xbcda6feebe4c4c74U, 0xbe65b9193e47e2ffU, 0xbe7db49c3f1eb908U,
  0xbeca1a0d3e169c74U, 0x3e256f483ed89e0cU, 0x3e8a5e46be94c40cU, 0xbe839d793eaf3a1dU,
  0x3b88c28fbe5f56c8U, 0x3d116e663e4a419bU, 0xbe59d820be8acd36U, 0xbde25607be8fb86cU,
  0x3e9f5d1ebe71e866U, 0xbd548cbdbd4dcab5U, 0x3e659450bf09ae08U, 0x3d9bc9c13e3cf926U,
  0xbdfaf49abea83f22U, 0x3e806a9b3e499bbaU, 0xbeee2bffbdff04aeU, 0x3dba82cdbc733d6dU,
  0x3d65973f3c216837U, 0xbdfa2e08bf037165U, 0x3e9282a0be18ff1cU, 0x3e04fbd2be0b5eecU,
  0x3dd76109bd263ea9U, 0xbe3cf8f63e0f44d1U, 0xbeb1987abe1c4b09U, 0x3e97c4313bfc2ab8U,
  0x3e480a61bd27828eU, 0xbd2a63853d2115ceU, 0x3cf5ed343dc50f43U, 0xbe01c4983ebff568U,
  0xbea2a89ebededd39U, 0x3ee0cfb73d546a8fU, 0x3d92911abe98a7d2U, 0x3d47ad593e9d6c6bU,
  0xbe4864e9be3d6f3aU, 0xbe928f063dea9a61U, 0x3dc4dc90be413207U, 0x3e2c1f8e3e528875U,
  0xbe052aa4bd204788U, 0x3e60acc1be54b430U, 0x3e1985e63d3b1266U, 0xbe3815d3be87ac03U,
  0xbe75ca3f3db40eb6U, 0xbdedc6b63e4a7fe9U, 0xbe3f98e83e1aad00U, 0xbe33589b3ec0b523U,
  0xbecd629f3e0a85caU, 0xbeccb838bd3a2581U, 0xbe87b7e33e3aa714U, 0xbc4b030bbe235023U,
  0x3e30b839bcd31189U, 0xbecb940abdd57e9fU, 0x3e4ad1fb3ea9c013U, 0xbcfd8add3d62b831U,
  0x3e7f090c3edb3bf2U, 0xbdcf1a4d3e130151U, 0xbdf81352bde2b0b3U, 0x3dffdf6abe24aa89U,
  0x3e86bb3c3e0cf6e8U, 0x3cb127bb3db0e34aU, 0xbf0a579cbed508c8U, 0xbe933e543eae547eU,
  0x3d820b49be11e6deU, 0xbf04c6963d1bfb46U, 0x3eaa6509be601731U, 0x3e5fea693ed9acc6U,
  0x3dfc276f3e1afd03U, 0x3b918e42bd06056cU, 0x3e7b56563edbef9eU, 0xbdee63cebeb9e9d0U,
  0x3d029e3abe6c887eU, 0xbebc65ba3da37bc7U, 0xbd212098bd122b29U, 0xbe7126783ec05ed7U,
  0xbe2e564f3d309d25U, 0xbf0f92c9be4040e4U, 0x3d00da123ccfedf9U, 0x3e8c146dbe32f034U,
  0xbedd037abe6d0fcdU, 0x3d93c3503e1b90aaU, 0x3e2c6e44bd4745a2U, 0x3da78fedbeba339cU,
  0xbe2d614dbe3b71fdU, 0xbe23c809be093006U, 0x3dd5e566be1b764dU, 0x3ea265c2bdb238d4U,
  0xbee9ac00be8a9f7dU, 0x3bac2d583e437e41U, 0xbe71fc3dbdb06bd9U, 0x3d6d1f50be47da97U,
  0xbe851406be0b44ceU, 0x3f06d6853d2dabd7U, 0xbdf3b5f0bd588d37U, 0x3eb1eedebd1fb519U,
  0xbeea4d0ebeef618bU, 0xbe97564c3eb24628U, 0xbee8f45ebe39f465U, 0xbee9fe803e5bb8bbU,
  0xbe986adb3e65f027U, 0xbe28d3bf3df6231fU, 0xbe89bb623d07f32fU, 0xbe6118da3ed5db6eU,
  0xbde79b0fbed047fbU, 0xbca83ac8bf0d7f37U, 0x3d176a1c3ebbecd8U, 0x3e0998dabf1d84bdU,
  0x3da16343bd84e738U, 0xbe5fd30f3e3986ceU, 0x3d406eb4bea871d4U, 0x3e26fc89be32904cU,
  0xbd2c3e063d76cfeeU, 0xbc5674a13eb349f6U, 0xbce5a9b73e88d5ddU, 0x3e8474e2bd4e5791U,
  0xbdfc9aa0bdb6b97cU, 0x3d2a8de43e1bfdb2U, 0xbde2182abdadbea8U, 0x3e27dff8be6c92b7U,
  0xbecf666cbf0c979cU, 0x3f32b2413d9d9cb0U, 0xbd4a4b41be18e4b2U, 0xbee7bacd3d3e8ba2U,
  0x3d29323ebe9e8af1U, 0x3e969f733e17ff4cU, 0x3e27a1263eb6b714U, 0x3deafc9b3ce0d5e3U,
  0xbe01a15e3d49059bU, 0x3e18fa64bca16150U, 0x3e1e621ebf06a29eU, 0xbe19b37bbebaaf29U,
  0xbd19473fbd6d621fU, 0xbe8bbaf73e1eddd9U, 0x3ed59019bdcea20eU, 0x3ecef1f5bed0cadeU,
  0xbdf5419cbe00e6c5U, 0xbeb0d7f43f1d99b3U, 0x3e8650583cfb787cU, 0xbe2cc14f3c14ce76U,
  0x3dec6b483ef97b25U, 0x3ea6004d3f0b0f24U, 0xbe55dfcebeb9b9c5U, 0xbe6bfdbdbec1da28U,
  0xbeb7bcae3dfd7f51U, 0x3e32a964bed90f5eU, 0xbed3ef0c3e1b461eU, 0x3f0a78eb3ed8c2b0U,
  0xbea8f502bdc20377U, 0x3eb43e51be575cfdU, 0xbe12f84a3e75c41bU, 0x3e3d73c83ee6e5adU,
  0x3e6869923e8f96c3U, 0xbe377ce23e32bdfaU, 0xbef29bc5bf0e45b2U, 0xbeb9c4c2bd89f920U,
  0xbdd2e6d4bea639eeU, 0xbe684f7d3f23166bU, 0x3cf13f443f0e0bfaU, 0xbe464218bd30fb73U,
  0xbe0377d1beac2af2U, 0xbe65f908be553026U, 0xbd8256063e3c57a4U, 0x3f0aac4d3e399381U,
  0x3dd785f1be90c875U, 0x3e8bcc863e9c2070U, 0x3d52142a3ddf9e51U, 0xbe99ea7ebc6cab9aU,
  0xbe33421c3e7e5c94U, 0xbec5eca6bcc1d663U, 0xbdf642463dfeb8cfU, 0xbe8544f43f34a240U,
  0xbecff4793db4790bU, 0x3dd6bf31bd81cda9U, 0xbe4de6c93de213e4U, 0xbeb0fd043d776795U,
  0xbcea0588be635734U, 0xbe2c44f33c476de1U, 0x3e0a2e26be07b522U, 0x3d91203cbed09dcbU,
  0xbe069c253d2776f2U, 0x3e706854be942217U, 0x3e262a4bbe0577fcU, 0xbea2526c3ecd7980U,
  0xbd87bbc2bc9aecbbU, 0x3da595e43e6b8007U, 0xbe6044503dc4b406U, 0x3e8833443ee80355U,
  0xbd25dafebeddbbd0U, 0xbeeb3da1ba82ce2dU, 0x3e9c63343e7daae1U, 0xbe1fc06abed18354U,
  0xbdc6d3a73b081235U, 0x3ab4e9b23ecc02e4U, 0x3eac7864becce5e2U, 0x3e1a7f08bf3d23b5U,
  0xbd04ba6cbe5584f5U, 0xbe31e9a2be5347b5U, 0x3c84fdd0bec89d37U, 0xbdd7172ebe672582U,
  0xbd50f7fd3e3591f1U, 0xbe33f2283d73e337U, 0xbdba4740be8a291bU, 0x3bf182653ea3e647U,
  0x3db6e5933e1a20a8U, 0x3cba359d3eba4b8dU, 0x3d417e173eab7783U, 0xbc84dd1d3ea82541U,
  0x3f042212be3da50fU, 0x3e40d28fbe73dfc9U, 0x3d8421f63e0e407bU, 0x3c79933bbea06b85U,
  0xbe0a1d8bbe7a0d9aU, 0xbdb4b5253e88622fU, 0xbe420e29bd88de1dU, 0x3ea18d4bbe3ffd27U,
  0xbe6268873d663d8cU, 0x3e3c8970be58f0feU, 0x3acbe348bdbf6684U, 0x3e56bbf6bc7728dcU,
  0xbe4e31503e818ab7U, 0xbc814a113d5c8322U, 0xbd2b77e43e04b950U, 0x3e6dfc66bea2a0b2U,
  0x3e792e063e88d137U, 0xbe40f18e3cd8461bU, 0x3e649c233e7d99f8U, 0xbd8866043efc0143U,
  0xbe2f4543bcc1b96eU, 0xbe0bb5903e517c2bU, 0xbe32a60dbe770ad9U, 0x3e4edd79bf0c0a76U,
  0x3d503480bf18f7b1U, 0x3e0215e63e3ed871U, 0xbea6f8cd3e80ee00U, 0xbe84297f3efc7778U,
  0x3d04bc8bbd70c8a9U, 0xbe8a0db1be91ff6bU, 0xbe4c45d93d2c31faU, 0xbe4d2b283e837045U,
  0xbe20396dbe38c54aU, 0xbdfb998cbe593168U, 0xbe0be207bec45ab2U, 0xbdfcc7dc3d349d3eU,
  0xbe3aa61fbe280fccU, 0x3e7ca59dbe52eddeU, 0xbd6a559b3e28f9d5U, 0xbdf7222abe86eac9U,
  0xbe02e30cbdfe3360U, 0x3ea184adbe2b8f33U, 0xbe48dc90bd868346U, 0xbe501b043e82296aU,
  0xbddbfd6d3d9b3326U, 0x3c87b139bdc9d05fU, 0xbe7bf140be70670fU, 0x3d8de634bdb57f1aU,
  0x3f1ab2173dcedbaaU, 0xbf04aff0be169be6U, 0xbd8f118f3ec71a52U, 0x3e9e5f41bc538e70U,
  0x3e23f513beb50538U, 0x3d17d95e3e3eca1aU, 0x3e4e21b7bddc6668U, 0xbe81b8ad3eb6da89U,
  0xbe4bed043e7d005bU, 0x3edbb97dbd31f765U, 0x3e2b3150beb4141aU, 0xbda737f83d26d453U,
  0xbe6b7267bdac751cU, 0x3d771fd23f00888cU, 0x3e4a4f72bd7595a3U, 0xbe4dda69bcf23526U,
  0x3daa9541be28f652U, 0x3e276527be29c167U, 0x3e131e163e9d3c71U, 0xbd32083a3f0472fcU,
  0x3ed2a79bbd920aefU, 0x3e9bb4493e9ff925U, 0x3e85416fbe725de4U, 0xbcfa0a83beb46190U,
  0xbdbd39b8bea57068U, 0x3dd12f83bd35f0c0U, 0xbe139837bc504d9bU, 0xbc0bebbabd6e4ed1U,
  0xbe0830aabe95113aU, 0x3da43a19be0f1757U, 0x3d030c323e96eae9U, 0x3de8fbb23e8aaa77U,
  0xbdf151e43dd5b63aU, 0x3ee2bc6e3e1b7147U, 0xbd882f1abe90c579U, 0xbe5e1a41ba21d7b0U,
  0xbe2b6ca73eb10241U, 0xbdd7d41f3dc535d5U, 0xbd1a58bdbdb915f3U, 0x3ddda391bc9582b5U,
  0xbee8cadc3e848e18U, 0xbe23e4a73e810e38U, 0xbe95acc23e8471a1U, 0x3dce3c323eb22c32U,
  0x3da6cc25be192e2cU, 0xbe9050b0be9741c0U, 0xbe9b3ad2bd35f813U, 0x3d8320afbea35a96U,
  0x3d584a83be64590dU, 0xbe7a12823ed21556U, 0x3b8ba8903deeaeeeU, 0x3dfbe7963de53016U,
  0x3e5e685b3ea625e6U, 0x3dcac7823e2d196dU, 0x3e33d33fbdc7de43U, 0xbdad0111bde52e7bU,
  0xbcb75118bdf5a57bU, 0x3d90711e3d959a6cU, 0xbe0ab91f3bd32094U, 0x3bed87683e95241aU,
  0xbd81ec433cceb8c9U, 0xbd222a8a3e3de9bbU, 0x3e1fe8463dc083fdU, 0x3e62f4503e0451f3U,
  0x3d29d55b3e7d378bU, 0xbe3e53623e1f45dfU, 0x3c0f025abc9d70cfU, 0xbd3cf97c3d806cccU,
  0x3d1564193d4df962U, 0xbe086b5cb94f0096U, 0xbd5762a33d924130U, 0x3d8b62973e966b5bU,
  0xbe15aea33de3a1e4U, 0xbe85cfd7be90bd24U, 0xbe4a64c0bd8e0bb3U, 0x3e5d82833ebed476U,
  0xbe833eb93cf6dd67U, 0xbe84e362be1edaddU, 0xbdfd86763e2f3c32U, 0x3d326b49bf1b54fcU,
  0x3c47dd543d84d408U, 0xbe48ae3fbe1d050dU, 0x3e04169cbe3bffb7U, 0xbc47e445be3a1872U,
  0xbe296a16be73233eU, 0x3c49b3a03d222f24U, 0xbecc043fbee5f6dcU, 0xbebabad33d380fa3U,
  0x3d3e09d8bde23dd3U, 0xbea4f675be42fa95U, 0xbd84dfb5be4ddaefU, 0x3e5bd1753e67b87cU,
  0xbde0b4973d0e43a4U, 0xbe1450f9bd18eb9eU, 0xbe68575f3e7315a1U, 0x3e8863f53de4b28aU,
  0xbdfa830bbce72b4aU, 0x3cbed1223ea7c41dU, 0x3e4f37f5be91bbf0U, 0xbe797d8cbccc4636U,
  0x3dc08c413d978007U, 0xbdb1bb1bbe299d67U, 0xbd71ef003ca39c60U, 0x3ca1d078bd092494U,
  0xbe37878f3e0981daU, 0xbe4ae390be14830cU, 0x3d01b3873e22e1dbU, 0x3c8f62d93ea7c976U,
  0xbea1d2b3be0d597eU, 0xbe999b4cbdc84c70U, 0xbe5eb81f3ca4d31bU, 0x3db31cb3bec078f1U,
  0x3d99bdd93e05f4bbU, 0x3e3170f2bc86e757U, 0x3d98f108bdd3f9f0U, 0xbc9ce4593ed0bad8U,
  0xbea23b58be85b220U, 0xbe2a30aebe013b27U, 0x3d8bb03c3b8c6b54U, 0xbd6aa267be6eba59U,
  0xbd4357f33bd4b58aU, 0xbe0bbd86be551a3cU, 0x3e465ca03ca6aa77U, 0xbdc0c7c13d93483cU,
  0x3e8f21413e230e69U, 0xbe0a28013b7a796cU, 0xbe35ec2abe82cb59U, 0xbe317b233d395339U,
  0x3d9de57e3d09f5b7U, 0xbe8b5b8abdfd36dfU, 0xbe799b383d9ac818U, 0xbe233deabe07fbe8U,
  0x3e8791f33e49371fU, 0x3e136c623c96111cU, 0xbe4055ac3d682d22U, 0x3d1cd824be852030U,
  0xbdade603be03861dU, 0x3bf117353d72b36eU, 0x3e367657be7dd999U, 0x3c4cb767bc231e42U,
  0xbc5c9fa83e339c8bU, 0x3ddc7455bea778abU, 0xbe8ec3493e01c151U, 0x3e112a423e829611U,
  0x3dceb9013e76b83cU, 0xbe3b148f3e196592U, 0xbe556095be9da3d0U, 0x3c6fbd2c3ecc4cf2U,
  0x3de587b73ddce5a8U, 0x3d0bbf4e3e364b9bU, 0xbe857ca8bddcde68U, 0xbe164d6f3cde95a3U,
  0xbee64a30be902db0U, 0x3ca8acd13db7aa5bU, 0xbdd5b2103e135426U, 0xbdc1eba7bea765daU,
  0xbe8d486bbd8a83e4U, 0x3d96e02ebe1afeb3U, 0xbdf23ac5be206f96U, 0xbdedbb883e2de90cU,
  0x3e48f5a43ea2bc24U, 0xbe3a5bbc3dbd9633U, 0x3c1705e2bce34d36U, 0xbe800029be40f3fdU,
  0x3e5c8d703ea50516U, 0xbe70caabbe1b7869U, 0x3e393bcfbe44f15bU, 0xbca1ca9a3f0a8a62U,
  0xbe7323b93cb248d5U, 0xbe9da2e53cbab12cU, 0xbc28f7e03db0b463U, 0xbd705c143e3aa47eU,
  0xbe87a709bdf21d8aU, 0x3e6cb89ebc2b3f5aU, 0xbe9bfee8beb2a35aU, 0x3e13d01fbe868d3dU,
  0xbebf590cbe8e71d1U, 0x3d9bc331bdc5dac8U, 0x3e8a49323d25d91cU, 0xbe9861463e226730U,
  0xbeb526b63daf1c9cU, 0xbd9023853e3c5d95U, 0x3e416c8b3e808bf3U, 0x3de34f9abe58c452U,
  0xbe7fc024bec2b4c3U, 0xbe2d5999beb6b1fbU, 0x3e3ac59f3e2d9bd6U, 0xbe824dd2bf22cea2U,
  0xbedb92313b8c1d17U, 0xbc27fea9bdb1a411U, 0x3eab4578be82b19bU, 0x3dfef957bd30c58eU,
  0xbd4767943d3cc016U, 0xbe559310beb21c15U, 0x3d85098dbe51b8d4U, 0xbe844855bc44a1a6U,
  0xbe3b694d3e8729ffU, 0xbe08a8e23e8a30f1U, 0x3e0348323d94130fU, 0x3e5505cd3e807befU,
  0xbec3144cbebce313U, 0x3da1778cbe4f96d6U, 0xbdc44d3fbe0d962bU, 0x3dbe4854be969fb7U,
  0xbe3223023e845ad9U, 0x3e104355be4aafc6U, 0x3c3e40d83e858bc2U, 0x3dafb0c2bd9b92e8U,
  0xbd151f523de79290U, 0x3d6add243ea6a71bU, 0xbe54ee293db4885aU, 0x3daa9d8ebde5e957U,
  0x3ddbba37bd44b29bU, 0xbe8d76bb3eccda12U, 0xbe5c86fabddd3b9aU, 0x3e362af93df8176aU,
  0x3e005f46bb420f42U, 0xbe4406483d712db0U, 0x3d01197a3e9844ddU, 0xbe516cb13e18a437U,
  0xbdad039a3e2aec01U, 0x3e8aab673e824485U, 0xbd1f7aa0be749f3fU, 0x3c5a95cbbe4dc8eaU,
  0x3cc282d9be94cf44U, 0xbe588666bed67dc9U, 0xbe01f0433e8f722aU, 0xbe1538ba3dbafd80U,
  0x3daf1277bea85a1fU, 0x3d843ad43d380a9eU, 0xbee4aca0bb981803U, 0x3ed770f63c65b841U,
  0xbe13ab52be9f99acU, 0xbe55f381be053de7U, 0xbde8a150be3fed66U, 0xbccf62f1be8b459fU,
  0x3dde4e67bdac48b7U, 0xbe215d343e900655U, 0x3d155967bd461779U, 0x3e1944b0bbdbdc3aU,
  0xbe8d58343d945936U, 0x3e22cbc1be3548a7U, 0xbe0e9cfc3e0ceed5U, 0x3e4cfef43e18b068U,
  0xbdc5192d3dae5a6fU, 0x3e03a5e4bda928d9U, 0x3e38bdcdbd93ce19U, 0xbe664b16bee36568U,
  0x3e852168be21698aU, 0xbdc65f053e3e9b38U, 0xbe1683d33daceffdU, 0xbe9ca8d23dbaa4f6U,
  0x3e8297a7be8a9658U, 0xbeae39f93e503591U, 0xbe97fecebec8da18U, 0x3d5a7b08be97de5fU,
  0xbe8d44e13e1c88d8U, 0x3e01c8ba3e9fe9c3U, 0xbe7fbebd3e38ff7eU, 0xbd4a4ef1bf00517eU,
  0xbef5b10bbeba98a2U, 0x3ebd4f9a3e64bf17U, 0x3e7148b7be865949U, 0xbdee7e61bc92d108U,
  0xbe87105f3ceb6c5eU, 0x3e44209f3e57fd91U, 0xbddcb3aabddbb71fU, 0x3d618aa0bda6f04dU,
  0xbdc56ffcbe6bede2U, 0x3c720073be574b1dU, 0xbbc36836be67370dU, 0xbc4a2994be61b401U,
  0x3db9c23fbdd879d9U, 0x3d8594cabdd0f805U, 0x3d8d8bd7be4f807cU, 0x3e50e5ce3e3a55f8U,
  0xbc1111f03da11076U, 0xbd3dab7fbd8e8680U, 0xbe66b360be57c568U, 0x3d38e577bd5e5043U,
  0xbe4207d6be604641U, 0xbe19cb4e3c8e859aU, 0xbe8d2f15be9b6d77U, 0xbe724572be0fe4e6U,
  0xbde749ae3d642f1aU, 0xbced4a85bdb34920U, 0xbe8681e6be8ad24aU, 0x3e10de2cbe1e40aeU,
  0x3e587f37be31efb2U, 0x3e1666863db0c91dU, 0xbdab91ddbd2f6b23U, 0x3dfc85443de4d61cU,
  0xbde8ed36be95982cU, 0xbd6d9fb5be57196aU, 0xbd8e19d9be41729dU, 0xbe02a6afbdb0bea2U,
  0x3de6cc47bd353848U, 0x3d7dd96c3db4db12U, 0x3e1dc52dbe91ce40U, 0xbdc1b817be56b5dcU,
  0x3d8c6c473d892b48U, 0xbdb71ee8be238093U, 0xbe82e6313d5c9946U, 0x3e2455213e4c2576U,
  0x3d947b9b3dcdab41U, 0xbdf76662be1a2d9bU, 0xbd3dd7393c91c6e0U, 0x3d6070073d88243fU,
  0xbd12a4083de444e1U, 0xbd1c523b3e35225fU, 0x3e30e189bd99023aU, 0x3d88d456be283340U,
  0x3dba7ff2be9555b8U, 0x3e6015d7be151e6bU, 0x3cb62c653e55088dU, 0xbd781257bd577d57U,
  0xbe03418cbe99def7U, 0x3dcac397bdb0332dU, 0xbe8209a83e226f5eU, 0xbe7367713d554ec1U,
  0x3dd1c292bddfe1daU, 0x3e5be5c3bdde9abfU, 0xbe1a1ea1bdb314e6U, 0x3e06196cbe1e709cU,
  0x3ddad5d9bdb877f7U, 0x3da064163e1236e4U, 0xbdbaa5653c9251ffU, 0x3e23c18fbea5a684U,
  0xbbf51c1f3da8424dU, 0xbe388bc1bd78f34bU, 0xbe593bee3e4aa778U, 0x3dde676bbe0eddccU,
  0xbcc11ff2be2b0aefU, 0x3c25c2273dd12b15U, 0xbe65d2c4bcb72aa3U, 0x3e6a3491be9ebdd6U,
  0x3cba1c343d2f2e96U, 0x3ce478b8bd3ea5bcU, 0x3cebc3dfbd9e677aU, 0xbe3d81213e4934baU,
  0xbea24243be2a4244U, 0xbd532d11be00f9a3U, 0x3e543b353da10224U, 0x3db925da3e1677a6U,
  0x3cecbac33d73ac2dU, 0x3cdc1548be86d151U, 0xbdda31583d81f622U, 0xbdb354b1be8bb934U,
  0xbe4e03f83dd37be6U, 0x3da53c3d3dd36c88U, 0xbe21f4583d0bec8dU, 0x3dda0414bd08b1a6U,
  0xbe71df1c3d1dd9fdU, 0x3dc17ec5be19de70U, 0xbdacd5a83e076aefU, 0xbcf791e53dab6347U,
  0x3da29fe43d61d1ebU, 0x3d6aa358beac0ab3U, 0xbd92df50be79a8e6U, 0x3cc72863bdceaac0U,
  0xbccc7b34bdd1f959U, 0x3da19944bdac6d3cU, 0xbd97f8c7bc2fc754U, 0xbdbafb39bd8b7dc7U,
  0xbdb0e09ebdd80ab7U, 0xbd164accbe9cc15eU, 0xbd8c15a03d2ffe25U, 0x3e499638bd8247d8U,
  0x3e275b3cbd19cc56U, 0xbc3c5ca8be82a961U, 0x3d2e7e33be13bb6fU, 0xbe3e5a373e43ad95U,
  0xbb9acda63e57518cU, 0x3e2939debcbef1b3U, 0x3cec526a3dd473abU, 0xbe3681233e6ca066U,
  0x3ea893203e83c2fcU, 0x3efe32d4bf0dd5b8U, 0x3e97a323bd94fc34U, 0xbee7b1183f1ceda2U,
  0x3f2d57bb3ec67ddbU, 0x3f1a9a8d3b5dd9f3U, 0x3f4193ec3f1804c8U, 0x3f34433b3f64e4b9U,
  0x3e5c2a573f423f29U, 0x3ecee7a23e5ac72cU, 0x3f3146653eadb321U, 0x3f5602c63f26c9f7U,
  0x3d69d1693e6e96e1U, 0x3e7db14ebdf2e48aU, 0xbe8b3012be8209abU, 0xbec0cbb73d955358U,
  0xbee09e37bec10813U, 0xbd9e3089bc1ed139U, 0x3c3fd816be7ac93cU, 0x3e4e278fbedb2f9eU,
  0x3eb8bac63de16b78U, 0xbebb7dffbe75dfe7U, 0xbe9a5cedbe6c589aU, 0x3e044367bec1591aU,
  0x3d99bca6be4bbcb8U, 0xbe1154dcbdef4b2aU, 0xbeb178aebe4b70feU, 0x3d7eece9be48082cU,
  0xbd9a162bbe50606eU, 0xbecfe625be9eb1d9U, 0xbdba2cee3e0205cfU, 0x3e75a3d2be9691b7U,
  0x3d32ff373e8c1ff6U, 0x3e61e470bebc09ebU, 0xbed13b433e945ce7U, 0x3e961d65bed3ba01U,
  0x3e15afdcbe2ccf3fU, 0xbed481f03e266122U, 0xbea33b74bed34383U, 0x3ea011723d57503bU,
  0x3e3ec1bbbdf782daU, 0xbe8cdbb2bec29beaU, 0xbe716a3abed34dfcU, 0x3c9d06edbe9b493eU,
  0xbd954b79bdf6d745U, 0x3d874658bedc2083U, 0x3e63104abed7e2e4U, 0xbec173233d653a94U,
  0xbe4a9b31be16e10bU, 0x3e243d22beaa046dU, 0x3ea07df9be2466a1U, 0x3e988681be05fc1fU,
  0xbeeb7cf13e4a5d19U, 0xbf01cc873e8f2037U, 0xbed52115be088f46U, 0xbea5114dbe9d52a0U,
  0xbe96984ebe66271fU, 0xbb6cb0e93d05e03dU, 0xbdfdbefd3e27f4c9U, 0xbd0186d3bdb18bdfU,
  0xbe874fb83e5f4f81U, 0xbc388dfebe4a29c5U, 0xbdaf0ae53d7e68afU, 0xbc987b04be938d22U,
  0x3d60cbbb3e4d6a6cU, 0x3e278517bed33466U, 0xbea4707bbe86d344U, 0x3e868ef2be8dfe4cU,
  0xbe4389c03e58d6a6U, 0xbd992fabbe7cde68U, 0xbe8ec3d43e62d75bU, 0xbdb19f0e3e960b93U,
  0xbe97aa62bede3548U, 0x3d29bb353df48a5fU, 0x3e4c8f37be956919U, 0xbe869976be8ef220U,
  0xbea4a666bed5728aU, 0x3e55727cbe5f03edU, 0xbea830a5be5481f1U, 0xbe0001993ea350bdU,
  0xbd7e78b9be35f809U, 0xbe1da2b43e9ba65cU, 0x3e37cb77be5bfb87U, 0x3ea2a2e9bc01b981U,
  0xbeca4dc63dfd57e7U, 0xbe4a7122be8de39fU, 0xbd068ea43e3e5a8aU, 0xbe7f8d1bbdd3edafU,
  0xbed51f70be8e6c20U, 0xbe9e5d9ebe83ff99U, 0xbec99d7b3e9f641fU, 0xbead37e3bd3bdebdU,
  0x3d83d302be8c2a96U, 0x3e2669b0beb6496eU, 0x3edcd550be9edda7U, 0xbe8e97aebea4f664U,
  0xbc87f90c3e41b040U, 0xbe8ede05bee811f9U, 0xbe5179d43e888d55U, 0xbec081efbed6b57cU,
  0x3cc874813e12271cU, 0x3e66bcd63e5b3f39U, 0x3dcc2ba43e47c975U, 0xbe95bec03d7d1d00U,
  0xbe512a9c3e4457c1U, 0x3ea669e73e3f9794U, 0xbecc63b8be9b3913U, 0x3cad085cbe8ae4e9U,
  0xbe7e9b55bd5a06b2U, 0x3df9c71fbe50f162U, 0xbd8090443df5e7dfU, 0x3db78d05bde9394eU,
  0xbe345db7bcc9a10cU, 0x3ec5f6e13df1af90U, 0xbe94d3f6bea72d4bU, 0x3e505ae33e965867U,
  0xbe28ed58bdb6b2b8U, 0x3e9eb2df3e5fd4dbU, 0xbef365f33e1ad9c6U, 0xbefafea2be1cd5a2U,
  0xbefe0000be36fb58U, 0x3e046bd4beeb83f3U, 0xbeaaf0893de0a1a9U, 0xbe8448b03ccd4420U,
  0x3c6b29a4bec2d407U, 0xbdf07643be3e303bU, 0x3d81a62ebe7ff581U, 0xbdcddb4dbe89d70fU,
  0xbe908320bdd15256U, 0x3e45f0ba3e4284e4U, 0x3e8d58fa3e9309c2U, 0xbe9a7965be680f12U,
  0x3e89dfd1bdac87b4U, 0x3e9e7476be59aaaeU, 0xbe0c3fde3ea5ef56U, 0x3d7ed1f3be9a53bcU,
  0xbe4763e93e3c1804U, 0xbd98b2c33ad17a98U, 0xbeb14169be425219U, 0x3e0e28893e124a84U,
  0x3e3f4562bec03ce8U, 0xbe6787df3e01ede8U, 0x3cb595c83de819b6U, 0x3c5eea1e3e686041U,
  0xbe5a58adbec04581U, 0x3eafe870bd30e6c1U, 0x3da0ae413e9ee72bU, 0x3e719016be993716U,
  0xbe04e3723b00f508U, 0x3d0b27f53cc4e805U, 0xbe4f16de3df0fa08U, 0x3e6973fbbecd6cd1U,
  0x3c9632693e291154U, 0xbeb8413cbed2ed70U, 0xbe20eabdbebfc24dU, 0x3e980f73beadfa29U,
  0xbde07440bd9f80a7U, 0xbdea1f33bdd18d65U, 0xbdb60449bd736d91U, 0xbdcaf750bd82a254U,
  0xbd11322bbd933ae2U, 0xbe013054bd993d2fU, 0xbdd6c09dbdb627e1U, 0xbd8d8c77bdf32979U,
  0xbdda4cd9bdd4473cU, 0xbdebbb76bd6f27acU, 0xbdc73218bdd3e052U, 0xbd9f313dbdd42dc4U,
  0xbd5533613d09e268U, 0xbd03ceed3d8f7b71U, 0xbde2ad4d3d19e37eU, 0xbd4f39703d914385U,
  0x3e06cb9cbd4dc514U, 0x3dbc9f3dbe09fdb2U, 0xbafdf5e5be0865c8U, 0xbcc4ec32bd6418a6U,
  0xbaca543dbd7e417cU, 0x3d044fb5be073215U, 0xbd00674dbcde460cU, 0x3dfed7cfbd403fc1U,
  0xbc94e93e3d7920caU, 0xbd0523f0bcb156d8U, 0xbe2c114b3d290908U, 0x3da839f0bdafd276U,
  0xbd40c211be18d93eU, 0xbd967d8dbe02a190U, 0x3b99cd18bd6c121eU, 0xbd3f6f81bde67f32U,
  0xbdb45e433d13d970U, 0xbc8121ecbd8893a1U, 0xbd7d3d1a3de527ddU, 0xbbaecca7bd1d9abbU,
  0xbd2135f2bd2d3902U, 0xbdf57403bdbdefc2U, 0x3d260d2dbdf56a8eU, 0xbd9d2c2a3da0ccb4U,
  0x3d76fa21bd7af27eU, 0xbc484c47bcd5904aU, 0xbc8312603c4f875dU, 0xbd71f29a3c933930U,
  0xbd66fed1bdef650dU, 0xbcd42731bdf09f6dU, 0xbd06162dbd2f56b4U, 0x3db04a7ebd4b09b2U,
  0x3d815a373d0d5dd8U, 0x3dbcb1ac3d7f16aeU, 0x3daa267f3da49ef2U, 0xbce962053a910fe9U,
  0x3a165c203c0a5f90U, 0xbd276e01be072af1U, 0xbc9247d43bd14966U, 0x3d1e132e3d94b687U,
  0xbdb011633dc09159U, 0xbce5d568bb38c257U, 0x3d5043003dcb16daU, 0x3e142b683c9c57d6U,
  0xbd49467abcad633eU, 0x3d87744a3d51819cU, 0x3dd4c7d43c003416U, 0x3d1d52c53db6633dU,
  0x3d4aea94bdac7439U, 0x3d468847bdecd33bU, 0x3d794f033ce9aec6U, 0xbd9a26c7bce1462aU,
  0xbd987dbebb908778U, 0xbdab7175bcf81519U, 0x3da31a69bdd725acU, 0xbd76cc073c29376cU,
  0x3cf7cf5ebd874644U, 0x3d54c17a3d9a2b4dU, 0xbd9bd5b33d728725U, 0xbc12ffe2bd2fbb1aU,
  0x3d562ecebe0339b8U, 0x3d9784b6bdad5dbbU, 0xbdb250d93d309250U, 0xbd4db27f3d84b6ffU,
  0xbdf4cf323d697506U, 0xbe280fa0bc9711edU, 0x3e1c2e213cf9724fU, 0x3b59f3f6bd0a76b3U,
  0xbd900755bdff4447U, 0x3dcb787ebc5f4216U, 0x3b0ad29dbd954fdeU, 0xbde9eebabd7d9e81U,
  0x3dac3efa3d722750U, 0xbd43afa6be429bf1U, 0x3d729adbbda5eaa4U, 0x3db2110f3d08f4f0U,
  0xbdefd9d3bdbb9075U, 0x3dc6496dbd1c06f2U, 0xbb213e69bcc70988U, 0xbd81cdddbdb7680aU,
  0xbd8fda52bd8a93d5U, 0x3dadf68c3dc26430U, 0x3d133b623cfbe886U, 0xbc8a7ebcbd603b69U,
  0xbc859b783bafbfd0U, 0xbd4d15473c7fb2cdU, 0xbdcdc9173d1ebe84U, 0xbc45f7893d4e18b2U,
  0xbdd84a0fbd59ab52U, 0x3c8cfe52bde2fd4bU, 0x3cfed88bbda0616aU, 0xbdba537a3d367ecbU,
  0x3de722ab3d057e94U, 0xbd8352aabd817d1dU, 0xbc39a9213d649bd6U, 0x3d6da47ebd87dc16U,
  0x3dbccb5cbcd82e83U, 0x3cea12833d50dd32U, 0x3d8f245dbd748f71U, 0xbd8dc188bd8646ceU,
  0xbd0ea8223ce63ec3U, 0x3dc05324bdd25f87U, 0xbd822b24bdc22d9dU, 0xbbce014a3c577131U,
  0x3d8568a8bcd4f99bU, 0xbde950a9bdc80098U, 0xbd5da1dbbd8e0655U, 0xbcd9170a3c7143adU,
  0xbe3523cb3b0839fcU, 0xbd8ed68d3df8b26aU, 0x3dfa5c943e34a091U, 0xbdc509483e056095U,
  0x3e00fd913d88c541U, 0x3d8dfb333df9053cU, 0x3c42419f3b360902U, 0x3d6e6b843de9519cU,
  0xbc114906bd63a446U, 0x3d12cc33bd6df1feU, 0x3cf845b93ca9be84U, 0xbe27146dbdc4777dU,
  0x3ca04b76bc35723bU, 0x3ca83cc13ca1ab0bU, 0xbd023c11bd19a9abU, 0x3d5145923cfd360bU,
  0x3c9d95adbe2e393bU, 0xbd0b91b53dc1b0d7U, 0x39c130bebe072e74U, 0x3da31648bd8f58c3U,
  0xbd9cf3aebd8031c5U, 0x3d42deef3cdf801aU, 0x3b85beb1bcaa6c51U, 0xbd825fb8bd937674U,
  0xbe0b7d28bc63b949U, 0xbd7d2d5f3e2a0ac4U, 0x3d9a07d1bde899daU, 0x3ca1982fbdad8facU,
  0xbe0e16b1bdbb2660U, 0x3d3daf59bd833330U, 0xbd25b4c1bdfdd722U, 0xbde9ca943dc196b8U,
  0xbc918ad7bcf79030U, 0xbd71fd80bda2bcedU, 0xbcff3b303d313d1fU, 0xbdb4f4eebe04808bU,
  0x3c6656d53e235f9bU, 0x3d8c8a613e365f3bU, 0x3dec7e8c3e17a7efU, 0x3d9a9e1e3c961be5U,
  0x3d69299e3c3c3129U, 0x3cfabdb0bc6945d1U, 0xbd285b26bd0640e8U, 0xbce5ebb53da60c62U,
  0x3d82315b3d8f9e57U, 0xbd5e9346bd550706U, 0xbc09d479bd04ab23U, 0xbdb89865bdf6df10U,
  0xbdd20e443d7debaeU, 0xbc2a7dda3e301c22U, 0xbbdb47d63d958f1cU, 0xbd977faebd4e89d7U,
  0xbc81ed2fbe1a7e1bU, 0x3d8bc5623ccee3a8U, 0x3d400283bdb1f9eaU, 0xbcadf2ebbcfa226fU,
  0xbdb58d26be31d819U, 0xbdfd8757bd1cec0fU, 0xbcb303bdbc11b853U, 0x3d111866bcdbab26U,
  0xbcfe5e0cbdc4010cU, 0xbdf1f0b43d0eb8adU, 0x3d318fb43d652f71U, 0x3e32d3a1bc8e8094U,
  0x3a178987ba5a991bU, 0x3d983a54bd3cf587U, 0x3dbf632abdd22503U, 0xbd68d031bde116c4U,
  0xbc46ee17bd926a6bU, 0xbdcc3401be2a42e9U, 0xbc89e411bc43accaU, 0x3d3186c63add85c4U,
  0xbdaa92133cc4da03U, 0x3d59e4a53e014f2bU, 0xbdcf066c3dd42c23U, 0x3dd26b453e167fe4U,
  0xbbbb75b73d1dfafeU, 0x3c6977313beba669U, 0x3de8ad0fbcf1059fU, 0xbce0dbdebd2381e3U,
  0x3e0067b2bc0484caU, 0x3d2f76b5bd98906cU, 0x3d48d546bc7646d6U, 0xbe08e96dbdc54aa4U,
  0xbdb4ccde3dbcfd2eU, 0xbda095163dc33829U, 0x3ce0186e3da5fbc3U, 0x3cb7f3503e0a4d97U,
  0x3dcccc2cbd8167b5U, 0x3d5ded5c3c4df369U, 0x3c84e1e53b945a2eU, 0x3de7926f3d13fa93U,
  0xbd2aaffebd05f104U, 0xbd1edaaa3d2965c9U, 0x3dee4b603d167cd7U, 0xbe060e223d646b6dU,
  0x3e15afa43c475bc4U, 0xbe219a68bcdd38acU, 0x3c87bb033dd1ee94U, 0x3d694fd03de0a949U,
  0x3ce24513bd0fed88U, 0x3d3ce084bdc6bde0U, 0xbc96c6303deb22efU, 0x3de81227bd403eadU,
  0xbcb352033d9b6e86U, 0xbc66ff66bdb29c43U, 0xbd8cc960bd55302fU, 0xbde2153d3c89aec1U,
  0xbd714c523dbb0ee0U, 0x3ddc4fd9bc1cdb7aU, 0xbdb8cd97bdf4b6b6U, 0x3d87b0193d8d260cU,
  0xbdb29bf53d706582U, 0xbdc7cfbdbd94e9f1U, 0x3d909db43c14e86eU, 0xbc9cf51abd977159U,
  0x3cbfe8f4bcbf4b12U, 0x3db491ecbddff0d0U, 0xbc68ce11bd2e6096U, 0x3c9cd231bdb27f62U,
  0xbd667910bd9c4aaeU, 0xbd76b2933ce9e9e3U, 0xbb5955083d83428bU, 0xbe0ef4c0bbae1056U,
  0xbdc28e373d4d8121U, 0xbdad17c7bb96829eU, 0x3dc8ed83bd162510U, 0xbd8638403cdcb894U,
  0x3d6f63f43d5a5472U, 0xbd3cb15a3d21a8b9U, 0xbd945dddbd9831f3U, 0xbda55c18bde4bec2U,
  0xbd9643c7bbf3988cU, 0x3d8db104bd7713bbU, 0xbda25351bd24001eU, 0xbd885f88bd5b7e4fU,
  0xbdcdf7b13da66544U, 0xbd742ff4be0bab24U, 0xbde680bcbdc242eeU, 0xbc40d051bca59533U,
  0xbd35b4a4bd8c284aU, 0xbd1cc7753d7a52c9U, 0xbcaa3ebdbdb5dab7U, 0x3d01df073cfef509U,
  0x3bfa0d9dbe03cc15U, 0xbda96cb5bdc295a7U, 0x3d2aaf49bd8fd4c6U, 0xbc90d19c3ca05fbcU,
  0xbc8882cbbdc45f1dU, 0x3c2c59d2bd1dcc71U, 0xbd8b825f3d8f8737U, 0xbd9d23a43d9670ebU,
  0xbce97d23bca36a5dU, 0x3d8f465b3dcf82ebU, 0xbe1c425cbd0acff4U, 0x3e0cdcd43d6c7d3eU,
  0x3ca7f6803d5274a1U, 0xbdc3f6ecbdf60731U, 0x3d9c98c2bdaaf2f8U, 0xbd8964c23d5cb8cbU,
  0xbc0364433dc3365cU, 0xbd941134bcc32c59U, 0xbb96b2f9bdbc758aU, 0x3d8aafd93ce0142eU,
  0xbbaf0854bd4f67d6U, 0xbdbbc4c23d832191U, 0xbd263023be0b8c8bU, 0x3d8d65fabdbb1f4fU,
  0x3d07fe853c8ea9b8U, 0xbe04fc80bd0c5cdeU, 0x3d7e618dbda17e74U, 0xbdef7878bcc70de0U,
  0xbd463847bd4ca572U, 0xbc803c75bc83933fU, 0xbdc10eaf3c0630cbU, 0x3d6477c63ce72674U,
  0xbd67dee0bdb1eb81U, 0xbd1f99d03dc17ce7U, 0x3dc958ef3d3d538bU, 0x3c221ece3bf0a7a0U,
  0x3ccb29a4bdec9f62U, 0x3cfeb0913e174244U, 0xbd067e57bbfb177aU, 0x3d5cbc87bb3e6eacU,
  0x3da13d53bd37cf97U, 0xbd5cdffb3c411bbeU, 0x3c32bb13bc93c296U, 0xbd54972ebdb1f20aU,
  0x3c39d147bce62fd4U, 0x3b065000bc29e774U, 0xbd71db643ddf4a4eU, 0xbd281d213dae1ef9U,
  0x3dd31183be0bbab9U, 0xbdbaa0513ce7cdf2U, 0x3c830a16bb71fe39U, 0x3d546ce63c1d0af1U,
  0xbc26db73bd96b1b5U, 0x3d07fcd9bdcb79feU, 0xbdb29fe23dca696cU, 0xbc8e4b57be057679U,
  0xbe09b4f9bda0a2ffU, 0x3d10fc543da88ae0U, 0x3d0f9eacbd82ea29U, 0x3c178cf63cbb574dU,
  0x3d8adee7bd6ba85eU, 0xbd8bec0fbcd4aaa8U, 0x3cb5f3a0bce636b9U, 0x3c8342a73c8ce4f6U,
  0x3cf0c1653e16e96dU, 0xbcbcc93f3d29de75U, 0x3d1ff8dbbce3d401U, 0x3ce267223d6dae60U,
  0xbcdf786ebda4b444U, 0x3c0d23b3be421621U, 0xbc9c30173c83057dU, 0xbdda66c03b241169U,
  0xbcbcb68abda3e6b4U, 0x3d21321f3e1d6708U, 0xbdf455fd3db14427U, 0xbd24e25abb2ab847U,
  0x3ddc83d83ca1d09cU, 0x3d0993623c756b08U, 0xbda85501bda638deU, 0xbdebc576bd18ead3U,
  0xbc48a055be1c3909U, 0x3ca9a9a93b1d9fdaU, 0x3d177905bd6e7b02U, 0x3cef7e233d1395cdU,
  0xbbab0d3abb9f822aU, 0xbdca00a33ceebe89U, 0xbe1be0a93d1d6e30U, 0x3d7011203d65f44bU,
  0x3df04d72bbe8a9dfU, 0xbdbb678abe0325a0U, 0x3cf885b93c3ca2e4U, 0x3ced65d9bd833eb1U,
  0x3d9492e5bdf4fe7eU, 0xbe063ed53df055e6U, 0x3e2001d23c727de1U, 0xbda4b40dbcb41889U,
  0x3cdfa02abd58bf6dU, 0x3c9493febdaf1b4dU, 0x3d01f53fbdbc6e40U, 0x3d8601c33d054e0fU,
  0x3e1e79363d27b6a5U, 0x3d1c904f3d2bded4U, 0x3d05a382bd26c330U, 0xbd829bc53e030edeU,
  0x3d4a7114be0bd126U, 0xbdb7d877bd82963dU, 0xbd93b4bf3cb36d0dU, 0xbdc3fc45be063601U,
  0xbc956099bdd7b2c9U, 0x3b4b6f463dc522a8U, 0xbd50754dbb9729efU, 0x3d5960623dc1add3U,
  0xbd3ad955bd0319a8U, 0xbd7499953ddc2f4bU, 0xbcb06fb1bdacefc5U, 0x3d5f4404bc57ad8eU,
  0xbd5b2229be0e8c19U, 0xbdc0c6f9bd93bf59U, 0xbd96856c3c833873U, 0x3c4acbdc3ca90237U,
  0x3d7632583c8fc91dU, 0x3cdade25bd76e70cU, 0xbd89dc9b3da2a5f2U, 0x3d89f39c3da4d9b3U,
  0xbd9cdf163ba375fbU, 0xbdb8cf44bd597e6dU, 0xbe09acd93d250941U, 0x3d1668fc3dd66fcfU,
  0x3d529e27bd3ba191U, 0x3ce3b5613d447a73U, 0xbd8641b0bd94d2f0U, 0xbd9af9e53d259cf3U,
  0x3cebc250bd8696e9U, 0xbbc78baabd242995U, 0x3dbc00fcbcf39cbeU, 0xbdc33e4a3dc83558U,
  0xbd8fe28c3c20f0acU, 0xbda3d7343b358570U, 0xbdcf9cdabd64cddcU, 0x3d7dbd82bd95acf5U,
  0xbdb5c85e3d47fb3cU, 0xbdae62cebd0cf466U, 0xbe029b6bbd166b6bU, 0x3ca299c7bcb0a2a8U,
  0xbc975d8d3ce6fc0eU, 0xbde55fa1bcdf90bbU, 0x3ca398633de6866bU, 0x3d3db4a13d9763caU,
  0xbbb2f242bdcb3789U, 0xbbbb6c73bdd223bbU, 0x3da1978fbd8be3c9U, 0xbd31eef93d3bb843U,
  0xbda304093d76def0U, 0x3db290ebbd47c06eU, 0xbd66c673bde1a78bU, 0xbdf10ae23d89dbcaU,
  0xbd2332e4bdb80c4fU, 0x3d7d5eeabdd22e51U, 0x3d503b1a3d1fdeccU, 0xbd11c2dfbcfe6ad2U,
  0xbdaa62153d9516a2U, 0x3cba888ebd1318a0U, 0x3c8b3826bdaa7c2bU, 0x3da699493db37749U,
  0x3c127172be00bdf7U, 0xbdaeeb97bde2b471U, 0x3d57e9edbda76f50U, 0xbdb57a3b3d2d8005U,
  0xbdc9dc193d2c8b85U, 0xbd1600323ce94ca8U, 0xbc7b74e63d15672eU, 0xbd125b453ccbba1dU,
  0x3dc9148bbd7df103U, 0x3d9b66f93cf47ad2U, 0xbcf645c23cb60e08U, 0x3d37920e3d200af7U,
  0xbd559d973c3d0e8cU, 0x3cb01ee5bd972768U, 0x3dd356f03d82012bU, 0xbde2a4abbce4c04aU,
  0xbbeb10febdb373ccU, 0x3d2559f6bd79d006U, 0xbde42eaa3d7c9e1fU, 0xbd52e162bca3657dU,
  0x3da3f9e63d2d7faeU, 0xbd983475bd8bcdd9U, 0xbd4bd214bc58b64aU, 0xbcc77d01bdac25c1U,
  0x3d70d949bc89d399U, 0xbd9f729b3d964194U, 0x3cee3f8bbd239487U, 0x3db38aa43dd1bffcU,
  0xbc729679bdd66e61U, 0xbca751ab3d8c180fU, 0xbb94ddd13d846c1dU, 0x3d2f94ed3c8cc1e1U,
  0xbd51511c3ca72436U, 0x3d3b64ab3c86ae6cU, 0xbd04d3c9bdb61c60U, 0xbda48ef4bdbe1f43U,
  0xbc04f264bdc980aeU, 0xbdf1b4213cf9fa9eU, 0x3dea053e3da0d29aU, 0x3dcd66a5bd7a90dfU,
  0x3e0a44f73cb821a9U, 0xbdcb42d33dd6315fU, 0x3d5f96dc3d48d8e9U, 0xbd18bca43d1f33a3U,
  0xbc957c583d0e2f14U, 0x3d2062973d4c6998U, 0x3ddd04c9bbadfcb5U, 0xbda695383b332731U,
