/**
  ******************************************************************************
  * @file    network_data_params.c
  * @author  AST Embedded Analytics Research Platform
  * @date    2026-04-29T11:54:41+0800
  * @brief   AI Tool Automatic Code Generator for Embedded NN computing
  ******************************************************************************
  * Copyright (c) 2026 STMicroelectronics.
  * All rights reserved.
  *
  * This software is licensed under terms that can be found in the LICENSE file
  * in the root directory of this software component.
  * If no LICENSE file comes with this software, it is provided AS-IS.
  ******************************************************************************
  */

#include "network_data_params.h"


/**  Activations Section  ****************************************************/
ai_handle g_network_activations_table[1 + 2] = {
  AI_HANDLE_PTR(AI_MAGIC_MARKER),
  AI_HANDLE_PTR(NULL),
  AI_HANDLE_PTR(AI_MAGIC_MARKER),
};




/**  Weights Section  ********************************************************/
AI_ALIGNED(32)
const ai_u64 s_network_weights_array_u64[2573] = {
  0xbf8689b04032bec2U, 0xc0355821401da755U, 0xbf3301eac041096cU, 0xbf54c2a93fa33580U,
  0x3fb8614ec024700eU, 0xbfafc3073ff89c30U, 0x3faf7209bf00e2acU, 0x3f1584f73ef2c327U,
  0xbf7cbac94018bc3bU, 0x3fc811f23f7cd167U, 0x3fa793c34016e16dU, 0xc0729a75bfd111f1U,
  0xbf0eb9cd3e797395U, 0xbfd7f7e14082df83U, 0xbfeccff04033ec98U, 0xc006ea0d3fcf230aU,
  0xbfb50089c086edafU, 0x3f4c9f3dbfc40c93U, 0xbfbff3993fae8f74U, 0x4032bec3c0166be5U,
  0xc08591c53f417aedU, 0xbf8d5141405d51ccU, 0xbfb77716c03304dbU, 0xbfff5a35bfcdc8a1U,
  0xc007b13c3f678983U, 0x4001615ac028d522U, 0x3f7e9eabbf48f842U, 0x406acec93cce466fU,
  0xbfa201983fa4c59fU, 0x3fe84211bfd2c2ebU, 0xbf6947dc3fa3a1d1U, 0x4054d7333f5e1ae9U,
  0x3f6c067b3f9c369cU, 0x3ef2137c3fb4a101U, 0x3d10cbe1bf2e336fU, 0xbf3a73aabe5a3270U,
  0xbf49b89b3e8715b4U, 0x3f0be070bf23e366U, 0x3f1a6fb83dfc43f0U, 0xbefd5118bed1a2b1U,
  0xbd9eff233e0d5d62U, 0x3dd1740d3e255d6dU, 0xbb0fd4f5bbd99ff8U, 0xbdcc662abb04a9f3U,
  0x3d0988043db0b2e1U, 0xbe5fc4d0bd7d1b1fU, 0x3e142016be2d1b12U, 0x3d697536be23513aU,
  0xbdd856c63ccee5c1U, 0x3d3002173de3012eU, 0xbc96cf26bd602156U, 0xbc77d7a6bd686d51U,
  0xbe9080b5bdc3ff2aU, 0x3de2addf3d37a087U, 0xbe0b76293d2018bfU, 0xbe0eb85fbe0868c8U,
  0x3c295aa33db8166dU, 0xbd8ba758bd3dacaeU, 0x3db609ed3cc13112U, 0x3cc224e9bde0d28bU,
  0xbcddd028bd916287U, 0x3dd80c383c9e1856U, 0xbe08f7fc3e0462d2U, 0xbe5253c8be982caaU,
  0x3db4b91ebbf50811U, 0xbcec056dbdd89a0aU, 0x3c440a2f3e434949U, 0xbc71c165bd80caf1U,
  0x3bcd24a7bd460fb9U, 0xbe856027bd5c2a5fU, 0xbe2e3ef73e333b20U, 0x3dcf16843ce681b5U,
  0x3dbf8818b81f2a6dU, 0x3de73da53e0379c7U, 0x3d4ae31bbe3687f6U, 0x3d9622653d036d59U,
  0xbd099276be0446c2U, 0xbd76f2f73d2e0755U, 0xbdc287c0bc92a615U, 0x3d8a18033db3da49U,
  0x3d97e5b2be0f4d7aU, 0xbca800f03e0c6ed4U, 0x3d5fd22e3d5fe28cU, 0x3e4004273dd7a582U,
  0xbe22bfdbbd02ee5cU, 0xbbe7b309bc96cdbeU, 0x3c96a19dbcd5f87cU, 0xbe23b2283c91999eU,
  0xbce13b2c3ccf5f05U, 0x3e5c4f4e3dcdca8dU, 0x3e5b1655bd5b9e26U, 0x3ca3bc13bdce45d0U,
  0x3e0bfea2bd946344U, 0xbe2434f3bca39d9aU, 0xbd4ec375beae0020U, 0xbdace6a9bda6a5f6U,
  0x3e6ff83abc9c8375U, 0xbe0b2fa43d8091a6U, 0x3e1bfb67be00183cU, 0xbd0fdb993da2dbc9U,
  0xbe21e32cbdd123edU, 0xbe4860803d0c012bU, 0x3e25d79dbe308bf3U, 0x3c94b74abda28ce4U,
  0xbe9b7654bdc5db6dU, 0x3dc350f73d3b20afU, 0x3e72246cbec6b5bbU, 0xbcc96d503cbe11e2U,
  0x3cdc22683d838f69U, 0xbd01befebd6cc6b3U, 0xbd999617beee8508U, 0xbe0cdbd6bce46469U,
  0xbec1477d3e8572a2U, 0xbe1bf94abe2115e1U, 0x3d4774f7bea334f7U, 0x3e0bac943defdf2dU,
  0x3e7be3b3be1c061fU, 0xbd969870be1baa1dU, 0x3d02cd723d541d19U, 0x3ec61b79bd00b165U,
  0xbbde4634bebeb0d6U, 0xbe96008d3d29fb3aU, 0x3e4988fa3d9a4d72U, 0x3e82eaa6be867f46U,
  0xbd890c68bd1ab680U, 0x3ed1ee913d6790a8U, 0x3e304045bda30fe2U, 0xbdd900e53e631bc6U,
  0x3c982f07be74cf9bU, 0x3d936b0a3d20cfbbU, 0xbea76b3a3dc10df8U, 0xbec034793e89f439U,
  0xbdceb52d3d6cfa82U, 0x3e0918bfbebcffbcU, 0xbe9d1facbe0bce39U, 0xbc84d676bd4e92d2U,
  0xbe0f6e2e3dea401bU, 0x3dcb74383eb5888eU, 0x3e9b1453bf31a77aU, 0x3e02dcfcbe07c298U,
  0x3e90e2983e5c87d6U, 0xbd1b4bfd3d886242U, 0xbed6d1f33edd58efU, 0x3d0da0603eafa02fU,
  0xbe4a21d4bd088025U, 0xbcfb41c6beecd446U, 0xbf0917a83efa2d4aU, 0x3dc0b9fb3c7ec969U,
  0x3d40743b3e8969eaU, 0x3e96674e3d661da8U, 0x3e7d9284be42417dU, 0xbddc99e8bd74dc60U,
  0x3e696838bf1c7f8fU, 0x3b6e7cf93d7b8167U, 0x3e07588abde13a97U, 0xbbf621debd255165U,
  0x3ec6aeb1be085f55U, 0x3d329eefbd122d81U, 0x3ede059ebead61cbU, 0x3d18d1b6bbfd9c85U,
  0x3e7319b83d819733U, 0xbe8cd4983dd60b9eU, 0xbe9a89793da93b4dU, 0x3dc72658bdb809c8U,
  0xbde7652abe22c265U, 0x3dc0b8a8be69a6e3U, 0x3c9537633e550717U, 0xbe814642be895aa4U,
  0xbd7b77c93ebe0ee1U, 0x3e055f373e7f812aU, 0xbea19a9f3dc55835U, 0xbdeff6fd3e709381U,
  0x3d9f750dbd339f5aU, 0xbc605901bdf9498cU, 0xbe260e993ea8494aU, 0xbdec10a1be876126U,
  0xbe9b7d9e3e5887e0U, 0x3db1a6f9bd85ad75U, 0xbda6c7b1be0e846fU, 0x3e0e637bbe79f8afU,
  0x3dd014c2beb243ebU, 0x3e012da83e9f5a86U, 0x3e6971b0be4dfa0aU, 0xbe8eb90bbea2d856U,
  0x3bc9840cbe1e0518U, 0x3dbfe7f6bb0153dcU, 0x3dcd63e03d758646U, 0xbd308c18bccc7c27U,
  0xbe65af79be67f4e3U, 0x3c65e53ebdb8e4c0U, 0xbd6f117cbe44ccadU, 0xbdabc533be0e4f89U,
  0x3e037cb0be30498aU, 0xbebb53ca3e307400U, 0x3c9d0c863d0ac3c1U, 0x3e119c8c3d9a120fU,
  0xbe2fb1df3dd4b0c6U, 0x3d726f333ddf4781U, 0xbd13e55ebd52d5adU, 0xbd35fc0a3e2ca9dfU,
  0xbb9d981a3ca130e5U, 0x3e4edef63e2274bdU, 0xbe0ba90dbe426872U, 0x3da0f55f3e4c9089U,
  0x3dd3d16bbd18ab2cU, 0x3dbe9b65bc6a93c7U, 0x3e5ba9063b061d8dU, 0xbd6f35bebd02d9e0U,
  0x3c5a5c8ebd17eab1U, 0x3df9c310be3d5406U, 0x3e569ba9bbd30d1eU, 0xbea1b700bdf5dfacU,
  0xbccaaedfbe6f99a2U, 0x3d200b67be58e48eU, 0x3e88f7953d35c7cdU, 0xbd87d3a1bdb72597U,
  0x3d3650c9bde94917U, 0x3d9cc4883dd1d8bbU, 0x3e855e423e2426beU, 0x3d621761bcbd3078U,
  0x3e195ece3be73593U, 0xbe95c3fabd194e5dU, 0x3ecd499cbd65f1deU, 0x3d0460ecbe937978U,
  0xbe8a22e93d9987c5U, 0xbd5d2442bcb174d5U, 0xbe14572b3e00b65cU, 0x3ee5f671be94bf9aU,
  0xbeb0bdcb3d048a9cU, 0x3f3f0cc1bd835738U, 0x3e1387b73df73d77U, 0x3e546e733ead6c04U,
  0x3d478a3e3eba9a44U, 0x3e310006be35fed2U, 0xbdb043cc3e90ac8cU, 0x3e7a44833df735bcU,
  0xbdfcd206bcf12fd3U, 0xbcda199abcb08cd5U, 0xbe70873ebe859cb2U, 0xbe9118e43eb2e8d4U,
  0x3eab3b1abe5bacc8U, 0xbf57f3ac3e0dbc1aU, 0x3e92fcd3bd8f40c7U, 0x3e0bf683bdb2e9d2U,
  0xbe5deac5bf1fb8a7U, 0x3e8d534b3f049073U, 0x3d4a54eb3ef52650U, 0xbf1d8e8d3e550d65U,
  0xbdd56d91be5807deU, 0xbed6e058be6f8158U, 0xbf3cf1fc3df23546U, 0xbda79f30be860faaU,
  0xbd9c6b9ebe77eedbU, 0x3e1419163ea9819eU, 0xbf5e54f4bdd93f35U, 0x3bca49e13cfb1360U,
  0x3cebf29ebdc08cb8U, 0xbeaaba173da31982U, 0x3e6340e13e871a6cU, 0xbc67ae3fbdbb33beU,
  0x3e7e75b53d7cfa0dU, 0x3c285d003e2e2c6eU, 0x3ec6b5763e09c780U, 0x3d2ab2d73df669c0U,
  0xbdcb47003e90ce21U, 0x3e3f40193e8cc68cU, 0xbde5b795bea94118U, 0xbb39562abe41a5b0U,
  0xbdbc04bb3d30fefdU, 0x3d37d886be4c3bc1U, 0xbe06f62b3e8d269dU, 0xbea749a33e0acb27U,
  0x3e9e9d9dbe802c4fU, 0x3ba8249b3d7cf082U, 0xbeae79ba3e7793fbU, 0x3e2c466abe19e203U,
  0xbe371a63bb3e9aa9U, 0xbd9226dabe5b6bd2U, 0xbeed1fc83d8056c3U, 0x3e0027ea3df3fe6fU,
  0x3c5f0a45beb051feU, 0x3e36578d3e1e3769U, 0x3ec17e7d3e9cd85cU, 0x3e0bdc283e498dc7U,
  0xbd2a8cd93ea9a262U, 0x3d5376e4be58900dU, 0xbdee7ea43e66721dU, 0xbd388834beb3a953U,
  0x3c09dc0ebde32a2bU, 0xbedf096d3da98451U, 0x3e0c572ebdf0c1fcU, 0xbe89e5c83e742e49U,
  0x3d760c27be4c4b52U, 0x3da63fc7bcfef1ffU, 0x3ea26feabe5dcd0bU, 0xbeb0b815bddd47d0U,
  0x3d137e1fbe80008aU, 0xbea27258bd8e4b54U, 0x3d9b061b3e843c40U, 0x3defdbc9bdbc05e5U,
  0xbe0ad0a63d553c0cU, 0xbd20f98d3cfaea52U, 0xbe5be4b93f117cbcU, 0x3ebc40c83e7dea71U,
  0xbe405d643c176658U, 0x3e02302bbea65181U, 0xbe057593be955ef4U, 0x3e485f89be054727U,
  0xbdb96834bdd5ef9bU, 0x3eff634fbde81d34U, 0xbc85a8b9bdb6d7cdU, 0xbe5df153bec111d7U,
  0x3c64c44f3ded3a41U, 0x3de8defa3e16327cU, 0xbc7946cfbe3757abU, 0x3e24d804bea8719eU,
  0xbd00bb36be718ce8U, 0xbadc98b73dd4f10eU, 0xbea5f63fbd19d308U, 0xbda4770a3cb278eeU,
  0x3e20ddc8bd472baeU, 0x3da84c02bd84f956U, 0xbe6e2c38bdd60db4U, 0x3e1c003abe756c06U,
  0x3dace9dc3da72decU, 0xbe7fa073bd972a89U, 0xbebc85debe4b92d9U, 0x3ebe0e063e65a5efU,
  0x3db64adabe8d4108U, 0x3daf9de0be8fe68eU, 0x3e249e11be94d824U, 0xbe0b166fbcae952fU,
  0x3d880c173e96aa7aU, 0xbec4561fbe3825aaU, 0x3e8e8214be5ef791U, 0x3e74065c3e2b434fU,
  0xbe5c37b23ebb5ac1U, 0xbe85eb8a3e557a95U, 0x3e355361be1d2930U, 0xbe0bfa72bdf32d4aU,
  0x3d239e7ebf401977U, 0x3de6e2183ea4ad9eU, 0xbf4fc22b3dd1a889U, 0xbe8c9d293e90fd1eU,
  0xbd167a683e1cbf96U, 0xbea78f35bd65ef7aU, 0x3d09321ebc13d25dU, 0x3ef4b18c3e3cdb10U,
  0xbdef922dbe878ac0U, 0xbe8374c43da3e2afU, 0xbde20dbe3c3d4714U, 0xbe8b6302be2cb558U,
  0xbe7559f23e2761feU, 0xbf0f700ebd80eb3cU, 0xbd939cf6be893fe5U, 0xbe0fe592be6223a0U,
  0xbd84f0cebf080f5bU, 0xbe804ae73e73fb3dU, 0xbc987eff3eb1a414U, 0x3e5e86c33bffa56cU,
  0xbd7fca1e3d999d8cU, 0x3e937623be644177U, 0xbe5d81e13e817388U, 0xbebdd43dbdc932f2U,
  0x3c8525c33dcc245dU, 0xbe2c9aab3e53e521U, 0xbdd4f61cbdc4cd15U, 0x3dc449c03d6dad70U,
  0x3c95229ebe8658bdU, 0xbe021fb83e26d093U, 0xbd8a5ebfbe5d74dcU, 0xbdb00cd6be057ba7U,
  0x3e65b572bd743459U, 0xbcad6949bd76fadbU, 0xbdadc3b73cb19defU, 0x3d0135db3e0c7240U,
  0xbdf8c48fbc309123U, 0xbdedda33bdf29181U, 0xbe0e8e3fbe2a3189U, 0x3d6193a1be881596U,
  0xbe4f5b67bd6a956cU, 0x3eaa87763cc6e71eU, 0xbbe730f2be7385c5U, 0xbe10db443d304e51U,
  0x3d64100cbe18757eU, 0xbda242c7beb1781eU, 0x3dd2027cbe6672daU, 0x3d8ddbb13e31357dU,
  0xbd9fcc03bdc20eabU, 0xbee4f59b3d36e5c8U, 0x3d875c8dbcd6ec4dU, 0xbdfaeef33d9c3167U,
  0x3e1f66bebe22925dU, 0x3d11ec753e935f24U, 0x3e9773d8bdef4dddU, 0x3d26524b3dac0598U,
  0xbe2ad0c6bed1201eU, 0xbea79b94bde1b86dU, 0xbe69ffdfbdee814eU, 0xbea7404e3d0ed7f8U,
  0x3cae74a73e557130U, 0x3d1a38fd3d8c3ee2U, 0xbe0ba1163e3e0d62U, 0xbd4a08bebe4c7846U,
  0x3d665ab2bbeaeef5U, 0xbdb79ddf3e06892bU, 0x3d2527183d11a0e3U, 0x3cd80b013d9bc5b5U,
  0xbdbfa0bf3d32b97fU, 0xbe23c783beb728b5U, 0xbd8b8387be0949dfU, 0x3d4f0e963d8f5710U,
  0x3d6d88433de587e8U, 0x3df777c4bd9aaf4aU, 0x3d15fb513ea06ff6U, 0x3e390353bd9e998dU,
  0x3d9107fd3b71f820U, 0xbe28935dbe983f51U, 0x3e1a50ba3e5a1cd6U, 0x3c9ece59bd8a1f7aU,
  0xbdbe60153da08fb1U, 0xbe6865a23ae71245U, 0xbe52cddb3def9375U, 0xbe557d62be7d012aU,
  0xbc4a571bbddd84f2U, 0xbdc859adbdc6e625U, 0x3c171eb8bd69f064U, 0x3da429863dbd219cU,
  0xbe229951becd4968U, 0xbc850cd43e2572a3U, 0xbd2edae6bdc8edf6U, 0xbd713f91be715263U,
  0xbccf45edbd9a9265U, 0xbdb66d49bcc1fdf5U, 0x3c4ed73ebd1732f7U, 0x3de22774be53a010U,
  0x3df50381be293855U, 0xbd004886be97457eU, 0xbcaaa1dd3c351f65U, 0xbe41931bbafa8e41U,
  0x3c8a7d603e01270cU, 0xbe490dbf3dfded30U, 0xbdbda656bc7ef206U, 0x3d6610d13cd3060bU,
  0x3dbca6d83e570f2eU, 0x3eca10e3be4d3b70U, 0x3d6c22583dec5f2cU, 0xbca051023d3bb841U,
  0x3da60b0abd1abc9aU, 0x3dc13a91be321553U, 0x3e1bc98fbbe022e9U, 0xbe394e88be02ba8bU,
  0x3c8e2460becb5107U, 0x3a1066b73df07b65U, 0x3e0740803e8341c4U, 0xbd1c55e73d1b4b9bU,
  0x3bf366e83dd84556U, 0xbed56836be2c76beU, 0x3cf7ab2bbea32d34U, 0xbe6766cf3dcb2f03U,
  0xbe81bc2d3d0d703eU, 0x3e5b7479be2888f1U, 0xbdb7c846be431c79U, 0x3e04ae54bd5ca2e7U,
  0xbd8953a23dd4e275U, 0x3d6cb8f7bc5e3b56U, 0xbeb69e03bf0b502bU, 0xbe073b423e96ef13U,
  0xbe0ff8d0bea4210eU, 0x3e653aaabd8fb12cU, 0xbea2294f3e4278e0U, 0x3c2274eebd3b5789U,
  0x3e13075fbe872823U, 0x3dcf33a2be26539cU, 0x3c8c7641be3c5e5eU, 0xbe5394d5bddb330aU,
  0x3e168660bec906d0U, 0x3d2fad72be4105faU, 0xbe999b80be261540U, 0xbe6667d33da98111U,
  0x3bfd7405be95343cU, 0x3f1cbe563e34556cU, 0x3e74373f3ce20d42U, 0xbeb8a717be05e767U,
  0x3eace922be155f52U, 0x3bd7bb55bc47fcaaU, 0x3e44445dbcb03f5eU, 0x3bf3e2f6be743283U,
  0xbc45eb63be52ad0bU, 0xbe1aedc4bd688b28U, 0x3dd38173bde5f6a7U, 0x3e01cde63dd51650U,
  0x3ece8b9a3df827a0U, 0x3beff114bd92399eU, 0x3e483a6b3eca73f8U, 0xbd8b6b803db7ccf1U,
  0xbdab2b1a3e3b00e5U, 0xbdab1a72bd115b68U, 0x3e1f25353e3cf16dU, 0x3c03ba3d3d43732aU,
  0x3dadadc33e51835cU, 0x3e2e4ae8beb17508U, 0x3cf12b783e573a82U, 0x3e026897be9a87acU,
  0xbf01541f3ddb0cb0U, 0x3e83653abdd97c9dU, 0xbea3244cbebb1213U, 0x3e9da2afbdf3c0e7U,
  0xbdb88696bd2b122fU, 0xbd47e4993ceefda8U, 0x3de11793bda741b4U, 0x3da6c3473da4f435U,
  0xbe0adbbebe4616a9U, 0xbded282abe0b270dU, 0x3db1e176bddc18bfU, 0x3dbdfeb4be4f18c4U,
  0x3e2db9a4bd38f014U, 0x3e0822df3d935ea3U, 0x3dc09e743e163c25U, 0x3d825162bda9d54fU,
  0x3e1e5722be01a2cbU, 0x3e11ad65bd94429eU, 0xbe801b543df5c6b4U, 0x3d0b11a43c9369c1U,
  0x3d4763e03d7b125eU, 0xbd15260d3e5e5081U, 0xbb192e26bbc87dfdU, 0x3baa0a5d3e140509U,
  0x3d93a830bd75bb9bU, 0xbe98509ebe080991U, 0x3db3fa8bbd3d2616U, 0x3e08bb993dfaccd3U,
  0xbe25a626be6725b3U, 0x3e3bc8ae3d97937bU, 0xbd97cfdf3ba0fb00U, 0x3dca2595bd120892U,
  0xbe213857bc28d1afU, 0xbc11ea10bdd2cd0bU, 0x3e1e628bbe3a56c9U, 0xbe37c327bdea48c9U,
  0xbec654fa3e5d88ffU, 0x3d8fd4fcbe426b87U, 0x3e324c57be45da33U, 0xbe467e71bda430bfU,
  0x3e4d1e69be458712U, 0xbea272663da255ddU, 0xbd53e73e3e9754f8U, 0x3ded52923ebfb667U,
  0x3e773571be24910eU, 0xbe5b7f623d3bd3d1U, 0x3dd8a3c53e484235U, 0x3d14be76bd0db3f3U,
  0xbdf16eaf3df40ba5U, 0xbcb84c7b3ddc556bU, 0xbdb3a012bd9823e3U, 0x3cabc729bdf21b1fU,
  0x3da3b7c7bdc6dcebU, 0xbee337383db726ecU, 0x3e27fb343e3625d2U, 0xbde924943e67236dU,
  0xbd98827dbe588052U, 0xbea8f4783ce040f2U, 0xbe3f779b3d130cdaU, 0xbe3c4b2d3e5ff91fU,
  0xbdc8203cbe482e69U, 0x3c45a79abd52fec9U, 0xbbb1ce23be2abc50U, 0xbedef02abeaa2acbU,
  0xbd4bdff3bebd9b30U, 0x3d0a67afbed2f53eU, 0xbec3abef3ea00a2eU, 0xbf110dc23e4e839aU,
  0x3eb1b7e6be0107fcU, 0xbea809fc3de1e32dU, 0xbc5cc778be04fae7U, 0x3ef910093c31329aU,
  0xbe87bfa2bddc03aaU, 0x3efe33b23e8ad283U, 0xbdc05eaabcf8a325U, 0x3e2d24a8be7559e4U,
  0x3c43c27c3e4cfa60U, 0x3dcca1c0bcd11673U, 0xbe258671bdbbb943U, 0xbca5bb483d191567U,
  0xbca09643bde52b43U, 0xbde794e93c8e6522U, 0xbcf699a53e552e0fU, 0xbc2026943b6c0a35U,
  0x3e1bbf143d5fd63fU, 0xbe2283183c23e233U, 0xbe788f0f3d0a8419U, 0x3b22ea5d3e132ae7U,
  0x3d41d55cbd91d7eeU, 0x3e80c3ccbdd0c723U, 0x3e84b49dbeed8de8U, 0x3d9a76febcf15480U,
  0x3d31b63b3e3052d6U, 0x3d47c308be2257a3U, 0xbe5d53e23e97db46U, 0xbe231edebda3aba4U,
  0x3db6a1a23d748c28U, 0xbe3669d13e20a926U, 0x3e44d9e03d87d461U, 0xbd1ef4b43d8a7455U,
  0x3dd6eb1c3e04f8a4U, 0xbe0d139d3dd11462U, 0xbda14577bef01a6cU, 0x3e24353ebd9b4e4dU,
  0x3cde54233dc0bf49U, 0x3daa6fe13e071322U, 0xbe228fe43e04e090U, 0x3e64ea44bdb22957U,
  0xbe098e47be46b201U, 0xbe0fce2fbc178a4cU, 0xbd3403c8be411c8aU, 0x3e0a14913e50fc7dU,
  0x3e07f8863ecb7b41U, 0x3dc5c3943d24c58aU, 0x3f49e88bbe6755beU, 0x3ef6aa53bec1e507U,
  0x3f5abdb83f96a33dU, 0x3f3cee4a3f28787fU, 0x3d434b38bd8fa140U, 0xbe92eb153f1c9112U,
  0xbe4cbd783ee903c7U, 0xbd2c69f73d886bf6U, 0xbe9c453d3d5ec308U, 0x3e47e4243dcc0e29U,
  0xbd838f14bd63e1c7U, 0xbf0481363eb67ee9U, 0xbe0f69113ea23a95U, 0x3ed10026bd6ccb2dU,
  0x3ec803673e0b99edU, 0xbe746b31be9fc1d2U, 0xbe90873d3dfbd8fbU, 0x3d50795dbe3843b5U,
  0xbee4657bbe7c3b34U, 0x3de71bff3e20acf8U, 0x3d7251263e3f4ea8U, 0x3d8b5b483eb1e236U,
  0xbe5feacf3ea15661U, 0x3c6dec643e7b908fU, 0x3e381c07bdbcceebU, 0xbe3fb617bd472475U,
  0x3dbf22b9bf01a928U, 0x3dfafe57bc9eb12fU, 0x3e900e4f3ec8d411U, 0xbe5fc8fbbb468d7eU,
  0xbd560b953e5b6d35U, 0xbe12f586bedd91e2U, 0x3d690889bd3dda14U, 0xbc9d3cbc3e97203cU,
  0xbf0fdfbe3e3590a4U, 0xbe9e13f43ebaefb6U, 0x3ebd709b3eab8336U, 0x3e37acaf3e442aa6U,
  0x3e65683e3eb4ad59U, 0xbdb0ed0fbe9824efU, 0xbebf11e1bd96a8f9U, 0x3efe66823e65cdb3U,
  0x3f2a1fadbeb76dd9U, 0xbe2edd57bde1c362U, 0x3e79308b3eba0fedU, 0x3e754b5dbdf03842U,
  0x3cd830123dba425bU, 0xbe7e4e943e9dfdc7U, 0x3e9368163e47272eU, 0xbf01bc78be4c3fbbU,
  0x3ea26ecdbe7ce45eU, 0x3e8c6227be9af6c0U, 0x3d21e8163e28ea9bU, 0x3e0eaa6dbe658334U,
  0x3ebee036bebfac89U, 0x3e0d6146bf27ce8bU, 0x3e41cfb2bdfbc67dU, 0xbc3581f5bdba2b75U,
  0x3d7a40d93e84e5aaU, 0x3d7d12613ed5d938U, 0xbe50255fbe78c3e9U, 0x3eb65d723ed68f5dU,
  0x3e3629fe3e0fd054U, 0xbe32f83abe0ddf11U, 0xbe2dfadabd8eed1bU, 0x3dfcd2423e031c19U,
  0x3d06cdd0bdc6af00U, 0xbed1c76fbd429d7dU, 0x3e9bd8553e9d55a0U, 0xbe6b1fb4be7357e3U,
  0xbda07ae6be3fbe0dU, 0xbc0682aebdd65705U, 0xbe292963bdd4d28eU, 0xbdc5ea553e8c7d2cU,
  0x3d8e05173d1b475bU, 0xbe8847f7be9eb23eU, 0x3e1c942e3e967d2eU, 0x3eb65ee9be3d81d6U,
  0xbe4660bebd814e2dU, 0xbe23537d3c56a174U, 0x3e28b5453e443882U, 0x3e0ecc83be98a044U,
  0x3ea365c2bd343edbU, 0xbd5e9083be5b6e3eU, 0xbcff8fd6be4c6ea2U, 0x3d939dadbeb5c6d8U,
  0x3e07850c3e2cff05U, 0xbec42dd23e6d43f3U, 0xbeaba0e6be597235U, 0xbde466dd3dfe8e35U,
  0x3e4d43b4bdbd7790U, 0xbe21befb3e2132b4U, 0x3c4542f0bea3ecadU, 0xbe2246073e87eb8fU,
  0xbe23f06fbe953927U, 0x3e9ce9e9be203ba8U, 0x3e1679b53e11d5f2U, 0x3dbac7c43eca28efU,
  0x3d8c6a263e20666bU, 0xbe5b026abef00705U, 0xbdb9be8d3b8b9e91U, 0xbda9cdc7be1e67aaU,
  0xbe8620cdbdecda6dU, 0xbe71101a3ecf13daU, 0x3ec09b763e0c74b9U, 0xbdf5b7a4bd9353c2U,
  0x3d023c40bc8d8e9dU, 0x3ede7335bf0664b4U, 0x3e81cc063ecaa6f6U, 0xbd6cd2f7be2f3913U,
  0xbe514edcbe493742U, 0xbe97dc523da638b0U, 0x3e9a9dd13cffd282U, 0x3dc11fa53e2138f7U,
  0xbf12f8113f0314b3U, 0xbe858cb4be42d024U, 0xbe38b8cbbdcdc71dU, 0xbe3101e73e10dce3U,
  0xbd321e44be1792d0U, 0x3f0d49ad3a1edbfaU, 0x3e22b7953a9e663cU, 0x3e1b5f6f3ecadb53U,
  0xbec3cc953e9b3c8aU, 0x3e25bea8bd2b28c3U, 0xbdfa3ef9bc97f23bU, 0xbe06b1293dc4abd9U,
  0x3d2ff377bdb5a3fcU, 0xbec1964abe07bfcfU, 0xbe6a976c3e812f6eU, 0x3dde34a9bea0d8c3U,
  0x3da674a6be038177U, 0xbd38fa2ebdb7a4fbU, 0xbd8562fb3e83169bU, 0x3e733f6b3e0de28bU,
  0x3cff8464bbf496b3U, 0x3e34938b3e06f042U, 0xbdf796463d4722ecU, 0xbed6987c3e32cd0fU,
  0xbe44c8c03e48d6eeU, 0xbdd9d3c9be123ea5U, 0x3cc17f74bddc20f8U, 0xbe7ab0aabd7faa0eU,
  0xbda36be1bde32262U, 0xbd7faff43c634a49U, 0xbd8e5168be0c26e8U, 0x3d4ee4ebbe568666U,
  0xbe894a7bbdda6254U, 0x3e229800be6fb9b7U, 0xbdb878dfbe7657f0U, 0x3ec3dc2abdecdc3bU,
  0x3ebf07a33cee736cU, 0x3da6d044bece5a09U, 0x3e125a91bedcc42aU, 0x3da3c0413ecd9476U,
  0xbe8b8ad53e9689ffU, 0xbdbbde7e3dabe796U, 0x3e35391b3eb060ebU, 0x3d8ec4423e8c7135U,
  0x3d15e39e3eac1746U, 0x3d5702c63df4c582U, 0xbde42adcbf04b1a1U, 0x3ee21e503de0e48fU,
  0x3dc7eaa6becf5975U, 0xbc5065e5bde5c1efU, 0xbd93cc4f3de88aedU, 0x3ea8a2fdbe8d3726U,
  0x3c9e8a7d3eeddf6aU, 0x3e3f9b8c3eda6ed2U, 0x3df852353d30a5fbU, 0xbeb1d1053cbece4aU,
  0xbe6017f3bd0ace74U, 0x3ec5a393bcf0fa3cU, 0x3e28a9343ef644baU, 0x3e817d28bed6c234U,
  0x3f0073ddbd29b263U, 0x3ec5c297bf07f94cU, 0xbd881876be4fbf9aU, 0xbea40cbf3c6f8dceU,
  0x3ea73f2b3e3821a1U, 0xbea48d703e2fc821U, 0x3d948038be890529U, 0x3e8377bc3f1f380aU,
  0xbee372383f0fd791U, 0x3e275819bec88c91U, 0xbebb9579be908660U, 0x3ea974ce3d37538aU,
  0x3e713c56bc878477U, 0xbf2ba04b3f11ad92U, 0x3ea2bec43f00f991U, 0xbe94c7c23ee34822U,
  0xbca43f873b33d6cbU, 0xbe8b54853e93c795U, 0x3e800a9e3dd3620aU, 0xbeadf081bf48147eU,
  0x3eae6243bd2a663bU, 0x3ec18952bc9d7be1U, 0x3f14aa963e884a24U, 0x3e5bc5c4beb0c626U,
  0x3ea5d917be07152dU, 0x3d7083d6bf0954dbU, 0x3e64c83c3d16656bU, 0x3c30b250be26e177U,
  0xbdf634283dfc1f35U, 0xbd2421f43dde273dU, 0x3f0c01b23e3ebcfbU, 0xbe39b4053f19b087U,
  0x3e4ad8a53d9386ffU, 0xbe56a97dbefa6811U, 0xbee5591e3e683481U, 0x3e6572abbdb4856fU,
  0x3c720e8abe7c726bU, 0xbee069d7be3bea08U, 0x3efb04833eaea68dU, 0x3d5872ae3ec8828dU,
  0xbd6f31e9bc3fc252U, 0x3e0e0d003f13b63dU, 0x3eec3b7cbf355d65U, 0xbd496511beb2dcc0U,
  0x3d3b9762be24547dU, 0x3c41669a3d6e67baU, 0xbdf3cbcc3e9811d5U, 0x3d8513d3be08afcbU,
  0xbdadbe63be5932d5U, 0x3ddf3826bd17245dU, 0x3e1f8e5e3d080f58U, 0x3dbaf95e3bae10d9U,
  0x3e7244813d91f775U, 0xbc1d658ebdaf209bU, 0x3ceeefd53d767048U, 0xbd95d5303c43936dU,
  0x3b873bcbbd79dc9dU, 0xbd9b5d39bdbe6940U, 0x3d45e75bbda377e2U, 0xbda7947d3d12127eU,
  0xbdffb0333d6fc142U, 0xbd36824c3e2ed8a2U, 0x3e59848ebe07bee5U, 0xbd8c317fbd74a6ceU,
  0x3dddd80fbe5eaa77U, 0x3d4ac05fbbe6244bU, 0x3dd4365a3d0462eeU, 0x3c9948183e1702f8U,
  0x3e0b2707bda12e5dU, 0xbd0c75edbe270930U, 0x3e44566e3d9d9f1eU, 0xbdb22671bceeb7bcU,
  0x3df9f5e43c570e6bU, 0xbd9e505a3ca58f07U, 0xbe3adb833dba5482U, 0xbcadc7d3be22ebb1U,
  0x3e58a74bbd7133bfU, 0x3d3f1c723ea61455U, 0xbe32138ebd6b1991U, 0xbde341713e0bd9a2U,
  0x3dd71c18bd8e4cabU, 0xbddba4c4be382b15U, 0xbcefa3a5bc6bec2cU, 0xbd844ccbbe1d92f3U,
  0xbe6d11d33d005ccbU, 0x3d3bd9bb3d6ad4dfU, 0x3de570f83e0f806dU, 0x3d8e4424bc2f22f0U,
  0xbe366eacbdd33d03U, 0xbe1c094fbdb7c0bdU, 0x3e323042bd22af5cU, 0x3d07f2c4bdaccdcbU,
  0x3dbfc121beb507d5U, 0xbd5268f8bdd8a77cU, 0x3cc76df93de7f1cbU, 0x3e1e56dfbe9ec0b0U,
  0x3d3ccc403d65454eU, 0x3ddb7a1f3c72c054U, 0xbe0b7c123d8279dcU, 0x3bfc196e3e16e5a7U,
  0xbcbbd581bdf1f5bfU, 0xbe8998ac3dde769fU, 0x3e1355bb3dd34ae9U, 0x3c8a3b33bc2f7a05U,
  0xbd142ac2be5cb239U, 0xbe5656f7bdd2fff3U, 0xbcc22071be85dcbdU, 0xbd4141babdd9f327U,
  0xbe5abe8bbdc0ee27U, 0xbdc491e3be26e20cU, 0xbe15d195bdd994a7U, 0x3e1785083d45bc2dU,
  0xbea1672f3c16621aU, 0xbe1bb2e0be4e3acdU, 0x3d3e9e18bdc37858U, 0x3dc85ccf3ddf4305U,
  0x3e84d3d2bda8c452U, 0xbd6834dcbe4a9da1U, 0xbdcee7bfbe5ab59aU, 0x3da2403fbe330b96U,
  0xbde2ff3e3eaa2190U, 0xb6a89415be0f805fU, 0xbec6f8193e934494U, 0x3d935716bd02700cU,
  0xbdbc1e45bdf76f42U, 0xbef45a943e969db2U, 0xbed0619f3e90d43aU, 0x3db4f085bdcca659U,
  0x3c62e7eb3f077047U, 0xbcaa3e28bcafb64fU, 0x3cad0367bd348d2eU, 0xbdbbd9e83d867396U,
  0xbdfada08be7908abU, 0xbda8f27ebe14ae15U, 0x3dc8a2143dae412eU, 0x3e30a18b3ec22ac1U,
  0xbe76a5073ed1d628U, 0xbe2c74343d331cbbU, 0x3e8dc062be029058U, 0xbe70fd79bdeca2afU,
  0x3e54da8cbed0237fU, 0x3ddb23f53e3d90b7U, 0x3eac11513f18cf2aU, 0x3ce5dcf1bf03e383U,
  0xbdc99fb93e96b1bcU, 0x3ed72d76beb83628U, 0xbe9143a5be296349U, 0x3eb9bacd3e1e4544U,
  0xbe7e6d633eafa658U, 0xbecadb813ef03232U, 0x3ef7a49c3f08e2d6U, 0xbdd02bfb3e64b8dfU,
  0xbe26a1113ebf9476U, 0x3e95f5613cc1b875U, 0xbdf8d0a1be65707bU, 0x3dcfee24be7d2526U,
  0x3eae821ebeebfe44U, 0x3d830cb1bddb69e6U, 0x3f0d13c83ecf7c75U, 0x3edac6dbbeebc64bU,
  0x3e0838263e4496fcU, 0xbf273c9bbdad1371U, 0x3e2c98823eafbb34U, 0xbe5560bfbc310a41U,
  0x3f4c11d6be9d1130U, 0x3e4e7fc4bd9a01adU, 0x3e90e4d03dd347eaU, 0xbe5290a7bec40461U,
  0x3e86e5f6be87b802U, 0x3d5ce71cbe48167bU, 0xbdba262cbdb61a7eU, 0x3e9491cf3e2bca71U,
  0xbe3f008abc42d91cU, 0xbd9dddea3eeaf083U, 0x3e06903bbd40bd6dU, 0x3d3f16223e5bb1e0U,
  0x3e0f18363e742b57U, 0xbecffcc3bdd86fe8U, 0xbe6a19b2be1583ecU, 0x3e2f876e3ea5cc63U,
  0x3c6e50da3d604ad8U, 0xbedeafa1bd892309U, 0x3ef4c1f53f08600aU, 0xbdfbb94fbea4178bU,
  0x3e6569c6bf0a6adeU, 0xbe85ca2c3e8173d1U, 0x3e9d45d93dd632ddU, 0xbe91ea723d1cc18dU,
  0x3c95c5abbeb50d66U, 0xbe380e7bbe60e10bU, 0x3e884a573f35aa03U, 0x3f09f671bea51a9dU,
  0x3ce4705ebeb2cb0eU, 0xbea69e783e7da37aU, 0xbe29f6e2bedb0c15U, 0xbdf14678bd50b3adU,
  0xbd263602bd704ae7U, 0x3e9db5dbbeee3c96U, 0xbdfe1c013e2d0996U, 0xbee029d03df31babU,
  0x3e0ffda33e2bf50dU, 0xbe3fcadabe2fe070U, 0x3ec8741a3ea1a828U, 0x3e049a57bc811450U,
  0x3dfa2822be7faa24U, 0x3d9d8ed3beb68c73U, 0x3e5d791dbeb318fdU, 0x3e8632d0bd85a990U,
  0x3dc8e63e3eda0eb5U, 0x3dfce3933d4b1feaU, 0xbe1f1d3abe3a56d0U, 0xbd886c06bd88840cU,
  0x3e1f20793e200f68U, 0xbea2a0a4bd5914e5U, 0x3c15dcf53e4f6c54U, 0xbe6e7bea3dfe4848U,
  0x3e2a7a07bd46d427U, 0xbf773c313ed51a74U, 0x3ea24b983ec5258dU, 0x3db54a2bbecbf43aU,
  0xbec25c5dbe83306cU, 0x3ead35dfbf0f95cbU, 0x3da28e683d9df5d0U, 0x3e8988f4be9d244bU,
  0x3e36dbdf3e6335ffU, 0x3f2020e6bc5f3279U, 0x3e334f913f03e067U, 0xbe4e82ee3e48b447U,
  0xbe8fee6e3ebf281bU, 0x3e6cebc5bc97dbffU, 0xbd9990693d246acbU, 0xbe92698a3dd811ebU,
  0xbe55d5e53e7660dbU, 0xbe2221d8bd981c31U, 0xbf29cf573dd36ccbU, 0x3f0c5e7a3ed95f8eU,
  0xbd1407753e55e87cU, 0xbe6c01c5bec40c41U, 0xbeb614b0be42b81bU, 0x3e4ff8c23f2bd7beU,
  0xbe69e4453f1417cbU, 0xbe8193cd3df7905eU, 0x3ea3c5653e27d541U, 0xbe92dbf6bf776ea3U,
  0x3ddb2dd93cf797c5U, 0x3e73d387be8c2b17U, 0xbe189a123d64bc53U, 0xbea07dfc3e938680U,
  0x3e9e8c433db0e2e1U, 0x3ebc8f6f3d82667eU, 0xbe635b76bebb301aU, 0xbf1b97a93e9bddd4U,
  0x3b38d069bde52658U, 0xbe99a4de3dc42a96U, 0x3ddf6c183e464014U, 0x3e9352323db89260U,
  0xbea305e63e9e7ff8U, 0xbe8e07ab3be77669U, 0x3df7b5d7be95d0dfU, 0x3e22f8e2be99558bU,
  0xbe978ef7bd9f6fbeU, 0x3e80394cbce2e2e0U, 0xbde1333bbed479e9U, 0x3d4efb46bc809070U,
  0x3e1ac0ccbe9a9525U, 0xbc5289903e3a50d5U, 0x3ebad6143ea241e0U, 0xbe50627ebd0b2c3bU,
  0x3d826431bd66a539U, 0xbe53e5123eb2b89eU, 0x3e1095b2be6302e9U, 0xbe13f280be87f47eU,
  0xbd731114be882370U, 0xbd62feeebe873f6eU, 0xbe65738c3c2db66bU, 0x3e3138d13ea2e715U,
  0xbe2654b83e9d811eU, 0x3e4aeea9bda987eaU, 0xbe74cef03ba15a53U, 0x3cbaf2ae3de5634cU,
  0xbee80971bd87d9cbU, 0xbd64c079bec875dcU, 0xbd3446f53db87c61U, 0x3ecf7853bdf2b697U,
  0xbe327c703de7a93eU, 0xbf0871b53e8e0e67U, 0xbe74bd86be77b9f9U, 0x3e550136be354c71U,
  0xbeb00fd93e0ca6c7U, 0xbea00c4cbe8349e1U, 0xbd529e2d3eaaefe2U, 0xbe447cf2be43013dU,
  0x3e9dbf2a3e94cffeU, 0xbd8fb069bf3ee5a3U, 0x3d2c9b92be8327ebU, 0xbe18af9bbe38a4d9U,
  0x3dc37173be2043d8U, 0xbcab69323e9321e4U, 0x3c926ac93ec33447U, 0x3df4a0e83eb8c33cU,
  0xbea038393e5bcbacU, 0xbded7b2a3e4b07dbU, 0x3e94799a3dd4c208U, 0xbe611554bda8022aU,
  0xbd2bda19beb4eba4U, 0x3e721654bd319419U, 0x3ee66d2ebdc0db6fU, 0x3ea98adabe58739aU,
  0x3df8cdbf3e0eba13U, 0xbe3b9cddbe769b2cU, 0x3d27facdbcbe6c15U, 0xbe491c30bc39dcccU,
  0x3dd40b31be881439U, 0xbe1290b43e869202U, 0x3e904d573e21fe71U, 0xbd7c0445be515b6bU,
  0x3c7bd0e93ea36f42U, 0x3e067ef5bf11d2beU, 0xbd80ad983df34525U, 0x3e07592bbd8cb15aU,
  0x3d9e3bf8be34e9e8U, 0xbe9d6705bddb46fcU, 0xbd94218c3e7e7ac2U, 0x3e816afc3e21f5cfU,
  0xbe89ee353e87ea4eU, 0xbec8b5e2bde39813U, 0x3bb34dd3bd9cad60U, 0xbd80589d3e2bca9aU,
  0x3dbc220dbe63161dU, 0x3eb4a352bda5486aU, 0x3d28f04b3cc49f80U, 0xbe18bd5e3e06cd98U,
  0x3e0cd1b4be8e8ff1U, 0x3e433041be7409feU, 0x3e6ae770be78fd78U, 0x3d03d5a1bdae59b4U,
  0x3e2c1313be38c94cU, 0xbdb04305be949165U, 0xbedba0b7be8649a5U, 0x3e3847aa3dc2d89aU,
  0xbc5d632f3bcae65aU, 0xbdf7b0193eb32b7eU, 0x3dcd6573bd1f15b4U, 0x3e1eff4a3ec93fa5U,
  0xbe62582c3e65336cU, 0x3e15478f3f106f19U, 0xbee19a42be2cafaaU, 0xbd1c07453e859e61U,
  0x3e31b1f9bdcf9572U, 0xbe1d2d06bd8823ffU, 0xbd3dbe943e865fb7U, 0x3cd79c41bcdbba73U,
  0x3def7e4dbb92931dU, 0xbedbfb78bda9eb4eU, 0xbde44ea1be4bf0d1U, 0xbd5199583c846fe1U,
  0xbbcc64d1bd03de6bU, 0x3f054c553eb337c4U, 0x3eeb4ae4bdcdac28U, 0xbd9d920c3e1b8ba4U,
  0xbddd05a83ef5eabfU, 0x3f375d623d9c6db0U, 0xbf25322abf145829U, 0x3df2b85a3eba80f1U,
  0x3e2f8d5e3e877e93U, 0xbeb8b72b3f1e6be0U, 0x3f2cb0ed3f049461U, 0xbe8317d23bbf4b05U,
  0x3f1432b83f0be9c3U, 0xb9e816cd3e4dce3fU, 0xbe9616cd3beabd78U, 0x3eb07800be27fa4aU,
  0x3def97e33e202d70U, 0xbebc8f5a3f0a8369U, 0x3e9845183cfb9de6U, 0x3da13f643ead3595U,
  0xbe8fbec9be4fd0d6U, 0xbefa55f7be0aa491U, 0xbe8f9ecc3ed9e935U, 0xbe804d98beaa9345U,
  0x3ee17cecbe98e187U, 0x3eab0b17be152aa1U, 0x3f592d353f3425b9U, 0x3f3a4926bf1897afU,
  0xbd8ca4e5bcebe141U, 0x3d40278d3d39403eU, 0xbe2cfa0cbcc4c59cU, 0xbaced1283e905a0bU,
  0x3e5dbc50bd4e4595U, 0xbeb38ed53eae0026U, 0x3e95eeb4bbc00386U, 0x3ec89e3f3ea5d147U,
  0xbda3b34abe72c665U, 0x3e73a3eabee581f9U, 0xbdf4a6a3bf2fbb12U, 0x3d60b01ebd204a42U,
  0xbd2bbf2cbe8ebd32U, 0xbea426eb3e91fa0eU, 0x3e07a7dd3ecf9530U, 0x3de594febe2db9e2U,
  0x3e91a03d3e697d38U, 0xbecdf76c3d651c77U, 0x3e1a45ec3e459e4eU, 0xbee38952bc903e3cU,
  0x3f475274be37ae32U, 0xbd8eed593dc00dccU, 0x3eb0504c3e9b5769U, 0x3c9207f6bd633a16U,
  0xbc618621bc141635U, 0x3dc6f82b3d5c6edeU, 0xbd67a78f3db8bbc2U, 0xbd2e865c3d2a55dfU,
  0x3e815b903e112170U, 0xbd10f9e83d89c49dU, 0x3d9b6f4ebe9bf357U, 0xbd42fc2fbe00a488U,
  0xbe8ebc37be65d3daU, 0xbe890a3d3d84ce8fU, 0x3de49c353dec9b7bU, 0xbdbe588ebd91ea20U,
  0xbee00436bbb2cc76U, 0xbcf97489bd286d95U, 0xbe85c5babe18ea89U, 0xbe2ea6a1be1696c6U,
  0x3e45488fbe02bc98U, 0x3e93336ebd9bc81eU, 0x3e47fbccbec510acU, 0xbcb67e1dbdf3f919U,
  0xbe3e5990bc7a4b64U, 0x3e375c6c3c78dcd4U, 0xbe95be66bd4700e2U, 0xbd66db6b3cb8430cU,
  0x3ecebf153db609dfU, 0x3e5e78d73e4e3f35U, 0xbf054a323e4631acU, 0xbe7621913dec2b60U,
  0x3e439956bdf357caU, 0x3e42796bbce8fc25U, 0xbd5f4b043e4c9133U, 0x3dcc35e1be4ffc0cU,
  0xbdd232dcbd8855eaU, 0x3d87bf79be889f90U, 0x3e8152d2be9f15b4U, 0x3e0d7f6d3d978120U,
  0xbbfb7933bea96d19U, 0x3cb611873eba37a5U, 0xbe6c9860bd1392c5U, 0xbe911e333dcae460U,
  0x3e408398bd35371bU, 0xbd79aaff3e5686c2U, 0x3ecaf1c9be343451U, 0xbebc5403be5eb59bU,
  0x3e72e1203d934aacU, 0x3ee3fd2fbdb95136U, 0xbd21b5843dae71aaU, 0xbda449bc3cbf8aeeU,
  0xbcab25513da403c5U, 0x3e0d80a43de71780U, 0xbf0c398bbe813d82U, 0x3db7fff23e3c0a2fU,
  0xbcb027cbbe353bb6U, 0x3db85b353e8aa0b1U, 0x3e8941c73da00529U, 0x3d41c60abe6cd295U,
  0xbd56b28ebea26b9cU, 0xbe9cb8b03dde425fU, 0x3c3efb67bf0de175U, 0x3e34988b3d061016U,
  0xbddbd695bca50c58U, 0x3cbbc1203e9ff424U, 0x3dd43e1f3e8128f1U, 0x3d1b245ebd94ce70U,
  0xbe2a9743be904e60U, 0xbe0814303ecb688aU, 0x3e75f98dbf1e31cfU, 0xbf10619cbe8fe98aU,
  0x3e8e94543e0fc52fU, 0x3e9e58d6be8e1333U, 0xbe99f2103ea673c0U, 0x3cb4a3c73c1b46fdU,
  0xbe4c0dc93e14f6aeU, 0x3e2c13aebe8c6ec0U, 0x3b1889fe3c84ce21U, 0x3eb4c1583e7eacbeU,
  0xbe9795a73d350588U, 0xbea37e903e9cacc4U, 0x3e731929bd832ce1U, 0x3e7624cd3e97821eU,
  0x3dc12ca63defc0dcU, 0xbe5eb5f4bdb3a75eU, 0xbedbe8393e0e2d2bU, 0x3eab30f4be2daeedU,
  0xbdb97fc7be33471cU, 0x3dab32cdbe7c225aU, 0x3ea28290bad5ddb2U, 0xbdae98b13e166bd9U,
  0xbd3c65193e8f0257U, 0xbe5640373e070251U, 0x3e1858f7be531fdeU, 0xbe8ebf533d9d4c96U,
  0x3e075679be82a17eU, 0x3eabc088be45f7a3U, 0xbcdec2843e4eb458U, 0x3d7beee4be68105dU,
  0x3e69d7ce3eb6b81fU, 0x3f2d2cacbf3ee698U, 0x3e5d0c14bee800adU, 0x3e5300a13e5bb45cU,
  0xbd700c473e871094U, 0xbdf0c5f73ecc7711U, 0x3eddea833e96749bU, 0x3c7e4eef3e90c474U,
  0x3eb4c18c3c82c0cdU, 0x3eae026dbec41ae8U, 0xbe06fe29beb6a44bU, 0x3e1307a8bc960babU,
  0x3eae81213e1f8331U, 0xbdc99aa43e933883U, 0x3ebd56323e83dfdfU, 0x3e4cd0debd8e200bU,
  0x3ec17b37be42744aU, 0xbe8789233e5c592aU, 0x3da686a2bda577ecU, 0xbe98c23dbd21adc6U,
  0x3e4359e1be943566U, 0x3e9b2c8d3d1917d9U, 0x3f1e01ed3ec94e2bU, 0x3e0316543d13fdfaU,
  0x3e88e5efbe2249f4U, 0x3a4741c8bed46b57U, 0x3e71a89a3ca0a7a7U, 0xbe938f72be6d6503U,
  0xbec4c24b3ce3b4d9U, 0xbe934b1f3ea0a31dU, 0xbe73f3c73dd1db79U, 0x3e947e433eecca84U,
  0xbe3ed2f63e603251U, 0x3ef3cec0be172927U, 0xbdf5ed9bbf017552U, 0x3df349dcbe2a48f3U,
  0x3e0fb7773c91369fU, 0xbdf846833ee5a14eU, 0xbd433ff1bd69da3cU, 0xbde3ca993cad020fU,
  0x3ebcb2d5bd7e3cd4U, 0x3e553082bdb21935U, 0x3e5deac7bc422c8bU, 0xbe1612c1bd517d33U,
  0x3ee946703eda592aU, 0xbe9026cfbe12ca85U, 0x3e4ab0eabe9f849eU, 0xbddcdb0e3e5b0768U,
  0xbe0dccce3ea0d7cbU, 0x3e09c5dd3e32a3e7U, 0xbe7bb1413d379db6U, 0x3d49fc743e4f74b8U,
  0x3e3d6855be3fad2eU, 0xbe0d6989be87320eU, 0x39bd10cabdb7ef5eU, 0x3cd906dfbe30cbf2U,
  0x3ee43ce1bd95a7a3U, 0xbeec9455beb086c3U, 0xbe42d3ef3d0da8dbU, 0x3ea8d4b03e0a54bdU,
  0xbd3305143e6408ecU, 0x3df3b7253e279099U, 0x3e4966233e9eee97U, 0x3e91c2f6bd978a46U,
  0xbe4f61f13e002beaU, 0xbecccc8f3ed2c4c0U, 0xbdd29647bed7666bU, 0xbe9ee1923e0ab426U,
  0xbe692df8bf0b2a6fU, 0x3f13f18a3d435b66U, 0xbdf70ba23ec18e0cU, 0x3df697febe8f7c56U,
  0x3ded7ec93f142d2aU, 0x3ee7b80a3d84886fU, 0xbe7282943bceea92U, 0xbe2b54463dedc4eaU,
  0xbf151bf43dd2ceb8U, 0xbeba2da63ed9d799U, 0x3ed1d04f3df8f401U, 0x3d901f343ecc0618U,
  0x3eb2963f3e7a4893U, 0x3d8fb512bf1ea178U, 0xbe99b999bdf2b561U, 0x3ec2e038bdca1dc6U,
  0x3f103df1be4a75dcU, 0xbecb2a343d5f8b4fU, 0x3e9844cd3e0b4190U, 0x3f09ba62be15b3c8U,
  0x3e0793623e916985U, 0xbdac1a323df23df4U, 0x3f1af4b03e90a928U, 0xbf0b2bb7bf0df83eU,
  0x3f1e36d23e13f09fU, 0xbe7c4a25befad006U, 0x3e4dc61cbe260c29U, 0x3c45600a3d5f18bbU,
  0x3eb1dd79bce1cec2U, 0x3c573582bf2724c5U, 0x3d960cecbe6040abU, 0x3dc3723bbe45661bU,
  0xbe1cbfb53e87bd87U, 0xbec286243f265d95U, 0x3e8d0f463e5e680bU, 0x3f0c2baa3e026183U,
  0x3eb8cb753ea4e649U, 0xbea84f6dbe5cdd63U, 0xbb63396f3d683788U, 0x3ddeb53abda9188eU,
  0x3df900bfbea34c5eU, 0xbf39ddb03e0f190eU, 0x3edad8653ec79157U, 0xbe1e5326be05f79dU,
  0x3e83720a3b662cd5U, 0x3da9abbbbe5c1de6U, 0x3e00206d3ce7a4b4U, 0xbe6dc561bc944554U,
  0xbde63b0abe2248deU, 0x3cd2c431bf2a51e3U, 0x3ea6943d3ef4462dU, 0x3ed8c430be6cf714U,
  0xbe31fee93cbdde6cU, 0xbdfe61fdbde93a03U, 0x3e8b1ac63e3a8788U, 0x3e0157793d0ba621U,
  0x3f06da543c2c60d7U, 0xbcac657b3e724696U, 0xbe226577beb7e990U, 0x3ce04a1abe41fa27U,
  0x3cf84e2ebdf29864U, 0xbe8b9a143cc97969U, 0xbd9c1a34be9f9432U, 0xbe3fa9c8bdc4e3beU,
  0x3de815053dda3103U, 0xbdc92c673ecbfeb5U, 0x3e8261ffbed45c64U, 0xbc984ce33e73c87cU,
  0x3e81f911beaa9f76U, 0xbea5db7ebe8cdab3U, 0x3e395d5d3e3e1361U, 0xbd3dd8f83d750252U,
  0xbdab22373e1221e4U, 0x3dd50dbe3de25272U, 0xbea734e6be28f26fU, 0xbea47b533e13ebebU,
  0xbf00d260bcc666efU, 0xbe7df9c93ed8b41fU, 0x3f04f8383e48ffbdU, 0xbc92d855be207f53U,
  0x3c5e3ed43c30132aU, 0x3d8654c5bea9e8c5U, 0x3eb91de33e5cef9aU, 0x3e1d06ccbe686d82U,
  0xbeaa3b07be758ccbU, 0x3daa13c43df82ae7U, 0xbe4848bb3de25afaU, 0xbe58a4963cdf038dU,
  0xbecd8c093ef62552U, 0x3d65761e3e8cea58U, 0x3e9d8be3be38b255U, 0xbe0e95dcbe17efd3U,
  0xbeb20dea3e01d6b2U, 0x3e05f6ca3c445bd4U, 0x3efeb80f3f011f84U, 0x3c9f42c93ebeebcbU,
  0xbea3035a3f00fa94U, 0xbf021824bd94ebd6U, 0xbeddb208be08560bU, 0x3d90f2bb3d956e31U,
  0xbf2d805abd5f3db1U, 0xbd50ba95bc026fc3U, 0x3ef6de2ebdfa8867U, 0x3ddef191bec35526U,
  0x3ebe96f13e4b06a2U, 0xbe943981bf320ef2U, 0xbf0e2e4cbebc77bfU, 0x3dfc075c3c05ab95U,
  0xbe18ea1a3e3f565aU, 0x3c41df083c944d8dU, 0xbeaa69a9bd734beeU, 0xbe2217b33de6b370U,
  0xbf1c04bcbc0847f1U, 0xbeb8ffbc3ed908d9U, 0x3e77b7073da31df1U, 0x3e133ce43c576c35U,
  0x3e3b6d41be90a776U, 0xbe8324103e67ddcaU, 0x3e049cb33ecefe70U, 0x3dd625ea3e8cce19U,
  0xbe8ba37fbe70283eU, 0xbeb4de2c3e10c696U, 0xbe2dffccbec0d943U, 0x3c450b54becb1441U,
  0x3e7db9643e222510U, 0x3f488ba63e82cea8U, 0x3bee3e10be06c7a3U, 0xbe2dfe463e3d397bU,
  0xbea78cad3d13a9eaU, 0x3cd2a06e3ef5188dU, 0xbed4cfbc3e252ea3U, 0xbc5837703ed9a3d9U,
  0xbe6a42563e636f57U, 0x3e32f1f83ebeb4a2U, 0x3eb3e884bf206b2bU, 0x3e5dca74be632dacU,
  0x3dae801cbe557d82U, 0xbe3daa833db75ffbU, 0x3e682eba3d87cbc6U, 0xbe95296ebe9372efU,
  0x3f358b3b3e43f8a7U, 0xbdabbeafbeb03038U, 0xbd3ae3af3ed2b487U, 0xbf32928dbd8d3137U,
  0x3dbd70943ea97db1U, 0xbd8898873d727dc1U, 0x3f32967fbe29f4b0U, 0xbe3580513df5e8c4U,
  0x3ef1ab9cbcab3999U, 0x3dff12e1bdcfa88eU, 0xbef9c6f5be5eeaceU, 0x3e842e613e732984U,
  0x3f22cf81bec3ad9dU, 0xbdeaaf413e787382U, 0x3cbe52753e7428f5U, 0x3df6588f3e416340U,
  0xbe7edf513e900a6fU, 0xbd0c879d3ef8eef1U, 0xbd8dbc9bbd895f1eU, 0x3de0dfa73e0700a4U,
  0xbe9ce3c3bea2619bU, 0xbd88c50e3eafd331U, 0x3e4017dc3f225958U, 0xbda6a9a0be608308U,
  0xbd950cd63e14586cU, 0xbe6af4e4bdedec25U, 0x3ef4bf4fbca58db3U, 0x3d18cc96bf0392e7U,
  0x3f67c34bbf473b6bU, 0x3e244f1dbea5ab08U, 0x3ed72f783f1a0b5dU, 0x3f37a012bf0507c3U,
  0xbd4077903dab4c2eU, 0x3ea033223dc29ca6U, 0xbf4fe3d1bdc08de5U, 0x3ea864fd3e70343eU,
  0x3e85b7a0be8d3b90U, 0xbe885d033e8f7538U, 0x3e1fa90b3e95f629U, 0x3e8845d6bedb9f33U,
  0x3e89b78f3c9e2fbaU, 0xbe6176993e60550bU, 0x3e0d6fd5beb6f844U, 0xbdca4e38bebc714dU,
  0x3d187f42bdbc690fU, 0xbe900613bd42ce27U, 0x3ec613203e7f85c0U, 0x3eb277f8be19bea1U,
  0xbec70298be18a0ddU, 0xbf443af1be45923eU, 0xbcd4a04dbe1e7af8U, 0xbdc143aabc88e892U,
  0x3f1c638fbeb44417U, 0x3f0a6488beb55bd7U, 0x3e305d2b3f4f8ae8U, 0x3f0acfd1bf0a5f62U,
  0x3ee3818ebe6abdabU, 0xbf0b57c73e0461adU, 0x3eab72823e05265aU, 0xbde0960dbe190a0eU,
  0x3f02d664be0c4eb7U, 0x3dd7cc3ebec0d8dfU, 0x3f0132b13e929e66U, 0xbc80165dbeef911aU,
  0xbdc0fb7dbeb7f4c6U, 0x3e919deabe7d1f89U, 0xbec706aebe7fbcceU, 0x3e4de2a43dccc62eU,
  0x3e0a578c3e4f6408U, 0xbe560133bdacfa47U, 0x3e2f6bb2bebf7951U, 0xbe1949e43e5b6b3aU,
  0xbd9bc9263e744aafU, 0x3dd44704be1ddad8U, 0x3d1494053e70e2f6U, 0xbca141fa3e253b4bU,
  0xbe4d737fbec0924dU, 0xbe976e2bbde1ed2aU, 0xbd0c95fb3e04063bU, 0x3e6c3a7bbe277e73U,
  0xbe961028be21c818U, 0xbea1bdbe3eb28e5dU, 0x3f3bae643f2f7027U, 0x3cde620f3c70462aU,
  0x3cc52d8a3e66313eU, 0x3ec11fb1bf18e1afU, 0x3ea895553c3afbd1U, 0x3e4317fcbe807caeU,
  0xbe3f292e3bcb87baU, 0xbea13b6a3e858825U, 0xbe45fdf3bd4243efU, 0xbecea755bc974e41U,
  0xbdb568913ea9c466U, 0xbd80ddfabe7d5efbU, 0xbeb0940fbea7e63fU, 0xbda6da163cc30312U,
  0xbed342373e3916eeU, 0x3e44d654bdc96de4U, 0xbe34c7843f20b0d3U, 0x3f05944a3eba32aaU,
  0xbe1efa4e3ec57137U, 0xbe97e7b6bd9022bbU, 0x3d8cd5dc3c660649U, 0x3d60c92c3efb11beU,
  0xbd2f3d1fbeafe852U, 0x3dd0398c3ec5e338U, 0x3e333c9dbdd0352dU, 0xbebbe3c0bec98956U,
  0xbd80bb0d3e72cdfcU, 0x3eb258d2be1c5b3bU, 0xbdc936fdbcedb2ebU, 0x3d31d7ec3aadea36U,
  0xbdc287f8bdf755e4U, 0xbe80702c3e891a7cU, 0x3e973013be08dbecU, 0xbdc520cabcb3ec9bU,
  0xbead26a9bcb01521U, 0x3d09be2fbe247bb7U, 0xbe833988bd1dbb02U, 0xbd84ebe33dd4ffd2U,
  0xbe3a931dbe2cbb4cU, 0x3e8f2d6abeafd75cU, 0xbd17cf313e0d8053U, 0x3ed085333e3b6501U,
  0xbf2323e73ddf5fa2U, 0x3e7eec313d8f23ccU, 0x3ca7e246be0a6afdU, 0x3e7bb9a83e95df29U,
  0xbedb4915bdfd26d6U, 0x3ea5265c3d8a6595U, 0xbd56cb6ebd6fe0a9U, 0xbe8e7768be0d2cddU,
  0xbea09be1bdc396feU, 0xbe4ba7c03ee6bfc1U, 0xbeaa5f043ce16af5U, 0xbdf521eabe87ea58U,
  0x3f00b6173e6788efU, 0x3e5dcf453e6aa061U, 0x3cb81910bf082bd9U, 0x3e1ca8a8bd653d5eU,
  0x3e94c97abdcbd8feU, 0x3d01c96e3e95ee78U, 0x3e7cf6623e5dd905U, 0x3e2edcfbbe9a4b6eU,
  0xbdef23353d8b2dd3U, 0xbebac4fd3e4780cdU, 0x3e8d72eebf0b2e02U, 0xbe831a963de69a12U,
  0x3ec4a3393e158e1aU, 0x3e52df31bf0da71fU, 0x3d84b12d3e166567U, 0xbd6b736c3e6dc599U,
  0xbe9285a73f09ccabU, 0x3ec5a39abde14461U, 0xbec163f5bc121944U, 0x3e8c51173e587750U,
  0xbed9774ebe05f0dbU, 0xbe70c9edbdbd9cd9U, 0x3dbcb45b3e3a2f94U, 0x3e6188783e63e74cU,
  0x3eac1cbe3f28a89cU, 0x3e8673cd3e17ca41U, 0x3e6de43fbe9f6d29U, 0xbdea899abe11b5f0U,
  0x3eae50d9be9f88f5U, 0x3e9a32e6beb7a99bU, 0xbe13b3853e8a7b1eU, 0x3e506d82bdc76024U,
  0x3c0c946bbee53866U, 0x3ecb892e3e9e1cb8U, 0x3eaa5f5fbf0cde05U, 0xbeb8a01dbe52db9cU,
  0x3f0d6e10be198163U, 0xbdc6d5fdbf667b21U, 0x3d051d3a3cb99c7bU, 0xbdfe005e3e9d27c8U,
  0x3e79e09a3d4e09c6U, 0xbebe5585bed2450eU, 0xbdffa2133de94474U, 0x3e4538f03dd150f3U,
  0x3e13e004bd01ced1U, 0x3e3eb38fbe748d3eU, 0xbe3e7defbf07c7cbU, 0x3f04b1eabdf6f2edU,
  0x3e79874d3ea765a6U, 0x3e826c9d3c8a8cd4U, 0x3cc26fc3be75ff36U, 0x3ea1a595be801e33U,
  0x3c9149163dbb07afU, 0xbeb73920be3a79e9U, 0x3d88ae893eac15e4U, 0xbd041b0dbdcb48d9U,
  0x3e1a086abd20e20dU, 0x3cab21103e2842a1U, 0x3f0ddde7be6dc6d8U, 0xbea1d92dbdf97449U,
  0xbe1c24453df050fbU, 0x3e61fcc0bf45fd0fU, 0x3c04bebb3ebd7391U, 0xbdf78531bd9f5a52U,
  0xbe4e28f3be01e329U, 0xbe082116bde95d9eU, 0x3ddda7103e89305eU, 0xbca3f37bbe1c3797U,
  0x3e4666f8bec5d8e7U, 0xbdb9f8bcbe7b10d5U, 0x3b8619d93da092e3U, 0xbdf8fff9be1c534cU,
  0x3e824c66be5d62a4U, 0xbd13cc593d77f9f2U, 0xbecc1845be01cfb3U, 0x3e18215c3ea8f8b5U,
  0xbe80de723eeab28bU, 0x3d7271df3e069917U, 0x3daae56abe5a74a1U, 0x3de63da93ddeae5bU,
  0x3d312681be9d721fU, 0xbd27477d3e3357ffU, 0x3e9279853e94c130U, 0x3e43f1b6bde11764U,
  0xbd01105abebead32U, 0x3d15e51bbdf690a0U, 0xbf0d0d88bc85cad4U, 0x3eab472abe9431bdU,
  0xbc4b85d83e9d0c95U, 0x3cf940e83ad57bb9U, 0x3e7f34cf3de35873U, 0xbdd21ba0bebd3d17U,
  0x3e849cad3d3c2278U, 0x3d891754be1226a1U, 0x3e03ee93be5f3b11U, 0x3e23a89dbedd5782U,
  0xbe6be6b53d466805U, 0x3df679883e3e8990U, 0xbe783b91be792dc6U, 0xbd500f003efa8c45U,
  0xbec421963ee832e1U, 0xbe343dad3df7b646U, 0xbd870297bdcbb7c8U, 0xbdb1183a3e9803aeU,
  0xbe57a3b1be7b9be0U, 0xbddca916bdc31127U, 0xbc8dc6d23e714663U, 0x3e96463fbe4580e2U,
  0x3d9a1c89be6eee24U, 0xbe911029bf1d949dU, 0xbed5366bbd509386U, 0x3b2cff803dd8a3a7U,
  0x3da645433eb5188aU, 0xbd7ff29fbd774010U, 0x3e473a1a3d8232faU, 0xbe6214f0be74a549U,
  0xbbab95b13e425b4aU, 0x3ea5f5e0beb715eeU, 0xbecb3543be770830U, 0xbbd206aebd88825fU,
  0xbeb796a43d0f6858U, 0xbed748d73e768e10U, 0x3d5ebb173d3defc7U, 0x3dcf83713e6e3280U,
  0xbe828e093ba8479fU, 0xbe8390723e2919b8U, 0x3e5c7a133e198ecbU, 0xbe460d60be505a91U,
  0xbde02124be5e82aeU, 0x3d90c616bcbd17cdU, 0x3dafcacb3e89148aU, 0x3f19ca1dbe4f2115U,
  0x3e52fa7a3d4853f5U, 0x3dacf3f3bddd0b53U, 0xbd813a5fbc07d323U, 0xbca172893d81b1daU,
  0x3e3dc1d8be9ae76cU, 0x3e9394ce3e8ba0bfU, 0xbe458f42be90f1e1U, 0x3e29414ebe9f3b4cU,
  0x3e1fea8cbd572746U, 0x3db4ffe13d5482b5U, 0xbe04b85cbd4cd35bU, 0xbd0ea93fbe159f28U,
  0xbee78dffbeb555c0U, 0x3c53c1243d77992fU, 0x3d8a9873bebd621fU, 0xbe51825e3df8a8dcU,
  0xbea3dcf7bc7c6e33U, 0xbe2b446a3e9ec659U, 0xbe7640493d3557cdU, 0xbd7c4ffebe7b39b2U,
  0xbe045385be5a99d1U, 0xbeba15d03d2825d4U, 0x3c44a11abe3c346cU, 0xbe83e6253da74211U,
  0xbec2d37d3b23f71eU, 0xbd37124a3eb05becU, 0xbe5db5763e1d6a66U, 0xbe1b7e8b3e2399a0U,
  0x3ecfe3ba3de9071eU, 0xbe68d8d6be81b51aU, 0xbef61da9beec4019U, 0xbdd619743e3b53d6U,
  0x3e70d298bdefe8c8U, 0xbea11a9d3e5e131fU, 0x3c73e9503d8ce071U, 0x3e1339e43ec39f79U,
  0xbd7b6011bdd70afcU, 0xbe6d518e3e2fa7a7U, 0xbe4e58af3c3d18a3U, 0x3da755403ddc8701U,
  0x3e81c925bdc962dcU, 0xbdf9c9733e73554eU, 0xbb0762ed3d501b1fU, 0xbcdd14943cba01c6U,
  0xbd85f53c3f14d9afU, 0xbeb8f2cbbe8d520eU, 0x3d8e59a1bd39c332U, 0xbe42dfbfbe784af1U,
  0x3e0425bd3d638998U, 0x3e693efc3d614ec3U, 0xbe3234cf3d684b9bU, 0x3eaeac1bbe0f54b7U,
  0x3e99a2753cd119beU, 0xbd81f7803e974c9fU, 0xbf133583be3ec28aU, 0xbd0f7a613c9abff4U,
  0x3c76aaf93d242e28U, 0xbe827d29bd8b1f43U, 0x3c8d82c73eb848caU, 0xbeafd9523d5c6d05U,
  0xbc56077ebe48eff4U, 0xbc7e07fabdd4d140U, 0xbdd124acbed467b8U, 0x3e1b4800bd9a1f6bU,
  0xbd8c12c8beb9854bU, 0x3d62c3653f0b1555U, 0xbdce59783d3db1bdU, 0xbd0d7c4bbc7dc912U,
  0x3cd12b1dbe0521ebU, 0xbf0cdaafbdba9899U, 0xbd5c7e6abedf11b4U, 0xbe9e2706be89eeb7U,
  0x3eb08df63d0fc02aU, 0x3ee3ec67be3e72bbU, 0x3c53e8e13ea9920cU, 0x3e3e06f3bdf6592fU,
  0xbe2eb0f5bed2cccdU, 0xbf701f673d8dc2f9U, 0xbdaf0ab5bef5e842U, 0x3e5961043eaa488aU,
  0x3f0c7cf53d95f8a7U, 0x3f24b0e4be34bf77U, 0xbe41618cbe727642U, 0xbd67c2e93ec4f9fbU,
  0x3e9fb2a8bea5b457U, 0xbe39348f3d217dabU, 0x3f0833bb3d8267e7U, 0x3d58f92bbdd8211cU,
  0x3eedbf093cf123a1U, 0xbe1785543e92b244U, 0xbe303bbdbd9c60deU, 0xbe3209a3be6e11feU,
  0xbe93404f3d66fff6U, 0x3e0db4b4becf0e5bU, 0xbed5817b3e2e456eU, 0x3e8d1472bde063dbU,
  0xbedd4db13f2f3ff9U, 0xbe6ace993e00a9b4U, 0x3e954929bd3edc8dU, 0xbe2cefa9bc076d9eU,
  0xbf26a5fbbb9c85cfU, 0xbca501d43ec73351U, 0x3eac6d103dead6f9U, 0xbf26667a3e3681faU,
  0xbf1681933e49b7f7U, 0x3f092beb3decc70fU, 0x3e58c4793e4894c8U, 0xbea9fa813ec96358U,
  0xbf200888be8e0a37U, 0xbf4572853e2d546dU, 0x3e1988b83f021b3bU, 0x3e0e17c53c52c115U,
  0xbc1ce6703f03e1fbU, 0xbea8bfdebdeadd8eU, 0xbea5af56be9684b1U, 0xbd74cef1bef5b817U,
  0x3ca55208be94c3baU, 0x3f16a4e7bd107c67U, 0xbd99daa03f1859aaU, 0x3d983db93eee2b10U,
  0xbf1d14fc3e0bf214U, 0xbe90601f3f2664b2U, 0x3e6ce3a0bee74883U, 0x3de414f53ec8f766U,
  0xbe81d6c3be6e4e84U, 0xbcb663e9bdcc9e6eU, 0xbef1c9d03ebb4df4U, 0xbdc3bba73e9155e1U,
  0xbf06c0983d083e82U, 0xbe421db83e10b27cU, 0xbf0e63b9be21dd2dU, 0xbdc73b60be1c29f0U,
  0xbf0c61dfbcf11ec0U, 0xbdb6e8353eb77456U, 0x3e27d37e3eca6bb2U, 0xbed2f8353e3dfc14U,
  0x3e93eb973e0b382dU, 0x3e9348d1bc86fd4dU, 0x3e0e467bbbc875d1U, 0x3e421fb1be816c7aU,
  0xbebfaebe3ce8a6fcU, 0xbf4ecbd93e9e475bU, 0x3e0db8debdeca598U, 0x3f0e9a89be724cd7U,
  0xbf124ce03dcf64e3U, 0xbf1e7a85be118db4U, 0xbe904c6cbe830e5fU, 0xbe453c313e1dc4a5U,
  0xbd8a2b41be6a4104U, 0x3d6e528e3dc426b6U, 0x3dd959fabc8a88feU, 0xbdfa42153e241642U,
  0x3d2c3c823c8ba4caU, 0x3d7486fabe2b3f53U, 0x3dd140fc3e4c71e1U, 0xbd2ae2fb3c478be8U,
  0xbdfa2d39bd85ddc9U, 0x3e73f4693dbcc6a0U, 0x3d8b65f4bdbcd633U, 0xbd3bf7053de82c81U,
  0x3e07dfe03e2e4eb4U, 0x3aefd96e3d0012aeU, 0x3c5d88f43d8c3b74U, 0xbd46d01abc9266f2U,
  0x3e1ee9b43ba0d665U, 0xbe102f24be0007d9U, 0xbe0c92513def92c8U, 0xbe6e21c53a1eee1cU,
  0xbd9c76893e1765eaU, 0xbe0d44273e175e33U, 0x3e2941533d8a1ce7U, 0xbe0b1d773dffbf61U,
  0xbdd74570bdf4adf6U, 0x3c9cfdaabe4f4496U, 0xbe278c853cccec18U, 0xbd0adcf7bc70834eU,
  0x3dd1360ebd6d9c88U, 0xbe04a38b3d952010U, 0xbdb30af43d80bf15U, 0xbe07a6093a913159U,
  0x3c7a6ae93ddf3fe2U, 0xbdf8b4a3bd50db4dU, 0xbe3a92ae3bf07208U, 0x3d956a6ebe212580U,
  0x3e0d97fe3d521fadU, 0x3bbb8ac03d971f8eU, 0xbe116098bd8c2a26U, 0x3d9b73fbbd825823U,
  0x3d17a4babda8cf97U, 0xbdfb895abdcd7240U, 0x3c049367be34219aU, 0xbd093f0cbcd78804U,
  0xbd75ef7d3e182d1eU, 0x3d58ed433e165d08U, 0x3d24d284baacd97cU, 0x3d487381bc6289b2U,
  0xbe8c99ddbdd6046aU, 0xbebeb0013cef1691U, 0xbe0e0a4cbe851687U, 0xbc2bca2d3d5dd785U,
  0xbd85a54fbe0992deU, 0xbd94f0673d0c6a28U, 0xbe408dbfbe16c8d3U, 0x3db556e53d6982cdU,
  0xbde4f754bcf1065aU, 0xbdaa6778bca95f9fU, 0xbcdf06d6bd29accaU, 0x3e1e8fd73d95cd69U,
  0x3e243ce23d2dfb70U, 0xbe538ba7bc51df82U, 0x3d32ec263e5247beU, 0x3df8f1c43da4e393U,
  0xbbf60b46bdc583d7U, 0xbe2ee8d3bce6d0ecU, 0x3ce8722b3df7535aU, 0xbd70ee4f3e033df2U,
  0xbc4561a4bdc326e6U, 0x3e138fd43e5dbb5bU, 0x3df31385bd9dad54U, 0x3cb73f01bdc553beU,
  0x3b86a9973e07b900U, 0x3d3a01e2bde7ab57U, 0x3e782aa6bd64ddfaU, 0xbdfad3aa3b216f73U,
  0x3e2c6d083de4a98bU, 0x3e5f7a46bcaa7509U, 0xbeefeb31be469dffU, 0x3e07e58b3e1485ffU,
  0x3daf270dbe9c2766U, 0xbf0a9489be53fda7U, 0x3dc5e183be224ad6U, 0xbd5cc9e23dbaf1d3U,
  0xbeb6f8ee3e9d156dU, 0x3dce2c623dfe5f48U, 0x3b2a639bbea7d977U, 0x3e4233373d07e603U,
  0x3e56249fbe25c36fU, 0x3de658213df04953U, 0xbe42d4d83eba00a5U, 0x3e18ccc2be5b4f37U,
  0x3dc857de3ea1e60aU, 0x3df89c233d0ecd5bU, 0xbe625b14be47ee63U, 0x3b420375bd5cccecU,
  0xbdf4f0d2be941705U, 0xbe8d66a93ebac9c7U, 0xbe9e3f6cbe8d92c5U, 0xbea69114bd5ed1e0U,
  0xbe02ecb8bdfa9944U, 0xbd545ddf3e940270U, 0x3e2a48ac3e14e2f2U, 0x3eadc7353d35bc17U,
  0xbf106933be123a29U, 0xbeec399d3e97d4c2U, 0x3e89e3503e910983U, 0xbb00bf5fbe341fe1U,
  0xbec5b95e3d5a905aU, 0xbd599feabebae95cU, 0xbc857485bd9de789U, 0xbe23df9bbd8b7b40U,
  0xbe3eaffa3d39a234U, 0x3e16c4253db14831U, 0x3e53ec1a3eb2f3d3U, 0x3eb225be3e99debdU,
  0xbe71bd2f3f0d6480U, 0xbe2d5766be388e03U, 0xbe0c8e413d3a17cfU, 0xbe1625cd3e4e04d6U,
  0xbe820ae0bd905d77U, 0xbea8ca783ec02520U, 0x3f05e0cebe46753dU, 0xbce96d1d3e14493aU,
  0xbe87f9be3e42c4daU, 0x3efaf893bd06be24U, 0xbe2519af3e3c9ab1U, 0xbe81b86cbda9c815U,
  0xbe86eee9be010a5aU, 0xbe8b930b3dda018eU, 0x3d9d840a3e6f86cfU, 0x3e8d7eb9be99cc33U,
  0xbe7ffd1e3e41dc6fU, 0x3e888e82bec3f09dU, 0xbec02e1b3e1df6b4U, 0xbeaa0654bd1bb4cfU,
  0xbdf89b0dbe05485dU, 0x3eafd4cc3cd8c346U, 0x3c9c5814be278826U, 0xbc9978c73e67dbeaU,
  0xbdeb49e9bddaedf8U, 0xbdf51fe8bda2fc01U, 0xbcb953b8beb81cc6U, 0x3dbaabbd3dfeefa1U,
  0xbd2422393c0b8bc2U, 0xbec6d84c3d86a1d2U, 0x3e728640bcc8f7f5U, 0xbd4909243dad46efU,
  0x3e8a9206be05e4bfU, 0x3c4e7ef4be2de645U, 0xbc8d7c013db1e443U, 0xbdf1504abcf3a19bU,
  0x3e042a0cbf15c84fU, 0xbd1e86453e623aa5U, 0xbe4899093e3663f6U, 0x3e87c77f3e2192b0U,
  0xbd351fe73d9d1179U, 0x3d5325293f153cecU, 0x3e3239c4be41fb5dU, 0xbc8aa8423dc36d78U,
  0xbeb24817bf17d4dcU, 0x3e17dacabeef1de3U, 0x3e0cb2ebbe187260U, 0x3d02c2023e3fd830U,
  0xbea1d6393c53b82dU, 0xbe526ffdbe8a44f2U, 0xbc02d61e3e84136dU, 0xbe1659d5bd95bff7U,
  0x3b460ade3ee71d79U, 0xbecddc03be85b730U, 0x3f02929e3e23c164U, 0x3b462bbabe62f0beU,
  0xbdc48ec6be87b142U, 0xbdd65541be62a3ccU, 0x3ea43e5ebe011121U, 0xbe14b95ebe6d76c0U,
  0xbf2b7153bef2b0d1U, 0xbe8e3ce7be83dd6bU, 0xbefcabb73e99b5beU, 0xbdec1b543f08f25bU,
  0xbeee67783e40d93eU, 0xbeab39283f4f0f3eU, 0x3e9917b1be88d9a8U, 0xbda914093d8ff9f3U,
  0x3e186e6fbe922a7fU, 0x3e355d34be5dbef0U, 0x3d9b78e63f3b72d9U, 0xbd1afae83e2c3868U,
  0xbf4502413f0df5fcU, 0xbe992e0abe70859dU, 0xbeacd451be6897f0U, 0x3e14d63c3df93e64U,
  0xbe16e5723d0f90f4U, 0x3ef0de32be0994a6U, 0x3e53d3c53f1c1709U, 0x3dd16601beef684dU,
  0xbd3b9169be9331c1U, 0x3d539dcbbf0359f6U, 0xbd554ccdbe167231U, 0x3e7de7073d915875U,
  0xbe45fa18be84bf4fU, 0xbc22bcebbce3d3f8U, 0xbdbdecb5befd0acaU, 0xbd27be743f07a008U,
  0xbe86d1393e1efa89U, 0x3f032c5d3ce50394U, 0x3e1b3710be0bbdf9U, 0xbd0fc6c83e6ab953U,
  0xbe28c585bdd8f146U, 0xbebc90bd3e099535U, 0x3ef0e1133eace343U, 0x3e78c3e93e3fc14cU,
  0xbf36e7efbcf6a105U, 0xbd1b4b863ebd3c6eU, 0xbea9e332bf043653U, 0x3e00f011bbe91d4dU,
  0xbee6b8dcbeaa70ecU, 0xbf5db2b73ef01b73U, 0x3ea44ea73dcc0d5dU, 0xbea241183dcd6044U,
  0x3de33e563d69a0b6U, 0x3eb16fa1be8f90dbU, 0x38d8d629bd8a1502U, 0xbebf4bb03d5d33c0U,
  0xbeaed9d3be8c74beU, 0xbd16c1453e0246f8U, 0x3c8eb8d73ac40fafU, 0x3e7148dd3d73f9a9U,
  0x3eab13fa3d01826cU, 0xbbffa0c63dca8393U, 0xbdb9b4243be0330dU, 0xbee931e7bcaf39bfU,
  0xbedb20e4beae633aU, 0x3dd12d80be00dc4eU, 0xbe6a3797bc3f6d49U, 0x3e588dcfbe6e7605U,
  0xbe5082fa3e06f1e1U, 0xbe9e87d73e3879acU, 0x3e84b38ebedd3980U, 0x3dfd493bbdb9a474U,
  0xbf107600beea7d11U, 0x3d3cd2143ec92db2U, 0x3ef949b9bca576dfU, 0xbf1ccd3abe8ad9c9U,
  0xbedce0043ed24179U, 0x3e244c5dbe177099U, 0xbce6ecc9be6e6e49U, 0xbe0fdf2a3e1b9519U,
  0xbe459cdfbf4c9588U, 0xbe8150943f008613U, 0x3ee70d353dc5a523U, 0xbe6ef5033ea86716U,
  0x3c2afe603dc74660U, 0xbe937701bee0703dU, 0xbdbe345d3d8f075dU, 0x3dbaa05a3ccc2414U,
  0xbeb3c00fbde5bcccU, 0x3ea3fcebbe9b6032U, 0x3db405a53e5b2a7eU, 0x3f2dd5423e0535faU,
  0xbe883a123ef0cbabU, 0x3e6338d33e146f47U, 0xbe4f63abbf4b3c90U, 0x3dc7d67f3edc11caU,
  0xbed03bfebd271fe6U, 0xbd9d86423d3dd3a8U, 0xbef7f7d5be906672U, 0xbd7f815c3ede43b8U,
  0xbef3e4acbcace692U, 0x3c3ef9e0bd2b038dU, 0xbd45fad13e806111U, 0x3d5e5cf63e5a0d03U,
  0xbe0e9839bea21c76U, 0xbe3eb624bdac434eU, 0xbd4db0c93efb938bU, 0x3da2c926be899896U,
  0xbeafde40bd5c5e97U, 0x3d43ddd1bdfdea1bU, 0x3d570dbd3e35be58U, 0x3ec4d7d0be80aee9U,
  0xbe42be113e21641bU, 0x3eb582673d43930cU, 0x3bbea865bd4e0186U, 0xbe6ab6683edd5515U,
  0xbe9ae6a63e83e32cU, 0x3d4de0c63df657deU, 0xbe92d16ebede3b03U, 0xbb99b21c3c3cbdeeU,
  0x3d92f6433da67afcU, 0x3cd830633ef2ca95U, 0xbe8af9b43ec3426fU, 0xbcc69cd2bd57cc81U,
  0x3e936cb63eb9913cU, 0x3d6b3572be0a4303U, 0x3e15fbe9bed8099dU, 0x3eb40fa23e894eb2U,
  0x3ed5a393bc02eb59U, 0xbe20997f3e00728dU, 0x3ea8d10a3ed41130U, 0x3d4b2a6fbdd5a975U,
  0x3e74aeabbe83f97aU, 0xbeead36bbeb97ee0U, 0xbe6fbd493e959f3aU, 0xbe9c5e45bedb9259U,
  0xbac9b5433d0bbfa9U, 0x3ec98320be3f8169U, 0xbda576bcbd2de7ccU, 0x3ec209a03e31a175U,
  0x3dbf39cd3eb7ea21U, 0xbec9465ebec97e70U, 0x3e89bac53e7e9ca4U, 0xbe85d8ba3e4a765bU,
  0xbe523b483dd95ddeU, 0xbeb7ee713e44645fU, 0x3dd0c54fbeb4f468U, 0xbe4d3db13e8891e5U,
  0x3eb53cfc3edbb674U, 0xba3b2bcabeb86f4dU, 0xbf0fd761be8c0b94U, 0xbe093fd4bdcb61fbU,
  0xbd9f0ab33dfca929U, 0xbf189a483ecd76b6U, 0x3e3895c03f08a0fdU, 0x3e3d5234be613493U,
  0x3de9d7acbc8588f6U, 0xbd07c278bf713930U, 0x3e8921d3be66531cU, 0xbc1e65773e1767abU,
  0x3d8f7fcc3ed4dea6U, 0x3f3b5d203dbade6fU, 0xbe44e77bbca0cf4fU, 0xbeac63a63e2f281dU,
  0xbf00fd2f3e524002U, 0xbdfd1d10bd640defU, 0xbdb045fc3df4aa9aU, 0xbe1b56b73ea95ce8U,
  0xbe6b6dbdbeb009f9U, 0xbea32fb93ef99c53U, 0x3d8140edbe8359cfU, 0xbe8d4ec13dda7981U,
  0x3de4af983cede5e9U, 0xbd7707163eaebe83U, 0xbd00ca993e4dad05U, 0xbe569d183bbddc09U,
  0xbec77e2d3dc47708U, 0x3d9feaf4beb42f0aU, 0x3e5be8c53f179ea4U, 0xbd07308dbea28228U,
  0xbc27aa943e29f779U, 0x3e36f99dbeb31e17U, 0xbf0670663d8561f4U, 0xbd52a3763dc743a7U,
  0x3c929dd63ec92511U, 0x3eb3190dbe0068d7U, 0xbeef438dbea1e63bU, 0x3df2f9693e511a4fU,
  0xbebb7f33be8213b7U, 0xbf212c6b3dd30298U, 0xbeb2d9ebbdcccc95U, 0x3e77f2403e7f5454U,
  0xbe6437283dbf5512U, 0xbdf1aacabe4c724dU, 0x3ed85fdc3e36b9ceU, 0x3ed475ae3e17ce04U,
  0x3e8e8f88beb3165eU, 0x3eb69146bd4fb5f4U, 0x3e8c79debdcf4d66U, 0xbe3b014dbe82c885U,
  0xbf0e7a42be20f56aU, 0xbea7c343beb84b12U, 0xbea12838be18e390U, 0x3eb1d3bfbe6a7844U,
  0xbd5e41f63e55a965U, 0x3e385de83f13e8d2U, 0x3ee424833dceccd1U, 0xbc35f3953d4b88c5U,
  0x3e40a091bf19820cU, 0xbdbb7995bea7e3dcU, 0xbcc77a09be257aa5U, 0xbe1ff12a3d9a812dU,
  0xbe8c4c32bd5bd1cfU, 0xbe085b7a3e81b228U, 0x3e9e23793ebfd348U, 0x3dfb1d84bd81d1ffU,
  0xbea40b52bca8047bU, 0x3d74213b3e93289aU, 0x3e8986ec3edecaa6U, 0xbee2b8c73d9b3e75U,
  0x3e9b8f6e3e4ab7cfU, 0x3e91b899bebb84cbU, 0x3e4b18643ddd8cacU, 0xbd8eb6bcbddaa74eU,
  0xbe66ace2bca0c97dU, 0xbf0a2de43e168715U, 0x3ef26727bd43d757U, 0xbdd5f1153e9f194bU,
  0xbe19ba303f4a62eeU, 0x3ccf86ba3d5301acU, 0xbe4b81323e3c97eaU, 0xbee14153be24f1b0U,
  0x3e16df073c890490U, 0xbe3a61683d5e085aU, 0xbe4441ec3e41578aU, 0x3db745ffbd919a57U,
  0xbeaa157a3e493152U, 0xbe7e700f3eb548beU, 0xbdc1c7aa3e86536dU, 0xbe8a8ac23e04f860U,
  0xbe8d7b66be39d997U, 0xbe2f7c2d3d918212U, 0x3ded10c5be6f43abU, 0x3d4162f0beb5ea41U,
  0xbebf09d3bd71a9a2U, 0xbe988905beb0448dU, 0xbee0fc4d3d99015fU, 0x3d3eaf4ebe347965U,
  0xbe1217f0beee362fU, 0x3e614ad23cdc716cU, 0x3e3db9f93db69ac7U, 0x3e610fc03dea1c05U,
  0xbefcf1acbd9b1ec8U, 0xbe9601f63e71daa3U, 0x3da7d21f3daf1bc9U, 0xbe4268ff3e2b741cU,
  0x3d673053bec303c1U, 0x3d60e7a0bdd81780U, 0x3b8eac16bdc65f67U, 0x3ee9b7cf3ef9619dU,
  0xbe091b58bdf4dc2eU, 0xbe82d84b3e1a3955U, 0xbde67cc9bf1daca4U, 0x3e85bcb43ea4fe2dU,
  0x3ef22552bf444916U, 0x3f5baad7bfa4e89bU, 0xbef83c7bbfa95c53U, 0xbfbff478bdb54dfaU,
  0xbf9c23353f71debdU, 0x3f025c02bf71f9b2U, 0x3e2c9c8fbf84440bU, 0x3e774253bf5188daU,
  0x3f07a2fb3fceb34eU, 0x3f25fcb73dcc099cU, 0x3f684fc03f138ce6U, 0x3e19294cbe7a0f90U,
  0x3da4e656bda6a0c7U, 0x3e93bd583e84e2f6U, 0xbdedeba7bdab5f95U, 0x3e95c6d83d009e7aU,
  0xbe819ca0beb058f3U, 0xbec35a7bbc8500d4U, 0xbc7b0aeabc3bd258U, 0xbecd28fb3d93222bU,
  0x3e73d4c4bde0964dU, 0xbd94d56c3e9a9f48U, 0xbeafceffbc18023dU, 0xbdcd3063be00d544U,
  0xbe7d7c203ee92bcaU, 0x3ef1c4353ee4b395U, 0xbef5ee293f34bf6bU, 0x3f17363ebea3cbb1U,
  0x3d84a04c3e0eb872U, 0xbc4ec8fd3db786eeU, 0xbd0d12353eb4bab1U, 0xbe44c3dcbdce847dU,
  0x3d58e0753e529d75U, 0x3ca90c2f3eb2aefaU, 0xbf06181abe2ebe0cU, 0xbd9a280dbee0b46bU,
  0xbed981e03e095d1fU, 0xbe430a0d3e98b71dU, 0xbee349843d88edb1U, 0x3e0f59093e941c5fU,
  0x3f036c5c3e932b1eU, 0x3ea8e3043f0d9720U, 0xbec4ee193f1e1066U, 0xbedf9911be3f298eU,
  0xbd9340033e9f3d87U, 0xbe1fbec43eccdbb9U, 0xbea2d53dbe556700U, 0x3d21f5cdbd22e524U,
  0xbea6ca403f02b854U, 0xbe04b2ec3db8467aU, 0xbeb40e803ee202e8U, 0x3e67bee9bea1d245U,
  0x3e237cec3e72206aU, 0x3e317a563ee70989U, 0xbe4c561f3f0bf198U, 0xbe8ac3d53e319b0eU,
  0xbe660ba83e31c946U, 0x3e026d6ebeae3380U, 0xbe81325cbdf230c6U, 0x3db53c9fbe2eb451U,
  0xbec67e5abe5c5f31U, 0xbe6cef65bd114b98U, 0x3cc9cf4ebcce0487U, 0xbd9aaccb3e2ea8ceU,
  0x3e1e1b033e934799U, 0xbe349e233b141d8dU, 0xbe23c842bea63fefU, 0xbca7ee193d5372cdU,
  0x3dbbb9cabe2ad73eU, 0xbe9ee7aabeb85b47U, 0xbe8dce51be92a778U, 0x3e022ec63e986c7dU,
  0x3e28a26d3daa3770U, 0x3e28199b3f0d3f20U, 0xbe5342313ea24cddU, 0x3f1a9cadbecedb84U,
  0x3ed2507f3ec8db4bU, 0xbed251cf3ef98813U, 0xbeb28e6d3f0c27e2U, 0xbc81ccd9bddd5ca1U,
  0x3da9914e3ecd4a8dU, 0xbec699ba3e2221fdU, 0xbed3c44dbecc4995U, 0x3c9e7ba7bd104142U,
  0xbeaacd623f0e36cbU, 0x3ca6fd5f3f09fbefU, 0x3d8892573f261c9eU, 0x3e03527ebe1e55b5U,
  0x3ea82fa23bb1ab94U, 0xbcb1da583e91bb1cU, 0xbf038df13eacd6a7U, 0xbe8bd1103eb24467U,
  0xbe5afe083ecda02aU, 0x3e03d2853e5d6878U, 0xbe90b95abee2c93aU, 0xbe8823193ddd55d0U,
  0x3e9f68ad3d97bd09U, 0x3cc64d87bf06e2f7U, 0x3e02694abed8aaacU, 0xbeb2cbca3ec0f777U,
  0xbe95866ebd985e77U, 0x3ec10b91bf084a3dU, 0x3b9bf9e3bd438dbbU, 0x3e9176f1beb9ee21U,
  0x3e95c465bd2fc7b0U, 0x3de7288d3e7be492U, 0x3e91925d3ef130d3U, 0x3e6674763b427245U,
  0xbee3823a3e1a2be8U, 0xbe129b543f232cf1U, 0xbed29b4f3e9fede6U, 0x3ee68e2abeaaf481U,
  0x3efb08cf3c9785a1U, 0xbe2099f63e961c57U, 0xbf029adc3ebceb36U, 0xbd9cc57a3e8ddacbU,
  0xbf10cf263ec57423U, 0xbebf2a763ec873d6U, 0x3e38394c3dc99281U, 0x3e79a176be9ddf82U,
  0xbe15bfc33b1ca9b0U, 0x3d8f1b713ee60cc4U, 0xbecd63a93f06b3e6U, 0x3efd9ef5be4c36edU,
  0x3ed000a8bdbd03abU, 0xbe0d726abde2902aU, 0xbe510df33ea29b32U, 0x3de0e04a3df6354cU,
  0xbe789acc3ebe3aa1U, 0xbeaccbb43ea4d3bfU, 0x3a0aad103c87ad89U, 0xbe65c13cbeb3a958U,
  0x3d52e194bf14cf4cU, 0x3d75997ebee3736dU, 0xbe7257323d85bbe3U, 0xbb27cdd2bca257d7U,
  0xbdea69713dc7f0e9U, 0x3e1cf8eabefdb10aU, 0xbc4390c4bee1beeaU, 0xbe0357cbbe6ac869U,
  0x3ef76fe7be400fa8U, 0x3ee05edf3d6cc2b4U, 0x3ef644e23e82c727U, 0x3efaca433e4539f9U,
  0xbef13ecb3ebc3ba3U, 0x3ea3b2713eea0132U, 0xbe0af2763e8b1389U, 0x3ee6eb8e3e9bd6a1U,
  0x3ebf06d63d06fdd9U, 0x3db929b13ecf4151U, 0xbee2613bbdfb7776U, 0xbec03acfbeb1854cU,
  0xbdcc30a33ee725ecU, 0xbeb61add3cecb6faU, 0xbe69f87b3ce585eeU, 0xbe7f06aabd419710U,
  0xbec9f392be5acd42U, 0xbe82da31be81e038U, 0xbdac17f8beb1e3cfU, 0x3d97cedabdc3ec18U,
  0x3cc5dc24bcb043f1U, 0x3eaaa19fbed81f64U, 0xbe9e34dcbea1bdb6U, 0x3e65b082be0f6c4cU,
  0x3ea2613ebe94a129U, 0xbe7bfb3abd1836fcU, 0x3e99fcf3bd0b03f8U, 0xbe9c237c3d0ee695U,
  0x3da3bc3a3db9968aU, 0x3e83635f3e30d5c5U, 0xbdef2df93da5caeeU, 0x3e35626d3e1b7173U,
  0xbeba9c613e9956d6U, 0xbea0a88b3dd814ebU, 0xbec8e2853d1fc1ebU, 0xbd253f88bebacfc6U,
  0xbea0ec15beb994d2U, 0x3e1ca22f3d143125U, 0x3e3c6650bd71d0caU, 0xbe5151eebe9dde1bU,
  0x3df15986bf21596fU, 0x39a30aa6bd9c36f0U, 0x3d599accbd86a61aU, 0xbef686ef3d9ea757U,
  0xbe596d87be7b01dcU, 0x3e846a4cbf0a79d1U, 0x3ea5d03ebf0bcfabU, 0x3e9cea43be0ad416U,
  0x3f2ce06fbbf00b3fU, 0xbce9216f3e8ab513U, 0x3eef86da3ecef84cU, 0x3ef96bcebe491126U,
  0xbb2a5ec7be850c7fU, 0xbed1ae173dd28216U, 0xbe4b728e3cc91b2eU, 0xbdf000a63e896b45U,
  0x3e8b3f49bd375070U, 0xbecdf3d43e6b1ca8U, 0x3c2385b4bdbc369dU, 0xbe54f33ebe4a6a65U,
  0xbebb727d3e362165U, 0x3d5728073d8c234aU, 0xbed393c23eadbfc5U, 0xbea0142fbe1572ccU,
  0x3d165f69bd78f6b5U, 0x3da529c63d45f8fbU, 0xbc546a14bd80bc7aU, 0xbd1e2db93d16a768U,
  0x3d42f2543dbd517dU, 0x3ccdf9f73caf94b9U, 0xbd6b99c4bd461558U, 0xbcf28df53bda1759U,
  0x3f15f4e4bd09bf8fU, 0x3f3d3c6d3f009b98U, 0x3f00bdf8bedef473U, 0xbf46dc593ec1453cU,
  0x3f44e6323f14cd1eU, 0x3f54efb0bf88e8d7U, 0xbd7d3f4e3ea72225U, 0xbed160a3bf2b770eU,
  0xbf223a00U,
};


ai_handle g_network_weights_table[1 + 2] = {
  AI_HANDLE_PTR(AI_MAGIC_MARKER),
  AI_HANDLE_PTR(s_network_weights_array_u64),
  AI_HANDLE_PTR(AI_MAGIC_MARKER),
};

